<unk>	0
<s>	0
</s>	0
.	-2.39556
▁the	-3.19151
▁to	-3.40968
▁a	-3.57717
▁was	-3.75655
▁he	-3.81134
▁she	-3.98297
▁and	-4.02475
s	-4.21895
▁her	-4.26907
,	-4.31871
▁his	-4.383
▁it	-4.44445
▁i	-4.50995
▁in	-4.60734
'	-4.67193
▁of	-4.70259
▁had	-4.77502
▁for	-4.77522
▁on	-4.96735
▁they	-5.08537
t	-5.11467
▁at	-5.31359
▁with	-5.32555
▁that	-5.36545
▁up	-5.39635
▁out	-5.44654
▁my	-5.47702
▁him	-5.48069
▁one	-5.49231
▁	-5.5199
▁went	-5.52527
▁day	-5.5276
▁when	-5.59792
▁but	-5.61152
▁got	-5.62093
▁decided	-5.67605
▁all	-5.74454
▁were	-5.75381
!	-5.82982
▁so	-5.83408
ed	-5.84456
▁wanted	-5.87143
▁new	-5.92906
ing	-6.01691
▁an	-6.01704
▁very	-6.04235
▁them	-6.0904
▁home	-6.13402
▁as	-6.13755
▁not	-6.13912
▁we	-6.15226
▁from	-6.17899
▁after	-6.18326
d	-6.19618
▁get	-6.20699
▁time	-6.20762
▁go	-6.23711
▁would	-6.23735
▁be	-6.24565
n	-6.2474
▁took	-6.2977
▁is	-6.30617
▁there	-6.31596
▁didn	-6.32447
▁friends	-6.34579
▁about	-6.36231
▁some	-6.39147
▁found	-6.39497
▁school	-6.42446
▁tom	-6.43444
▁made	-6.43632
▁into	-6.43856
▁car	-6.45009
▁me	-6.47008
▁work	-6.47857
▁told	-6.50009
▁friend	-6.50104
▁back	-6.51731
▁over	-6.5455
▁have	-6.55724
▁could	-6.55762
▁then	-6.56257
▁their	-6.59154
▁saw	-6.60415
▁by	-6.60442
▁house	-6.61092
▁bought	-6.62858
▁loved	-6.62873
▁started	-6.63114
▁down	-6.64876
▁first	-6.65706
▁night	-6.67573
▁did	-6.70101
▁finally	-6.7322
▁came	-6.73724
▁tried	-6.76851
▁asked	-6.7709
▁off	-6.78395
▁store	-6.78923
▁never	-6.80322
▁mom	-6.80759
▁this	-6.81701
▁no	-6.82431
▁dog	-6.82723
▁put	-6.83977
▁now	-6.841
▁been	-6.86205
▁felt	-6.86341
▁family	-6.87302
▁just	-6.8863
▁always	-6.89901
▁looked	-6.9017
▁make	-6.91502
▁man	-6.91863
▁money	-6.93138
▁said	-6.93732
▁good	-6.95511
▁more	-6.95735
▁going	-6.96658
▁job	-6.97146
f	-6.97924
▁see	-6.98278
▁next	-6.98729
▁needed	-6.99922
▁thought	-7.00647
▁every	-7.01151
▁like	-7.01271
▁couldn	-7.01478
ly	-7.028
▁too	-7.02861
▁really	-7.02911
▁has	-7.04398
▁lot	-7.04662
▁do	-7.04809
▁play	-7.06464
▁happy	-7.0807
▁before	-7.08483
▁while	-7.08782
▁away	-7.09109
▁take	-7.09224
▁what	-7.098
▁tim	-7.10111
▁gave	-7.10203
▁much	-7.10877
▁two	-7.11965
▁called	-7.12288
▁game	-7.14049
▁buy	-7.1459
▁left	-7.15522
▁around	-7.15698
y	-7.15768
-	-7.16358
▁how	-7.16558
▁because	-7.16639
▁class	-7.17136
▁find	-7.17414
▁ran	-7.17675
▁great	-7.17855
▁john	-7.20082
▁began	-7.2076
▁hard	-7.21517
▁old	-7.21918
▁food	-7.21949
▁parents	-7.22168
▁realized	-7.2241
▁year	-7.24217
▁mother	-7.25386
er	-7.26927
▁other	-7.28235
▁again	-7.28891
▁way	-7.29972
▁last	-7.29979
▁week	-7.30421
▁few	-7.31094
▁people	-7.33218
▁big	-7.33865
▁help	-7.35372
▁everyone	-7.35694
▁water	-7.36018
▁walked	-7.3703
▁ended	-7.37055
e	-7.37084
▁able	-7.37345
▁many	-7.37389
▁through	-7.4025
▁long	-7.40408
▁playing	-7.41644
▁kids	-7.4171
▁only	-7.41939
▁knew	-7.41942
▁fell	-7.42679
▁phone	-7.42715
▁best	-7.43363
▁morning	-7.43527
a	-7.43684
▁excited	-7.43962
▁room	-7.44884
▁hours	-7.46783
▁later	-7.47559
▁noticed	-7.48639
▁sam	-7.49379
▁cat	-7.49481
▁lost	-7.49646
▁who	-7.50184
▁liked	-7.50498
▁wife	-7.51324
▁years	-7.52302
▁outside	-7.52341
▁party	-7.52838
▁soon	-7.52876
▁dad	-7.53684
▁getting	-7.53699
▁girl	-7.55307
▁team	-7.55475
▁better	-7.55537
▁trip	-7.55663
▁worked	-7.55936
▁became	-7.56163
▁eat	-7.56226
▁well	-7.56415
▁favorite	-7.56868
▁something	-7.57055
▁however	-7.57665
▁teacher	-7.57887
r	-7.58015
▁still	-7.58106
▁turned	-7.58811
▁little	-7.58939
▁our	-7.59628
▁fun	-7.6149
▁today	-7.63037
▁bad	-7.63671
▁eventually	-7.65585
▁until	-7.65788
▁together	-7.66156
▁dinner	-7.6673
▁door	-7.66982
▁doctor	-7.68147
▁having	-7.68224
▁bob	-7.6844
▁instead	-7.69228
▁jim	-7.69777
▁dan	-7.7053
▁know	-7.70712
▁used	-7.70804
▁test	-7.71338
▁bill	-7.71612
m	-7.71719
▁even	-7.71961
▁late	-7.72226
▁being	-7.72714
▁local	-7.72791
▁try	-7.73247
▁played	-7.7348
▁hit	-7.74163
▁heard	-7.74385
▁son	-7.74556
▁since	-7.75808
▁won	-7.76481
▁spent	-7.7694
▁another	-7.77901
▁ate	-7.78002
▁drove	-7.78085
▁looking	-7.78239
▁brother	-7.78707
▁nervous	-7.78968
▁enough	-7.7915
▁broke	-7.79378
▁jane	-7.797
▁right	-7.79859
▁several	-7.79898
▁birthday	-7.80133
▁sat	-7.80153
▁joe	-7.8075
▁than	-7.80779
▁stopped	-7.80988
▁amy	-7.81084
▁arrived	-7.81101
▁park	-7.8112
▁any	-7.82287
▁end	-7.82302
▁own	-7.82578
▁baby	-7.82898
▁kept	-7.83237
▁walking	-7.83253
▁hair	-7.8348
▁show	-7.83483
▁woke	-7.83821
▁can	-7.84285
▁will	-7.84522
▁picked	-7.84542
▁bed	-7.84581
p	-7.84852
▁high	-7.85117
▁let	-7.87256
▁set	-7.8831
▁gina	-7.88415
▁working	-7.8868
▁suddenly	-7.88801
▁movie	-7.8929
▁himself	-7.89596
▁life	-7.89901
▁sister	-7.90215
▁each	-7.90739
▁trying	-7.91185
▁brought	-7.91316
▁want	-7.91514
▁three	-7.91896
▁book	-7.92213
▁boy	-7.92438
▁date	-7.93997
▁months	-7.94752
▁stop	-7.95506
▁small	-7.95986
c	-7.96095
▁inside	-7.96147
o	-7.96229
▁restaurant	-7.96386
▁husband	-7.96719
▁things	-7.9684
▁walk	-7.96913
▁both	-7.97194
▁online	-7.97208
▁college	-7.97219
▁daughter	-7.97278
▁quickly	-7.97344
▁town	-7.97432
▁place	-7.9802
▁look	-7.98416
▁ball	-7.99187
▁sick	-7.99242
▁mary	-7.99313
▁once	-7.99357
▁someone	-7.99776
i	-7.99993
▁driving	-8.00048
▁girlfriend	-8.0017
▁come	-8.00294
▁everything	-8.01203
es	-8.01952
▁learned	-8.01956
▁caught	-8.02019
▁making	-8.02079
▁nice	-8.03125
▁unfortunately	-8.03197
▁ready	-8.03272
▁read	-8.03896
▁beach	-8.04576
▁are	-8.04694
▁watch	-8.06067
▁tree	-8.06172
▁done	-8.0626
▁lunch	-8.06564
▁minutes	-8.06915
▁weeks	-8.06958
▁threw	-8.07616
▁boss	-8.08055
▁front	-8.08299
▁use	-8.08727
▁also	-8.08862
▁moved	-8.08891
▁wait	-8.09181
▁ice	-8.09215
▁start	-8.09232
▁call	-8.0933
▁days	-8.0937
▁tell	-8.09667
▁during	-8.09744
▁eating	-8.09776
▁met	-8.10047
▁give	-8.10128
▁ride	-8.10214
▁father	-8.10952
▁pay	-8.11221
▁hot	-8.11232
▁opened	-8.11436
▁bike	-8.11597
▁coffee	-8.11723
▁herself	-8.11723
▁hour	-8.12421
▁love	-8.12727
▁though	-8.13207
▁whole	-8.14041
▁woman	-8.14204
▁luckily	-8.14536
▁sleep	-8.14614
▁pulled	-8.15549
▁large	-8.15822
▁enjoyed	-8.16077
▁summer	-8.16681
re	-8.16936
▁where	-8.1709
▁or	-8.17205
▁1	-8.17342
▁run	-8.17964
▁sad	-8.18043
▁pizza	-8.18666
▁running	-8.18943
▁scared	-8.1905
▁watched	-8.1927
▁christmas	-8.1929
▁boyfriend	-8.19369
▁doing	-8.20262
al	-8.2069
▁head	-8.2089
▁cut	-8.20977
▁shoes	-8.21121
▁sure	-8.21121
▁drive	-8.21183
▁mike	-8.21187
▁without	-8.2149
▁different	-8.21541
▁music	-8.21783
▁road	-8.21824
▁shop	-8.21959
▁near	-8.21968
▁bus	-8.22371
▁waited	-8.22583
▁clean	-8.22918
▁tired	-8.23852
▁forgot	-8.23991
▁invited	-8.24014
▁kate	-8.24147
▁learn	-8.24339
▁upset	-8.25017
▁ever	-8.25218
▁taking	-8.26352
▁anna	-8.26474
▁feeling	-8.26806
▁agreed	-8.26832
▁ben	-8.27011
▁neighbor	-8.27012
▁us	-8.2704
g	-8.27104
▁most	-8.27165
▁ordered	-8.273
▁pet	-8.27657
▁computer	-8.27855
▁under	-8.28239
▁decide	-8.28642
▁street	-8.28801
▁watching	-8.28919
▁coming	-8.28999
ri	-8.29202
▁beautiful	-8.29229
▁fish	-8.29298
▁pick	-8.29383
▁jake	-8.30156
▁fast	-8.30226
b	-8.30524
▁immediately	-8.30856
▁fire	-8.31112
▁clothes	-8.3117
▁huge	-8.31414
0	-8.3198
▁face	-8.32111
▁leave	-8.32181
▁feel	-8.3242
▁office	-8.3248
▁showed	-8.325
▁yard	-8.33166
▁line	-8.3345
▁early	-8.3357
▁hand	-8.33901
th	-8.34149
▁open	-8.3439
▁keep	-8.34627
▁helped	-8.3464
▁tina	-8.34926
▁finished	-8.35714
▁hated	-8.35917
or	-8.36011
▁almost	-8.36065
▁company	-8.3623
▁move	-8.36345
▁visit	-8.37027
▁un	-8.37096
▁cold	-8.37421
▁anything	-8.37641
▁floor	-8.37808
▁passed	-8.37847
▁month	-8.37957
▁same	-8.38381
▁perfect	-8.38813
u	-8.38966
▁offered	-8.3916
▁tv	-8.39587
▁dress	-8.40142
▁yesterday	-8.40351
▁vacation	-8.40523
▁ground	-8.40753
▁lucy	-8.40874
▁kim	-8.41662
▁stay	-8.41729
▁sally	-8.41754
▁mark	-8.41818
▁box	-8.41886
▁fred	-8.42397
k	-8.42453
▁candy	-8.42528
▁full	-8.42535
▁red	-8.43091
▁shopping	-8.43145
▁police	-8.43219
▁truck	-8.43315
▁cream	-8.4332
▁jack	-8.43383
▁bag	-8.43748
▁2	-8.43769
ra	-8.43847
▁puppy	-8.44292
▁james	-8.44474
▁lived	-8.44793
▁trouble	-8.4528
▁games	-8.45492
▁table	-8.45499
▁window	-8.45749
▁bit	-8.46014
▁kitchen	-8.46186
▁city	-8.46191
▁cake	-8.46737
in	-8.46802
▁sarah	-8.46926
▁hospital	-8.47004
▁free	-8.47119
▁paid	-8.47286
▁check	-8.47378
▁kelly	-8.47469
▁person	-8.47526
▁drink	-8.47638
▁rest	-8.48191
▁children	-8.48302
▁gone	-8.4832
▁wouldn	-8.48622
▁pair	-8.48849
▁wrong	-8.49049
▁afraid	-8.49707
▁bar	-8.49865
▁apartment	-8.50466
▁loves	-8.50626
▁nothing	-8.50655
▁paper	-8.50841
▁s	-8.51035
▁laughed	-8.51107
▁surprise	-8.51311
▁girls	-8.51439
▁band	-8.51606
▁hurt	-8.51657
en	-8.52008
▁weekend	-8.5202
▁care	-8.52071
▁proud	-8.52293
▁five	-8.52388
▁jill	-8.52766
▁sent	-8.53356
▁checked	-8.54153
▁re	-8.54371
▁video	-8.54586
▁dollars	-8.54921
▁across	-8.54933
▁alone	-8.54934
▁ask	-8.55094
l	-8.55167
▁practiced	-8.55412
▁child	-8.5583
▁jumped	-8.5587
▁name	-8.55905
▁stayed	-8.55961
▁returned	-8.56103
▁glad	-8.5665
▁dance	-8.5681
▁dropped	-8.57246
▁jeff	-8.57346
▁cook	-8.57503
▁should	-8.57881
▁waiting	-8.57955
▁pain	-8.58065
▁grew	-8.58266
▁lisa	-8.58369
▁idea	-8.58489
▁change	-8.58914
▁received	-8.59244
▁named	-8.59301
▁snow	-8.59307
▁win	-8.59545
▁behind	-8.59819
▁asleep	-8.60028
▁kid	-8.6032
▁race	-8.60464
▁gift	-8.60478
▁meet	-8.61264
▁often	-8.61298
▁am	-8.61751
le	-8.62142
▁basketball	-8.62356
▁charles	-8.6257
ar	-8.6298
▁books	-8.63118
▁longer	-8.63124
▁order	-8.63213
▁light	-8.63246
▁top	-8.63381
▁wear	-8.63545
▁broken	-8.64094
▁close	-8.64328
▁turn	-8.64433
▁extra	-8.64847
▁sue	-8.64876
▁everywhere	-8.64957
▁couple	-8.65067
▁card	-8.65176
▁died	-8.65379
▁break	-8.65619
▁grabbed	-8.65729
▁hungry	-8.65732
▁surprised	-8.65964
▁ten	-8.66002
▁talked	-8.66235
▁jason	-8.66395
▁saved	-8.66533
▁think	-8.6662
▁practice	-8.6675
▁talk	-8.66985
▁pool	-8.67068
▁side	-8.67157
▁worried	-8.6729
▁become	-8.67559
▁married	-8.67628
▁rain	-8.67834
ion	-8.67932
▁boat	-8.67983
▁recently	-8.68087
▁entire	-8.68218
▁business	-8.68877
la	-8.69219
▁why	-8.69679
▁angry	-8.69795
▁alex	-8.70595
▁half	-8.70731
▁young	-8.71343
▁fight	-8.71508
▁problem	-8.71625
te	-8.72553
▁billy	-8.72571
▁air	-8.72832
▁living	-8.72967
est	-8.73253
▁part	-8.7335
▁pretty	-8.73673
▁bathroom	-8.73674
w	-8.73887
▁black	-8.73913
▁football	-8.74035
▁second	-8.74039
ve	-8.74919
▁along	-8.75121
▁shot	-8.75149
▁mall	-8.75269
▁lots	-8.75329
▁figure	-8.76099
▁weight	-8.76276
▁missed	-8.76334
▁cookies	-8.76354
▁gas	-8.76804
▁fix	-8.76805
▁which	-8.76838
▁sold	-8.77087
▁ticket	-8.77256
▁quit	-8.77382
▁loud	-8.77467
▁special	-8.777
▁stuck	-8.77958
▁grade	-8.78868
▁seemed	-8.79203
▁building	-8.79359
▁group	-8.80107
ch	-8.80954
▁thing	-8.81245
▁talking	-8.81413
▁baseball	-8.81523
▁spend	-8.8167
▁c	-8.81717
▁four	-8.81758
▁wedding	-8.82072
v	-8.8213
▁eyes	-8.82524
▁wrote	-8.82696
▁tickets	-8.82778
▁grandma	-8.82829
ic	-8.82942
▁far	-8.83053
▁mad	-8.83071
▁driver	-8.83105
▁guy	-8.83247
▁seen	-8.83385
▁concert	-8.83618
ll	-8.8377
▁dogs	-8.83915
ie	-8.83989
able	-8.8416
▁wore	-8.84415
▁bring	-8.84553
ce	-8.84563
▁train	-8.84589
el	-8.848
▁anymore	-8.84951
▁fishing	-8.85104
▁jimmy	-8.85359
▁cooking	-8.85404
▁everyday	-8.85633
▁neighborhood	-8.8576
▁chicken	-8.85954
▁using	-8.8606
h	-8.86165
▁live	-8.86235
▁storm	-8.86422
▁grocery	-8.8671
▁stood	-8.86846
▁shirt	-8.8696
▁player	-8.8705
▁garden	-8.87153
▁expensive	-8.87257
▁short	-8.87537
▁gets	-8.87561
▁interview	-8.87832
▁sitting	-8.87959
ting	-8.88192
▁delicious	-8.88223
▁enjoy	-8.88291
▁desk	-8.88362
▁breakfast	-8.8864
▁middle	-8.88779
na	-8.88786
▁beth	-8.88791
▁write	-8.88837
▁song	-8.88844
ro	-8.8886
▁catch	-8.88875
▁allie	-8.88894
▁frank	-8.88907
▁owner	-8.88938
▁refused	-8.89075
▁dark	-8.89196
▁else	-8.89341
▁afternoon	-8.89478
ers	-8.89511
▁movies	-8.89606
▁club	-8.89619
▁co	-8.897
▁spot	-8.89727
ted	-8.89861
▁terrible	-8.899
▁gary	-8.90053
▁disappointed	-8.90188
▁accepted	-8.90815
▁cool	-8.91065
▁plane	-8.91138
▁ken	-8.91186
▁art	-8.91448
▁larry	-8.91749
▁bank	-8.91893
ur	-8.919
▁times	-8.92587
▁sale	-8.92809
▁paul	-8.92847
▁matt	-8.92884
▁sara	-8.92897
▁milk	-8.9305
▁bird	-8.93131
▁accidentally	-8.93198
▁jenny	-8.93341
▁leg	-8.93405
▁eggs	-8.9379
▁anyway	-8.9382
▁already	-8.93926
▁afterwards	-8.94089
▁student	-8.941
▁mess	-8.94162
▁visited	-8.94287
▁susie	-8.94515
▁reading	-8.94522
▁due	-8.94601
ther	-8.94646
▁coach	-8.94814
ter	-8.95056
▁wants	-8.95147
▁searched	-8.95203
▁cried	-8.95256
▁bored	-8.95258
▁fall	-8.95498
▁need	-8.9563
▁steve	-8.9596
▁missing	-8.96267
an	-8.96662
▁chris	-8.96748
▁filled	-8.96837
▁jen	-8.96897
▁throw	-8.96925
▁fit	-8.97048
▁chocolate	-8.9736
▁lake	-8.97364
▁field	-8.98005
▁bear	-8.98039
us	-8.98207
▁riding	-8.98233
▁contest	-8.98267
▁noise	-8.98528
▁ed	-8.98552
▁sell	-8.98945
▁zoo	-8.99041
▁country	-8.99049
▁sudden	-8.9911
▁chair	-8.992
li	-8.99427
▁feet	-8.99449
▁afford	-8.99494
▁gym	-8.99664
▁manager	-8.99669
▁you	-8.99843
▁rushed	-8.99897
▁picture	-8.99933
▁doesn	-8.99939
▁de	-9.00038
▁planned	-9.00135
▁warm	-9.00184
▁don	-9.00401
▁library	-9.00444
ous	-9.00725
▁dream	-9.00763
▁kitten	-9.01053
▁jerry	-9.01073
▁hired	-9.01294
▁hang	-9.0139
▁six	-9.01707
▁story	-9.01707
▁sit	-9.02048
▁white	-9.02079
▁rock	-9.02126
▁gotten	-9.02186
▁station	-9.02187
lo	-9.02458
▁moving	-9.02501
▁hands	-9.02645
▁dentist	-9.02661
▁exam	-9.02665
▁meal	-9.02692
ation	-9.02876
▁arm	-9.02996
▁join	-9.0307
▁sun	-9.03243
▁ago	-9.03294
it	-9.03533
▁studied	-9.03626
▁george	-9.03788
▁math	-9.03822
▁beat	-9.03872
▁purchased	-9.03952
▁evening	-9.04043
▁couch	-9.04113
▁swimming	-9.04113
▁relieved	-9.04122
▁goes	-9.04339
▁closed	-9.04416
▁landed	-9.04719
▁sandwich	-9.04731
▁ring	-9.049
▁shower	-9.04935
ne	-9.04989
▁changed	-9.0525
▁accident	-9.05253
▁save	-9.05396
▁world	-9.05595
▁paint	-9.05876
▁weather	-9.05916
▁flew	-9.05916
▁believe	-9.05977
▁eric	-9.06192
▁pictures	-9.06292
▁ra	-9.06325
▁finish	-9.06518
▁sound	-9.06527
▁bowl	-9.06721
▁blue	-9.06747
▁brand	-9.07071
▁cleaned	-9.07078
▁return	-9.07222
▁dave	-9.07252
▁eye	-9.07646
▁past	-9.07728
▁grandmother	-9.07752
▁kevin	-9.07752
▁ted	-9.07758
▁discovered	-9.08146
▁greg	-9.0826
se	-9.08368
▁signed	-9.08545
▁sign	-9.08732
▁onto	-9.08814
▁taken	-9.09153
▁classes	-9.09167
▁entered	-9.09232
▁track	-9.0928
▁hotel	-9.09319
▁drinking	-9.09385
ia	-9.09451
▁josh	-9.09455
▁list	-9.09461
▁neighbors	-9.0948
▁piece	-9.09752
▁prepared	-9.1004
on	-9.10073
▁andy	-9.10134
▁david	-9.10659
▁lose	-9.10692
▁woods	-9.10776
▁10	-9.10975
▁area	-9.11105
▁project	-9.1118
▁alarm	-9.11181
▁real	-9.11288
▁trash	-9.11355
▁wallet	-9.11355
il	-9.11735
▁study	-9.11814
▁given	-9.11884
▁meeting	-9.1193
▁wearing	-9.12098
▁happened	-9.12144
▁smiled	-9.12161
▁drank	-9.12408
▁cleaning	-9.1247
▁bread	-9.12762
▁swim	-9.12936
▁amazing	-9.13117
▁badly	-9.13156
▁plan	-9.13224
z	-9.13248
▁attention	-9.13652
▁continued	-9.13721
▁suggested	-9.13853
▁flowers	-9.13993
▁bottle	-9.14009
▁harry	-9.14012
▁smell	-9.14019
▁yelled	-9.1407
▁hear	-9.14146
▁boys	-9.14372
▁kind	-9.14372
▁internet	-9.14911
▁fixed	-9.14969
▁machine	-9.15092
▁anyone	-9.15103
▁students	-9.15787
▁rode	-9.15803
▁seat	-9.15878
▁foot	-9.16014
▁heart	-9.16018
▁tire	-9.16203
▁mind	-9.16642
▁tasted	-9.16879
▁hat	-9.16937
▁rob	-9.17282
▁packed	-9.17291
▁crying	-9.17467
▁state	-9.17555
▁joined	-9.17624
ma	-9.17904
▁deal	-9.17911
▁glass	-9.18003
▁abby	-9.18223
▁stand	-9.1847
▁older	-9.18523
▁embarrassed	-9.18605
▁held	-9.18606
▁cheese	-9.18974
▁church	-9.18974
▁competition	-9.18974
▁carl	-9.19053
wards	-9.1951
▁b	-9.19552
▁shocked	-9.19833
▁garage	-9.19922
▁star	-9.20037
▁say	-9.20367
▁brad	-9.20663
▁service	-9.20877
▁actually	-9.20885
▁animals	-9.21044
▁glasses	-9.21104
ment	-9.21187
▁headed	-9.21281
▁jan	-9.2141
▁barry	-9.21473
▁jon	-9.21807
▁miles	-9.2216
▁slowly	-9.22296
▁board	-9.22486
▁remembered	-9.225
▁within	-9.22502
▁flight	-9.22819
▁guitar	-9.2321
▁followed	-9.23324
▁michael	-9.23406
▁pie	-9.2349
▁pass	-9.23622
▁ray	-9.23671
▁fired	-9.23722
▁number	-9.2375
▁wall	-9.23778
▁against	-9.23862
▁chose	-9.24006
▁placed	-9.2414
▁forward	-9.24193
▁nick	-9.24434
▁starting	-9.24577
▁color	-9.24607
▁mo	-9.2466
▁green	-9.24795
▁cooked	-9.24803
ling	-9.24926
▁laura	-9.24995
▁fine	-9.2531
▁purchase	-9.25394
▁appointment	-9.25397
▁pregnant	-9.25397
▁ingredients	-9.25498
▁writing	-9.25617
▁lessons	-9.25668
▁items	-9.26016
▁toy	-9.26018
▁tony	-9.26195
▁leaving	-9.26204
▁dressed	-9.26275
▁screamed	-9.26285
▁farm	-9.26299
▁quite	-9.26307
▁horse	-9.2638
x	-9.26499
▁soccer	-9.2661
▁cousin	-9.268
▁happily	-9.26814
▁backyard	-9.26832
▁managed	-9.2704
▁burned	-9.27151
▁knocked	-9.27541
▁although	-9.27632
▁reached	-9.27808
▁camp	-9.27883
▁jump	-9.28135
▁maria	-9.282
▁henry	-9.28255
▁failed	-9.28306
▁sand	-9.28531
▁thanked	-9.28557
▁teeth	-9.28668
▁strange	-9.28742
ta	-9.28761
▁rick	-9.28797
▁camping	-9.28912
▁approached	-9.28925
▁poor	-9.2901
▁mail	-9.29068
▁winning	-9.29083
▁allowed	-9.29148
▁remember	-9.29212
▁slept	-9.2929
▁buying	-9.29467
less	-9.29727
▁wind	-9.29829
▁animal	-9.29947
▁less	-9.30111
▁adam	-9.30135
▁price	-9.30173
▁homework	-9.30184
▁such	-9.30344
▁realize	-9.30352
is	-9.3051
▁covered	-9.30529
▁oven	-9.30552
▁susan	-9.30552
▁saturday	-9.30764
▁friday	-9.30979
▁fair	-9.31025
▁applied	-9.31189
▁ryan	-9.31189
▁jay	-9.31424
▁single	-9.31442
▁build	-9.31588
▁julie	-9.31618
▁dishes	-9.31636
▁recipe	-9.31677
▁fan	-9.32016
▁supposed	-9.32057
▁usually	-9.32087
▁soup	-9.32095
ry	-9.32259
▁drunk	-9.3226
▁season	-9.32275
▁television	-9.32475
▁johnny	-9.32477
▁dating	-9.32479
▁cup	-9.32602
▁apologized	-9.32732
▁hoped	-9.32854
▁lady	-9.3291
▁winter	-9.32936
▁nearby	-9.33134
ca	-9.33148
▁safe	-9.33198
▁sleeping	-9.33263
▁stomach	-9.33342
▁peter	-9.33534
▁yet	-9.3356
▁studying	-9.33643
▁busy	-9.3401
▁likes	-9.3406
▁funny	-9.34218
▁stepp	-9.3432
▁barely	-9.34436
▁fresh	-9.3465
▁cute	-9.34682
▁diet	-9.34922
▁scary	-9.35116
▁experience	-9.35135
▁healthy	-9.35157
▁match	-9.3522
▁roommate	-9.35221
▁power	-9.35314
▁mouth	-9.3532
▁cindy	-9.35765
▁slipped	-9.35767
▁lights	-9.35839
▁myself	-9.35988
▁carefully	-9.36057
▁climbed	-9.36209
ive	-9.36216
▁seeing	-9.36339
▁listen	-9.36382
▁control	-9.36434
▁thinking	-9.36473
▁learning	-9.36504
▁handed	-9.36563
▁max	-9.36663
▁pleased	-9.36687
ad	-9.36812
▁crowd	-9.36839
▁lay	-9.36946
▁worth	-9.37112
▁stories	-9.37338
▁report	-9.37345
▁grass	-9.37565
▁tomorrow	-9.37565
▁costume	-9.37565
▁stage	-9.37568
ge	-9.37822
▁ex	-9.37863
▁fly	-9.38272
▁cathy	-9.38477
▁tommy	-9.38509
▁news	-9.38528
▁k	-9.39283
▁20	-9.39286
▁hole	-9.39412
▁twenty	-9.39629
▁letter	-9.39642
▁dirty	-9.3967
▁tea	-9.398
▁apple	-9.40059
▁spilled	-9.40366
▁kicked	-9.40694
▁traffic	-9.40795
▁e	-9.40851
▁mean	-9.4099
▁ann	-9.41019
▁thankfully	-9.41079
▁completely	-9.4108
▁gathered	-9.41084
▁smelled	-9.41171
per	-9.41262
ng	-9.41281
▁grow	-9.41297
▁nobody	-9.41501
▁important	-9.41521
▁soda	-9.41689
▁customer	-9.41726
up	-9.41855
▁wound	-9.41974
▁body	-9.42214
▁joy	-9.42247
ant	-9.42323
▁gun	-9.42462
▁brian	-9.42619
ul	-9.42631
▁pull	-9.42642
▁result	-9.42678
▁tripped	-9.42724
▁laundry	-9.42928
▁andrew	-9.42929
▁point	-9.42937
▁f	-9.42949
▁bite	-9.43202
▁dead	-9.43415
▁officer	-9.43496
▁low	-9.43608
ies	-9.4371
▁painting	-9.43802
▁terry	-9.4389
▁wonderful	-9.4417
▁paying	-9.44317
▁shelter	-9.44376
▁chance	-9.44379
um	-9.44457
▁pot	-9.44645
▁may	-9.44697
▁kia	-9.44738
▁final	-9.44809
▁crush	-9.44819
▁needs	-9.4502
▁smoke	-9.45568
▁yes	-9.45599
▁bobby	-9.45862
▁notice	-9.45929
▁ruined	-9.46163
▁kyle	-9.46342
▁cost	-9.46383
▁men	-9.46451
▁keys	-9.46481
▁halloween	-9.46587
▁beer	-9.46617
▁fence	-9.46836
▁meat	-9.46843
▁training	-9.47037
▁stuff	-9.47046
▁hill	-9.47087
▁extremely	-9.47094
▁sky	-9.47345
▁does	-9.4752
▁begged	-9.47585
▁jessica	-9.47585
▁taught	-9.47585
▁shape	-9.47696
▁teach	-9.4778
▁nancy	-9.47837
▁pants	-9.48095
▁feels	-9.48118
▁ron	-9.48161
▁impressed	-9.4824
▁cash	-9.48341
▁cell	-9.48349
▁flat	-9.48594
▁sunday	-9.48596
▁deep	-9.4866
▁suit	-9.48902
▁chad	-9.48917
▁empty	-9.49102
▁promised	-9.49139
▁ma	-9.49311
▁credit	-9.49358
ish	-9.49611
▁might	-9.49613
▁medicine	-9.49614
▁email	-9.49615
▁wine	-9.4966
▁difficult	-9.49793
▁cry	-9.49902
▁minute	-9.49965
ate	-9.50045
▁laid	-9.50134
▁alice	-9.50136
▁moment	-9.50141
▁per	-9.50358
▁laptop	-9.50385
▁stick	-9.50445
▁hundred	-9.50492
▁cheap	-9.50574
▁bunch	-9.50646
id	-9.50654
▁case	-9.51093
▁molly	-9.51162
▁emily	-9.51163
▁bedroom	-9.51171
▁vet	-9.5119
▁thrilled	-9.51198
▁hung	-9.51349
▁built	-9.51422
▁forgotten	-9.51423
▁none	-9.51626
▁hike	-9.5177
man	-9.51861
▁famous	-9.51945
▁aunt	-9.51945
▁flying	-9.51961
▁mountain	-9.5197
▁those	-9.52207
▁bath	-9.52286
▁lawn	-9.52391
▁prize	-9.52472
▁timmy	-9.52489
sh	-9.52492
▁taste	-9.52809
▁fear	-9.52816
▁lonely	-9.52999
▁market	-9.53001
▁katie	-9.53003
ever	-9.53032
▁p	-9.53099
▁trees	-9.53141
▁corner	-9.53326
ist	-9.53338
▁slow	-9.53421
▁visiting	-9.53505
▁karen	-9.5353
▁wished	-9.53661
▁plate	-9.53689
▁quiet	-9.53708
▁todd	-9.53727
▁cats	-9.54101
▁selling	-9.54216
▁others	-9.54256
▁hiking	-9.54333
▁pounds	-9.5446
▁deer	-9.54509
▁poured	-9.54666
▁drinks	-9.5475
▁record	-9.54797
▁rent	-9.54833
▁river	-9.54871
▁drew	-9.54871
▁listened	-9.54947
▁sandy	-9.5497
▁pieces	-9.54978
▁sometimes	-9.55143
▁wondered	-9.55218
▁post	-9.55331
▁robert	-9.55414
00	-9.5547
▁pushed	-9.55564
▁feed	-9.55659
▁explained	-9.55791
▁account	-9.55948
▁determined	-9.55967
▁turns	-9.56002
▁bake	-9.56229
▁course	-9.56229
▁science	-9.56229
▁prom	-9.56419
▁fruit	-9.56433
▁strong	-9.56435
▁vow	-9.56505
▁ana	-9.56614
▁added	-9.56668
▁decision	-9.56778
▁artist	-9.56877
▁goal	-9.569
▁professional	-9.56976
▁fed	-9.56985
▁asking	-9.57039
▁linda	-9.57054
▁popular	-9.57054
▁parking	-9.57075
▁supplies	-9.5733
▁grill	-9.57342
▁pink	-9.57382
do	-9.57729
▁court	-9.57882
▁law	-9.57931
▁convinced	-9.57942
▁joey	-9.58054
▁age	-9.58087
▁expected	-9.58248
▁pat	-9.58285
▁offer	-9.58421
▁tonight	-9.58442
▁photo	-9.58491
▁cop	-9.58562
▁o	-9.58599
▁straight	-9.58983
as	-9.59002
ac	-9.59003
▁po	-9.59162
▁t	-9.59217
▁sweet	-9.59254
ni	-9.59369
▁snake	-9.59541
▁pocket	-9.59541
▁bright	-9.59558
▁losing	-9.59571
▁jamie	-9.59572
▁trick	-9.59604
▁text	-9.59606
▁choice	-9.59828
▁answer	-9.59831
▁frustrated	-9.59851
▁plans	-9.59879
▁plant	-9.59943
▁la	-9.60018
▁shoe	-9.60114
▁uncle	-9.60135
▁tooth	-9.60169
▁complained	-9.60298
▁confident	-9.6042
▁radio	-9.6042
▁reason	-9.6042
▁giving	-9.60421
ful	-9.60836
▁hide	-9.60904
▁planning	-9.60993
▁theater	-9.61
▁counter	-9.61024
▁screen	-9.6128
▁randy	-9.61319
▁practicing	-9.61568
▁pack	-9.61675
▁grades	-9.61694
▁falling	-9.61747
tic	-9.61785
▁wash	-9.61831
▁health	-9.6207
▁bags	-9.62199
▁successful	-9.62354
▁despi	-9.62438
▁charlie	-9.62438
mo	-9.62592
▁dry	-9.62673
▁easy	-9.62729
▁hoping	-9.62777
▁climb	-9.62784
ut	-9.62804
▁closet	-9.62871
▁interested	-9.62881
▁gifts	-9.63228
▁pro	-9.63271
▁niece	-9.63315
ness	-9.63369
▁research	-9.63372
▁trail	-9.63499
led	-9.63614
▁dancing	-9.63624
▁score	-9.637
▁neil	-9.63917
▁speed	-9.63957
▁looks	-9.64002
▁dollar	-9.64251
▁makes	-9.64322
▁sauce	-9.64496
▁worker	-9.6451
ged	-9.64733
▁rich	-9.64794
▁space	-9.64801
ated	-9.64816
▁leaves	-9.64839
▁arrested	-9.64841
▁camera	-9.64889
▁photos	-9.65041
▁hold	-9.65152
▁cards	-9.652
▁cars	-9.65363
▁speak	-9.65367
▁mirror	-9.65392
▁problems	-9.65472
▁bee	-9.65485
▁skills	-9.65554
▁event	-9.6564
▁putting	-9.65648
co	-9.6574
▁nurse	-9.65985
▁ocean	-9.65993
▁-	-9.66085
▁coat	-9.66119
▁hid	-9.66217
ine	-9.66268
▁martha	-9.66295
▁amanda	-9.66296
▁surgery	-9.66296
▁calm	-9.665
▁lives	-9.66787
▁ankle	-9.66903
▁contact	-9.66984
▁secret	-9.67115
▁vegetables	-9.6712
ity	-9.67512
ke	-9.67582
▁mistake	-9.67616
▁stole	-9.67628
▁toys	-9.67628
▁size	-9.67816
▁upon	-9.6801
▁spoke	-9.68128
▁bully	-9.68163
▁between	-9.68436
▁tennis	-9.68437
▁butter	-9.68609
▁worse	-9.68746
▁film	-9.68746
▁growing	-9.68754
ol	-9.68964
▁cereal	-9.69056
▁lily	-9.69109
▁block	-9.69196
▁samantha	-9.69368
▁chess	-9.69376
▁war	-9.69404
▁travel	-9.69446
▁graduated	-9.69463
rs	-9.69545
▁stranger	-9.69565
▁roof	-9.69994
▁eli	-9.70039
▁rachel	-9.70056
▁basement	-9.70313
▁doll	-9.70345
am	-9.70421
age	-9.70501
▁careful	-9.70557
he	-9.70644
▁roller	-9.70683
▁note	-9.70939
▁sugar	-9.7094
▁nap	-9.70973
▁birds	-9.71083
▁danny	-9.7126
▁golf	-9.71333
▁advice	-9.71576
▁speech	-9.71576
▁miss	-9.7188
▁heavy	-9.71896
▁becky	-9.71906
▁oil	-9.72021
▁rolled	-9.72042
▁posted	-9.72235
to	-9.72475
▁porch	-9.72538
▁emma	-9.72567
▁wood	-9.72657
▁cover	-9.72669
▁dreamed	-9.72805
▁relationship	-9.7286
▁website	-9.7286
▁tent	-9.72913
ton	-9.72955
▁pan	-9.73029
▁horrible	-9.73184
▁okay	-9.73184
▁steak	-9.73509
▁third	-9.73509
▁rita	-9.73509
▁tank	-9.73528
me	-9.73601
▁package	-9.73841
▁crashed	-9.73989
▁throwing	-9.7403
▁brown	-9.74138
▁saying	-9.74247
nd	-9.74299
▁bat	-9.74459
▁weird	-9.74489
▁bo	-9.745
▁wet	-9.74671
▁purse	-9.74818
▁facebook	-9.74827
▁g	-9.74967
▁following	-9.74979
▁present	-9.75055
▁rose	-9.75137
▁pasta	-9.75273
▁exercise	-9.75275
▁hate	-9.75308
▁makeup	-9.75618
▁rid	-9.75619
▁socks	-9.75687
▁lo	-9.75712
▁lesson	-9.75712
▁pond	-9.7582
▁nose	-9.75902
▁works	-9.75906
▁finding	-9.75995
▁cancer	-9.76145
▁blew	-9.76145
▁highway	-9.76168
▁heat	-9.76245
▁kay	-9.7629
▁knee	-9.76715
▁fridge	-9.76815
▁tall	-9.76861
▁reach	-9.76884
▁tie	-9.7714
▁confused	-9.77151
▁museum	-9.77151
▁spotted	-9.77187
▁fat	-9.77252
▁stan	-9.77274
▁attend	-9.77289
▁avoid	-9.77539
▁forever	-9.77568
▁clock	-9.77585
▁sports	-9.77714
▁insurance	-9.77828
▁daily	-9.77829
ho	-9.7783
▁smile	-9.77965
▁clear	-9.78132
▁tour	-9.78161
▁support	-9.78168
▁voice	-9.78168
▁smoking	-9.7851
▁sidewalk	-9.78512
im	-9.78672
▁calls	-9.78749
▁w	-9.78807
▁model	-9.78852
▁popcorn	-9.78852
▁picking	-9.78898
▁adopted	-9.79086
▁snack	-9.79126
▁career	-9.79187
▁principal	-9.79196
▁toward	-9.79303
▁sing	-9.7953
▁york	-9.79541
▁airport	-9.79543
▁shut	-9.79543
pe	-9.79743
▁history	-9.79811
▁chinese	-9.79887
▁tournament	-9.79887
▁app	-9.79897
▁english	-9.80234
▁furious	-9.80234
▁mouse	-9.80234
▁position	-9.80254
▁singing	-9.80482
▁basket	-9.80579
▁haircut	-9.80582
▁license	-9.80582
▁grateful	-9.80592
▁planted	-9.80614
▁pen	-9.80852
▁blood	-9.80855
▁washed	-9.8096
va	-9.80972
▁vi	-9.80973
▁matter	-9.80987
▁painted	-9.81242
▁hannah	-9.81284
▁fancy	-9.81288
▁caused	-9.81479
▁burger	-9.81601
▁jennifer	-9.81635
▁cashier	-9.81639
▁grandpa	-9.81646
op	-9.81707
▁grounded	-9.81752
▁removed	-9.818
ty	-9.81871
▁tammy	-9.81989
▁lucky	-9.82064
▁spring	-9.82343
▁least	-9.82344
▁these	-9.82351
go	-9.82388
▁sweater	-9.82414
▁bench	-9.82595
▁president	-9.82699
▁step	-9.82701
▁doug	-9.82727
▁takes	-9.82919
po	-9.82972
▁piano	-9.83056
▁announced	-9.8309
▁view	-9.83093
▁spare	-9.83116
▁sea	-9.83188
▁must	-9.83233
▁easily	-9.83414
▁justin	-9.83429
▁listening	-9.83442
ping	-9.837
▁luck	-9.83707
▁spending	-9.83724
▁phil	-9.83788
▁tiny	-9.83792
▁chips	-9.84098
▁egg	-9.8411
▁lead	-9.84115
▁sean	-9.84221
ran	-9.84283
▁closer	-9.8432
ow	-9.84415
▁program	-9.84494
▁thanksgiving	-9.84497
▁breath	-9.84533
▁raise	-9.84657
▁hope	-9.84669
▁legs	-9.84798
▁opening	-9.84855
▁amount	-9.84861
▁squirrel	-9.84861
▁ashley	-9.84861
▁attack	-9.84938
▁lu	-9.8511
▁jo	-9.85157
▁addition	-9.85226
▁juice	-9.85226
▁ho	-9.85232
▁rang	-9.85277
▁locked	-9.85385
▁killed	-9.85439
▁washing	-9.85548
▁recommended	-9.85638
bo	-9.858
▁fighting	-9.85982
▁share	-9.86141
▁dish	-9.86195
▁joke	-9.86231
▁carrie	-9.86385
forced	-9.86562
▁amazed	-9.86699
▁santa	-9.86702
▁lit	-9.87023
▁answered	-9.87075
▁ella	-9.87083
▁cops	-9.87143
▁understand	-9.87201
▁bills	-9.87319
▁coworker	-9.87502
▁jar	-9.87666
▁major	-9.87819
▁stairs	-9.87819
▁terrified	-9.87819
▁homeless	-9.87832
▁perfectly	-9.87836
ssed	-9.87922
▁questions	-9.87976
▁laughing	-9.88054
▁gold	-9.8818
▁salad	-9.88201
▁finger	-9.88259
▁replaced	-9.88388
▁friendly	-9.8852
▁owned	-9.88551
▁bottom	-9.88572
▁injured	-9.88572
▁comfortable	-9.8858
▁trained	-9.88629
ha	-9.8873
▁bet	-9.88749
da	-9.88755
▁carpet	-9.88952
▁baking	-9.88956
▁challenged	-9.89101
▁florida	-9.89331
▁sink	-9.89331
▁touch	-9.89426
▁d	-9.89535
ber	-9.89618
▁al	-9.89697
▁choose	-9.89713
▁garbage	-9.89713
▁women	-9.89713
▁born	-9.89713
▁spider	-9.89805
▁pop	-9.89913
▁attempt	-9.90096
▁turtle	-9.90096
▁tyler	-9.90097
▁betty	-9.90103
▁chased	-9.90254
▁sneak	-9.90466
▁groceries	-9.9048
▁snacks	-9.90558
▁ignored	-9.90623
▁eaten	-9.90687
▁searching	-9.9069
▁laugh	-9.9071
▁grab	-9.90865
▁janet	-9.91015
fi	-9.91051
▁cast	-9.91212
time	-9.9124
▁success	-9.91245
▁scott	-9.91254
▁security	-9.91254
▁jail	-9.9126
▁raining	-9.91307
▁nail	-9.91363
▁skin	-9.9144
out	-9.91557
▁crazy	-9.91643
▁newspaper	-9.91643
▁picnic	-9.91643
▁boring	-9.91647
ance	-9.91679
▁blanket	-9.91759
▁flu	-9.91848
▁waiter	-9.91848
▁quick	-9.91945
ian	-9.91959
▁collection	-9.92048
▁gum	-9.92059
▁customers	-9.92078
▁charge	-9.92161
▁swing	-9.92166
ped	-9.92308
▁monday	-9.92426
▁possible	-9.92426
▁center	-9.92426
▁cruise	-9.92426
▁department	-9.92427
line	-9.92506
▁message	-9.92572
▁super	-9.92816
▁professor	-9.9282
▁rice	-9.9282
▁wake	-9.92966
▁improve	-9.93003
▁ahead	-9.9302
mi	-9.93146
▁mechanic	-9.93187
▁helping	-9.93213
▁joan	-9.93213
▁grandfather	-9.93215
ee	-9.93411
▁cheer	-9.93423
▁performance	-9.93616
▁ro	-9.93907
▁ill	-9.93976
▁assignment	-9.9401
▁fake	-9.9401
▁backpack	-9.94042
▁land	-9.94097
▁self	-9.94147
▁saving	-9.94164
▁orange	-9.94164
son	-9.94168
▁stock	-9.94571
▁enter	-9.94696
▁ali	-9.94766
▁daniel	-9.94796
▁ski	-9.94797
▁jacob	-9.94812
▁motorcycle	-9.94812
▁plants	-9.94856
▁shy	-9.94856
1	-9.94893
▁treat	-9.95038
▁type	-9.95196
▁exhausted	-9.95215
▁driveway	-9.95234
hi	-9.95349
▁key	-9.95389
▁boston	-9.9562
▁con	-9.95638
▁smart	-9.9596
▁calling	-9.95962
▁throughout	-9.96092
▁meant	-9.96104
▁standing	-9.96145
▁handle	-9.96209
▁annie	-9.96227
▁relax	-9.96313
▁windows	-9.96366
▁sales	-9.96431
▁emergency	-9.96434
med	-9.96448
▁scored	-9.96717
▁earn	-9.96743
▁attended	-9.96783
▁easter	-9.96859
▁wild	-9.96875
▁normal	-9.9717
▁ears	-9.97319
▁vote	-9.9747
▁younger	-9.97497
▁stolen	-9.97514
▁en	-9.97741
▁annoyed	-9.98106
▁pre	-9.98177
▁complete	-9.98224
rd	-9.98228
▁mud	-9.98248
▁nails	-9.98384
▁information	-9.98502
▁heather	-9.98507
▁loan	-9.98516
▁erin	-9.98533
▁jeans	-9.98605
▁baked	-9.98816
▁ba	-9.98858
▁french	-9.98919
▁loose	-9.98922
▁arrive	-9.98949
▁kite	-9.99075
ver	-9.99253
▁apart	-9.99336
▁turkey	-9.9934
be	-9.9967
▁cal	-9.99707
▁question	-9.99717
▁future	-9.99761
▁blind	-9.99761
▁constantly	-9.99782
▁words	-9.99861
▁adopt	-9.9988
▁swam	-9.99953
▁damage	-9.99984
▁m	-10.0008
▁pile	-10.0008
▁drop	-10.0018
▁lottery	-10.0019
▁warned	-10.0019
▁social	-10.0023
▁apples	-10.0027
der	-10.0035
▁rainy	-10.0047
▁thankful	-10.0053
▁dye	-10.0071
▁places	-10.0076
▁alicia	-10.0104
▁jeremy	-10.0104
▁jacket	-10.0104
▁round	-10.011
▁appeared	-10.0111
▁shared	-10.0128
▁wheel	-10.0132
▁dirt	-10.0139
▁janice	-10.0147
▁ripped	-10.0147
▁popped	-10.0148
▁rented	-10.015
▁struggled	-10.0152
▁stuffed	-10.0153
▁cage	-10.0155
▁delivered	-10.0163
▁hunting	-10.0168
min	-10.0177
▁holding	-10.0182
▁birth	-10.019
▁dismay	-10.019
▁megan	-10.0191
▁colors	-10.02
▁interesting	-10.0209
▁ta	-10.0212
▁drawing	-10.0213
▁seem	-10.0216
2	-10.0216
▁finds	-10.0223
▁faster	-10.0228
▁furniture	-10.0233
▁rude	-10.0233
▁served	-10.0246
▁dis	-10.0248
▁100	-10.0252
▁send	-10.0253
▁except	-10.0277
▁spaghetti	-10.0277
▁suzy	-10.0277
▁kiss	-10.0293
▁improved	-10.0299
▁begin	-10.0307
▁plastic	-10.032
▁biggest	-10.032
▁chuck	-10.032
▁allergic	-10.0364
▁fact	-10.0364
▁richard	-10.0364
▁replace	-10.0388
▁engine	-10.0396
▁carol	-10.0397
▁pete	-10.0401
▁r	-10.0407
▁repair	-10.0411
▁audition	-10.0424
▁hall	-10.0429
▁videos	-10.043
▁acting	-10.0433
▁adult	-10.0441
▁coworkers	-10.0447
▁burn	-10.0449
▁satisfied	-10.0452
▁results	-10.0454
▁informed	-10.0456
▁jenna	-10.0456
▁row	-10.0468
▁jean	-10.0486
▁search	-10.0488
ked	-10.049
▁eight	-10.0495
▁public	-10.0497
▁novel	-10.0497
▁tough	-10.0497
▁outfit	-10.0497
j	-10.0498
▁bl	-10.0506
▁raised	-10.0522
▁word	-10.0531
▁guard	-10.0541
▁carlos	-10.0542
▁true	-10.0545
▁ship	-10.0562
▁mixed	-10.0564
ster	-10.0569
▁remind	-10.0581
▁anywhere	-10.0586
▁cabin	-10.0588
▁12	-10.0596
▁cheered	-10.0619
▁usual	-10.0623
▁martin	-10.0628
▁june	-10.0632
▁chef	-10.0637
▁cable	-10.0639
▁talent	-10.0648
▁boxes	-10.0649
ized	-10.0655
▁harder	-10.0659
▁loudly	-10.0664
▁alan	-10.0667
▁holiday	-10.0668
▁seven	-10.0674
▁becoming	-10.0677
▁cap	-10.068
▁dug	-10.0685
▁comes	-10.0712
▁skating	-10.0722
▁wendy	-10.0722
▁slice	-10.0722
▁act	-10.0725
▁settled	-10.073
▁pretended	-10.0736
▁draw	-10.0741
▁awoke	-10.0768
▁prank	-10.0768
▁safely	-10.0786
▁ear	-10.0801
▁hu	-10.081
▁shore	-10.0814
▁community	-10.0814
▁coaster	-10.0828
▁tears	-10.0836
▁sounded	-10.0847
▁seconds	-10.0857
▁tutor	-10.0859
▁awhile	-10.086
▁turning	-10.0869
▁st	-10.0876
▁songs	-10.0876
▁host	-10.0884
▁knowing	-10.0888
▁metal	-10.0889
▁cross	-10.0901
▁boots	-10.0904
▁fought	-10.0906
▁hurried	-10.0906
▁instructor	-10.0906
▁necklace	-10.0906
▁awful	-10.0907
▁bell	-10.0947
▁rat	-10.0952
▁particular	-10.0952
▁keith	-10.0953
▁system	-10.0953
▁waitress	-10.0953
▁silly	-10.0953
▁giant	-10.0953
ned	-10.0957
men	-10.0972
▁stared	-10.098
▁smith	-10.0993
▁skip	-10.0995
▁jordan	-10.0999
▁nate	-10.0999
▁fallen	-10.1005
▁breaking	-10.1008
▁mile	-10.1011
▁guests	-10.1024
▁agree	-10.1026
▁bug	-10.1043
▁forest	-10.1045
▁tied	-10.1046
▁headphones	-10.1046
▁twice	-10.1046
▁toilet	-10.1047
▁delivery	-10.1051
▁button	-10.1052
▁balloon	-10.109
▁insisted	-10.1093
▁presents	-10.1111
den	-10.1135
▁regrett	-10.1138
▁hank	-10.1141
▁style	-10.1141
▁parked	-10.1142
▁design	-10.1145
▁introduced	-10.1149
▁steps	-10.1159
▁rope	-10.1161
▁jobs	-10.1174
▁shoulder	-10.1177
▁staying	-10.1178
▁ch	-10.1181
▁clerk	-10.1188
▁distance	-10.1188
▁marathon	-10.1188
▁tattoo	-10.1188
▁aaron	-10.1189
▁ian	-10.119
▁path	-10.1192
▁shows	-10.1193
▁singer	-10.1204
▁prepare	-10.1216
▁liz	-10.1231
▁especially	-10.1236
▁kenny	-10.1236
▁add	-10.1241
▁considered	-10.1248
gra	-10.1253
▁impress	-10.1253
▁site	-10.1257
ps	-10.127
▁fl	-10.1283
▁awake	-10.1284
▁depressed	-10.1284
▁unhappy	-10.1284
▁halfway	-10.1286
▁cam	-10.1289
▁cookie	-10.1291
▁lee	-10.1293
▁apply	-10.1297
▁vegas	-10.1333
▁guilty	-10.1334
▁tape	-10.1343
▁julia	-10.135
▁force	-10.1357
▁collect	-10.1373
▁points	-10.138
▁either	-10.1381
▁thomas	-10.1381
▁pumpkin	-10.1381
▁diner	-10.1381
nuck	-10.1389
▁gained	-10.1392
ure	-10.1394
▁nephew	-10.143
▁stacy	-10.143
▁stove	-10.143
▁medication	-10.143
▁200	-10.1446
bu	-10.1473
▁mountains	-10.1474
▁degree	-10.1482
▁employee	-10.1482
▁steven	-10.1493
▁hunt	-10.1494
▁personal	-10.1498
▁divorce	-10.1508
▁perform	-10.1522
▁follow	-10.1525
▁ladder	-10.1528
▁judy	-10.1528
▁kill	-10.1537
▁believed	-10.1543
▁known	-10.1555
▁chores	-10.1558
▁ge	-10.156
▁tip	-10.1564
com	-10.1575
▁bicycle	-10.1578
▁bigger	-10.1584
▁collected	-10.1607
▁essay	-10.1627
▁grandparents	-10.1627
▁flower	-10.1634
▁seeds	-10.1635
▁alas	-10.1645
▁salt	-10.1648
▁sal	-10.1657
▁celebrate	-10.1657
▁chase	-10.1662
▁anne	-10.1672
▁complain	-10.1675
▁audience	-10.1677
▁hobby	-10.1677
▁zach	-10.1677
▁pillow	-10.1678
▁fries	-10.1678
▁marry	-10.1678
▁instantly	-10.1679
▁thousand	-10.1683
▁jumping	-10.1686
▁crack	-10.1697
ka	-10.1707
▁farmer	-10.1722
▁downtown	-10.1728
▁sang	-10.1729
▁el	-10.1732
king	-10.1742
▁sadly	-10.1742
▁kick	-10.1752
▁rides	-10.1758
law	-10.1763
▁forget	-10.1777
▁warning	-10.1778
▁earlier	-10.1778
▁salon	-10.1779
▁yelling	-10.1792
▁borrow	-10.18
▁spray	-10.18
▁ava	-10.1801
▁starts	-10.181
▁du	-10.1824
▁pencil	-10.1829
▁headache	-10.183
▁papers	-10.183
▁ellen	-10.1833
▁workers	-10.1853
▁loaded	-10.1854
▁hire	-10.1861
▁mr	-10.1862
▁yellow	-10.188
▁peanut	-10.1889
▁chest	-10.1894
▁delight	-10.1903
▁em	-10.1908
▁mi	-10.1915
gi	-10.1919
▁anxious	-10.1922
▁ideas	-10.1927
▁push	-10.193
▁jealous	-10.1931
▁simply	-10.1931
▁lately	-10.1933
▁shift	-10.1934
board	-10.1938
▁players	-10.1939
▁frozen	-10.1942
red	-10.1949
▁installed	-10.1951
▁schedule	-10.1962
▁challenge	-10.1962
▁knock	-10.1981
▁rabbit	-10.1983
▁situation	-10.1983
▁jackson	-10.1986
▁corn	-10.1992
▁slide	-10.2015
▁tag	-10.2032
▁li	-10.2033
▁downstairs	-10.2035
▁promotion	-10.2035
▁tries	-10.2036
▁flavor	-10.2047
▁gl	-10.2068
▁lap	-10.2073
▁notices	-10.2078
▁rocks	-10.2081
▁bucket	-10.2087
▁lazy	-10.2087
▁process	-10.2087
▁fill	-10.2091
▁scheduled	-10.2107
▁shoot	-10.2109
▁continue	-10.2119
▁jared	-10.2127
▁researched	-10.2138
▁energy	-10.2139
▁microwave	-10.2139
▁preparing	-10.2139
▁michelle	-10.2139
▁sore	-10.2145
▁cheating	-10.2151
▁brothers	-10.2168
▁performed	-10.217
▁teaching	-10.219
▁million	-10.2192
▁relief	-10.2192
▁route	-10.2192
▁toast	-10.2193
ga	-10.2197
▁army	-10.2217
no	-10.2225
▁relaxed	-10.2229
▁thinks	-10.2236
▁sa	-10.2237
▁vacuum	-10.2245
▁panicked	-10.2245
ched	-10.2245
▁prove	-10.2249
▁issue	-10.2293
▁ne	-10.2296
▁frog	-10.2298
▁nowhere	-10.2298
▁burnt	-10.2316
▁shock	-10.2323
▁brush	-10.2348
▁album	-10.2351
▁routine	-10.2351
▁scout	-10.2351
▁thirty	-10.2351
▁led	-10.2362
▁expecting	-10.2365
▁stores	-10.2365
▁copy	-10.2366
▁monkey	-10.2368
▁hitting	-10.237
▁stain	-10.2376
▁bowling	-10.2376
▁knows	-10.2405
▁happier	-10.2406
▁battery	-10.241
▁pointed	-10.2416
▁created	-10.2426
▁says	-10.2434
▁classmates	-10.2436
▁unit	-10.2452
ell	-10.2453
▁dessert	-10.2459
▁comic	-10.2459
▁odd	-10.2459
▁sunny	-10.2459
▁jewelry	-10.2459
▁classroom	-10.2463
▁passing	-10.2471
▁sport	-10.2478
▁h	-10.2478
▁hearing	-10.2482
▁earned	-10.2498
▁sight	-10.2512
▁double	-10.2513
▁task	-10.2514
▁dough	-10.2516
▁lying	-10.2516
▁sub	-10.252
▁pole	-10.2523
▁budget	-10.253
▁ru	-10.2544
▁beginning	-10.2568
▁shelf	-10.2569
▁soft	-10.2578
ray	-10.258
▁skateboard	-10.2599
▁diagnosed	-10.2623
▁granddaughter	-10.2623
▁cancelled	-10.2624
▁interest	-10.2625
▁brandon	-10.2627
▁angela	-10.2629
▁numbers	-10.2639
way	-10.2671
▁electric	-10.2678
▁argument	-10.2678
▁opponent	-10.2678
▁fried	-10.2678
▁roger	-10.2679
▁safety	-10.268
▁nest	-10.268
▁craft	-10.2682
▁destroyed	-10.2686
▁dreams	-10.2687
▁shooting	-10.2704
▁runs	-10.2718
▁touched	-10.272
▁tornado	-10.2734
▁worry	-10.2734
▁lauren	-10.2734
▁stray	-10.2734
▁tara	-10.2739
▁pam	-10.2739
▁encouraged	-10.274
▁clothing	-10.274
▁demanded	-10.2746
▁island	-10.2749
▁van	-10.275
▁mis	-10.2778
▁hug	-10.278
▁certain	-10.279
▁courage	-10.279
▁worst	-10.279
▁death	-10.279
▁upcoming	-10.279
▁string	-10.279
▁admitted	-10.279
▁notes	-10.2806
▁lovely	-10.281
▁lab	-10.2815
▁lemonade	-10.2846
▁umbrella	-10.2846
▁bridge	-10.2846
▁donald	-10.2846
▁concerned	-10.2852
▁distracted	-10.2854
ger	-10.2856
▁towel	-10.2872
▁tests	-10.2878
▁er	-10.288
▁airplane	-10.2902
▁neck	-10.2902
▁soaked	-10.2902
▁cannot	-10.2902
▁luke	-10.2903
▁teddy	-10.2904
▁regret	-10.2912
▁skate	-10.2913
▁eve	-10.2932
▁cracked	-10.2935
▁shovel	-10.2937
di	-10.2943
▁grown	-10.2956
▁youtube	-10.2959
▁lawyer	-10.2959
▁horses	-10.2966
▁ga	-10.297
▁effort	-10.2986
▁display	-10.2987
▁burning	-10.299
▁rod	-10.3005
▁options	-10.3007
▁tuesday	-10.3016
▁understood	-10.3016
▁dealership	-10.3017
▁di	-10.3022
▁j	-10.3024
▁sandwiches	-10.3028
▁slid	-10.3039
▁review	-10.3045
▁issues	-10.3057
ring	-10.3058
▁angel	-10.3067
bs	-10.3069
▁raced	-10.307
▁arms	-10.3071
▁struck	-10.3074
▁target	-10.3074
▁grace	-10.3074
▁nina	-10.3075
▁rush	-10.3076
▁spa	-10.3078
▁happen	-10.3079
▁remove	-10.3079
▁developed	-10.3084
▁load	-10.3104
▁carla	-10.3111
▁scene	-10.3131
▁casino	-10.3132
▁conversation	-10.3132
▁league	-10.3132
▁refund	-10.3132
▁belt	-10.3133
▁available	-10.3133
▁mix	-10.3137
ba	-10.3148
▁steal	-10.3165
▁climbing	-10.318
▁ac	-10.319
▁balance	-10.319
▁exhibit	-10.319
▁fashion	-10.319
▁danced	-10.319
▁labor	-10.3192
nie	-10.3193
▁cutting	-10.3202
▁map	-10.3204
▁stressed	-10.321
▁judge	-10.322
▁pound	-10.322
▁coin	-10.323
ally	-10.3248
▁remote	-10.3248
▁senior	-10.3248
▁shook	-10.3249
dy	-10.3252
▁simon	-10.3257
▁rap	-10.3264
▁wish	-10.3277
▁clown	-10.328
▁shortly	-10.3286
▁jess	-10.3292
▁sharp	-10.3305
▁action	-10.3307
▁amazon	-10.3307
▁devastated	-10.3307
▁shark	-10.3307
▁election	-10.3308
▁lane	-10.3343
▁speeding	-10.3356
nce	-10.3357
▁anthony	-10.3366
▁craig	-10.3366
▁detention	-10.3366
▁hugged	-10.3367
ky	-10.3368
side	-10.338
▁punched	-10.3384
ob	-10.3388
▁die	-10.3391
▁doctors	-10.3413
▁parts	-10.3425
▁ugly	-10.3426
▁panic	-10.3428
▁scratch	-10.3429
▁homemade	-10.3431
▁role	-10.3432
▁confronted	-10.3436
house	-10.3442
▁walks	-10.3451
▁las	-10.3457
▁wave	-10.3461
▁tight	-10.3477
▁tricks	-10.3478
▁california	-10.3486
▁language	-10.3486
▁matthew	-10.3486
▁beans	-10.3487
▁poker	-10.3487
▁cart	-10.3496
▁eager	-10.3537
▁application	-10.3546
▁maggie	-10.3546
▁snapped	-10.3546
▁carry	-10.3566
ary	-10.3567
▁relaxing	-10.3582
▁invite	-10.3586
▁edge	-10.3594
▁horror	-10.3606
▁address	-10.3607
▁mood	-10.3607
▁crash	-10.3614
▁cone	-10.3636
▁dust	-10.3636
▁anger	-10.3636
▁sha	-10.3643
▁pa	-10.3648
▁channel	-10.3667
▁hurricane	-10.3667
▁mexico	-10.3667
▁marcus	-10.3668
▁tail	-10.3669
▁iron	-10.3689
▁patch	-10.3692
by	-10.3712
▁gear	-10.3731
▁cave	-10.3733
▁lou	-10.3747
▁booked	-10.3753
▁switch	-10.3762
▁pipe	-10.3762
▁cd	-10.3764
▁dozen	-10.3769
▁pal	-10.377
▁duck	-10.377
▁cow	-10.3779
▁shattered	-10.3791
▁struggling	-10.3791
▁vehicle	-10.3791
▁soap	-10.3791
▁aisle	-10.3791
▁toddler	-10.3791
▁ricky	-10.3813
▁lynn	-10.3814
▁accept	-10.3823
▁plays	-10.3843
▁traveled	-10.3848
▁quiz	-10.3853
▁penny	-10.3853
▁parade	-10.3854
▁treatment	-10.3854
▁kayla	-10.3856
▁marie	-10.386
▁sl	-10.3861
▁spit	-10.3874
▁seek	-10.3877
▁rained	-10.3886
▁fi	-10.3901
ial	-10.3906
▁kinds	-10.3913
▁x	-10.3913
▁recital	-10.3915
▁split	-10.3915
▁vase	-10.3915
▁simple	-10.3915
▁section	-10.3915
mer	-10.3916
▁ok	-10.3916
▁eddie	-10.3916
▁dj	-10.3916
▁pig	-10.3917
cy	-10.392
▁candles	-10.3925
▁tools	-10.3925
▁proposed	-10.3926
▁slamm	-10.3951
▁here	-10.3955
▁base	-10.3959
▁roll	-10.3962
▁bow	-10.3963
▁exciting	-10.3978
▁university	-10.3978
▁blast	-10.3978
▁championship	-10.3978
▁wrapped	-10.3978
▁winner	-10.398
▁donna	-10.3989
▁claimed	-10.3999
▁form	-10.3999
▁american	-10.4003
▁america	-10.4016
▁tons	-10.4027
▁traveling	-10.4027
▁random	-10.4032
▁taxi	-10.4037
▁rough	-10.4041
▁themselves	-10.4041
▁cabinet	-10.4041
ball	-10.4063
ier	-10.407
▁pancakes	-10.4082
▁fran	-10.4102
▁craving	-10.4105
▁easier	-10.4105
▁hurry	-10.4105
▁somehow	-10.4105
▁dangerous	-10.4105
▁reluctantly	-10.4108
▁siblings	-10.4117
▁directions	-10.4155
▁hawaii	-10.4169
▁knife	-10.4169
▁puddle	-10.4169
▁refrigerator	-10.4169
▁william	-10.4169
▁honor	-10.4169
▁junk	-10.4169
▁fortunately	-10.417
▁jessie	-10.4171
▁bother	-10.4176
▁released	-10.418
▁v	-10.4195
▁pitch	-10.4196
▁scratched	-10.42
▁evan	-10.4217
▁branch	-10.423
▁anniversary	-10.4234
▁article	-10.4234
▁equipment	-10.4234
▁melissa	-10.4234
▁uncomfortable	-10.4234
▁sushi	-10.4234
▁leash	-10.4234
▁required	-10.4238
▁bars	-10.424
lin	-10.4255
▁banana	-10.4284
▁guys	-10.4291
▁curious	-10.4299
▁semester	-10.4299
▁vari	-10.4299
▁partner	-10.43
▁argued	-10.4308
▁payment	-10.4309
▁enrolled	-10.4311
▁roy	-10.4311
vis	-10.4311
▁walls	-10.4316
▁noises	-10.4322
ging	-10.4338
▁kissed	-10.4342
▁compliment	-10.435
▁ca	-10.4354
▁landlord	-10.4364
▁location	-10.4364
▁playground	-10.4364
▁travis	-10.4364
▁nine	-10.4364
▁exactly	-10.4366
▁oliver	-10.4366
▁seth	-10.4384
▁lift	-10.4389
▁members	-10.4413
▁prison	-10.4415
▁leak	-10.4428
▁adventure	-10.443
▁level	-10.443
▁volleyball	-10.443
▁above	-10.443
▁diana	-10.443
▁guide	-10.443
▁feared	-10.4435
▁suffered	-10.4436
om	-10.444
▁pin	-10.4443
▁screaming	-10.4452
▁lock	-10.4455
▁request	-10.4467
▁tacos	-10.4467
▁treats	-10.4467
▁writer	-10.4468
ev	-10.4473
▁file	-10.4487
▁bull	-10.4487
▁log	-10.4488
▁main	-10.4495
▁absolute	-10.4496
▁ambulance	-10.4496
▁bunny	-10.4496
▁pilot	-10.4496
▁spread	-10.4496
▁stroke	-10.4496
▁weak	-10.4496
▁replacement	-10.4497
ner	-10.4501
▁page	-10.4518
▁instructions	-10.4523
▁alley	-10.4524
▁wanting	-10.4533
▁graduate	-10.4542
▁pe	-10.4544
▁receive	-10.4559
▁ethan	-10.4563
▁romantic	-10.4563
▁temperature	-10.4563
▁studio	-10.4563
▁kittens	-10.4571
▁mandy	-10.4575
▁dig	-10.4594
ism	-10.4607
▁ike	-10.4611
ir	-10.4617
▁lied	-10.4619
▁candle	-10.4619
carried	-10.4622
▁miranda	-10.463
▁strip	-10.463
▁agent	-10.4631
que	-10.4632
▁sandra	-10.4637
ley	-10.4637
▁failing	-10.4645
ki	-10.4661
▁tap	-10.4673
▁meg	-10.4695
▁explore	-10.4697
▁private	-10.4697
▁italian	-10.4697
▁sammy	-10.4701
▁cousins	-10.4702
▁award	-10.4703
▁flipped	-10.4704
▁bush	-10.4708
▁freaked	-10.4708
▁greeted	-10.471
▁remained	-10.4715
▁charged	-10.4733
▁guess	-10.4736
▁tryouts	-10.4739
▁dancer	-10.4739
▁trainer	-10.4748
▁bi	-10.4749
▁clouds	-10.4756
▁pu	-10.476
▁grand	-10.4762
▁fifty	-10.4765
▁ivy	-10.4766
▁childhood	-10.4766
▁further	-10.4766
▁thirsty	-10.4767
▁keeping	-10.4767
▁nell	-10.4768
▁tan	-10.4782
worker	-10.479
▁cleaner	-10.4796
▁cab	-10.4798
▁drugs	-10.4814
▁tub	-10.4819
pped	-10.4826
▁gene	-10.4831
▁circus	-10.4834
▁graduation	-10.4834
▁nature	-10.4834
▁staff	-10.4834
▁upstairs	-10.4834
▁retired	-10.4845
▁ko	-10.4855
▁finishing	-10.4865
▁completed	-10.4874
▁sh	-10.488
▁lie	-10.4881
▁tires	-10.4892
▁derek	-10.4903
▁kathy	-10.4903
▁plenty	-10.4903
▁therefore	-10.4903
▁tracy	-10.4903
▁drain	-10.4903
▁goodbye	-10.4903
▁amber	-10.4906
▁dumped	-10.492
▁barking	-10.492
▁escaped	-10.492
▁ham	-10.4925
▁waved	-10.4926
▁dana	-10.4931
uc	-10.4946
▁sees	-10.4949
▁lines	-10.4958
▁hiding	-10.4958
▁king	-10.4961
▁flip	-10.497
▁solution	-10.4972
▁violin	-10.4972
▁gross	-10.4972
▁shake	-10.4973
one	-10.498
▁erica	-10.4997
▁201	-10.4997
ize	-10.5
100	-10.501
▁serve	-10.5012
▁focus	-10.5013
▁treated	-10.5022
▁attacked	-10.5027
▁fin	-10.504
▁scholarship	-10.5042
▁spanish	-10.5042
▁construction	-10.5042
▁andrea	-10.5043
▁runner	-10.5046
▁thanks	-10.5109
▁morgan	-10.5113
▁protest	-10.5113
▁sense	-10.5113
▁disney	-10.5113
▁bullied	-10.5113
▁ballet	-10.5113
▁pressure	-10.5113
▁properly	-10.5118
we	-10.5134
▁ned	-10.5137
▁mine	-10.5152
▁sprayed	-10.5153
▁item	-10.5154
les	-10.5159
▁comfort	-10.5182
▁assigned	-10.5184
▁crime	-10.5184
▁taylor	-10.5184
▁fireworks	-10.5184
▁stung	-10.5184
▁restroom	-10.5185
dical	-10.5196
▁buys	-10.5201
▁scream	-10.5202
▁staring	-10.5202
▁successfully	-10.5206
▁quietly	-10.5207
ina	-10.5215
▁messy	-10.5221
▁checking	-10.5228
▁falls	-10.5228
▁drawer	-10.5228
▁leo	-10.5233
▁habit	-10.5254
▁everybody	-10.5255
▁jasmine	-10.5255
▁ralph	-10.5255
▁funeral	-10.5255
▁cigarette	-10.5256
▁selected	-10.5262
▁mel	-10.5287
vo	-10.5288
▁flash	-10.5302
▁che	-10.5307
▁ki	-10.5317
ze	-10.5324
▁knit	-10.5325
▁hopes	-10.5326
▁beauty	-10.5327
▁memories	-10.5327
▁desert	-10.5327
▁ti	-10.5328
▁nei	-10.5328
▁potatoes	-10.5329
▁declined	-10.533
▁bushes	-10.5331
▁bugs	-10.5332
▁bakery	-10.5334
▁rug	-10.5345
▁waves	-10.5357
▁media	-10.5358
em	-10.5386
▁serious	-10.539
▁carnival	-10.5399
▁marriage	-10.5399
▁purple	-10.5399
▁therapy	-10.5399
▁throat	-10.5399
▁avail	-10.54
▁truth	-10.5401
▁mug	-10.5401
▁actor	-10.5403
▁rare	-10.5404
ock	-10.543
▁explain	-10.5444
pl	-10.5448
▁anyways	-10.5457
▁seats	-10.5463
▁regular	-10.5463
▁pills	-10.5464
▁le	-10.5465
▁behavior	-10.5472
▁confidence	-10.5472
▁ghost	-10.5472
▁mexican	-10.5472
▁therapist	-10.5472
▁anita	-10.5473
▁mailbox	-10.5473
▁afterward	-10.5474
▁presentation	-10.5475
▁burgers	-10.5479
▁teenager	-10.548
▁wide	-10.5481
▁mostly	-10.5485
ug	-10.549
▁setting	-10.5494
▁higher	-10.55
▁foods	-10.5509
land	-10.5535
▁current	-10.5537
▁curl	-10.5538
▁incredibl	-10.554
▁doors	-10.5542
▁fifteen	-10.5546
▁tiffany	-10.5546
▁magazine	-10.5548
▁castle	-10.5556
▁eagerly	-10.5557
▁cor	-10.5557
▁till	-10.5558
▁fourth	-10.556
▁names	-10.5563
old	-10.5564
▁beside	-10.557
and	-10.557
▁install	-10.5591
▁lean	-10.5597
con	-10.5607
▁patient	-10.5613
▁employees	-10.5616
▁alcohol	-10.5618
▁awkward	-10.562
▁captain	-10.562
▁festival	-10.562
▁horrified	-10.562
▁olivia	-10.562
▁reunion	-10.562
▁texas	-10.562
▁salesman	-10.5621
▁shelly	-10.5622
▁count	-10.5625
▁campus	-10.5625
▁involved	-10.5625
▁gate	-10.5634
▁holes	-10.5638
▁secretly	-10.5642
▁gi	-10.5642
▁enjoys	-10.5645
ign	-10.5648
▁carrying	-10.565
▁magic	-10.5657
▁attic	-10.5676
▁speaking	-10.568
▁fingers	-10.5682
▁thank	-10.5694
▁ebay	-10.5695
▁flag	-10.5695
▁hockey	-10.5695
▁loving	-10.5695
▁expert	-10.5695
▁lamp	-10.5695
▁tasty	-10.5695
▁frame	-10.5695
▁bacon	-10.5695
▁keyboard	-10.5695
▁product	-10.57
▁pepper	-10.57
▁dean	-10.5706
▁bumped	-10.5717
▁lower	-10.5722
▁deliver	-10.5734
▁qu	-10.5736
nny	-10.5739
oo	-10.5744
▁mac	-10.5758
▁ja	-10.5769
▁bulb	-10.577
▁denise	-10.577
▁south	-10.5771
▁master	-10.5771
▁bang	-10.5772
▁val	-10.5773
▁lion	-10.578
▁goat	-10.5783
▁locker	-10.5784
▁stone	-10.5789
▁sort	-10.579
▁print	-10.5805
▁acted	-10.582
▁surf	-10.5821
▁bri	-10.5821
▁cough	-10.5821
▁se	-10.5826
▁nervously	-10.5838
▁fe	-10.5839
▁difference	-10.5846
▁fabric	-10.5846
▁polish	-10.5846
▁burst	-10.5846
▁client	-10.5853
▁chip	-10.5859
▁benny	-10.5865
▁sip	-10.5865
▁eva	-10.5869
▁workout	-10.5876
▁celebrated	-10.5877
▁rep	-10.5911
▁rules	-10.592
▁puzzle	-10.5922
▁kelsi	-10.5922
▁worn	-10.5922
▁resume	-10.5922
▁medal	-10.5922
▁cigarettes	-10.5923
▁stumbled	-10.5926
▁bees	-10.5929
▁cons	-10.5944
▁streets	-10.5966
▁rescue	-10.5978
▁showing	-10.5993
▁annoying	-10.6002
ide	-10.6003
qu	-10.6026
light	-10.6026
hopped	-10.6027
▁pm	-10.6032
▁ways	-10.604
▁cancel	-10.6047
▁balls	-10.6058
▁si	-10.6064
ney	-10.6068
ya	-10.6069
▁express	-10.6076
▁invitation	-10.6076
▁allison	-10.6076
▁lack	-10.6076
▁shawn	-10.6077
▁tanya	-10.6077
▁source	-10.6077
11	-10.6078
▁freezer	-10.6078
▁chain	-10.6078
▁jose	-10.6079
▁barber	-10.6084
▁teachers	-10.6086
▁mia	-10.6087
▁quarter	-10.6087
▁cha	-10.6097
▁helen	-10.6098
▁filed	-10.6101
▁menu	-10.6101
▁skiing	-10.6123
▁comp	-10.6126
▁z	-10.6138
▁ty	-10.615
▁kara	-10.6153
▁claire	-10.6154
▁joseph	-10.6154
▁progress	-10.6154
▁paris	-10.6155
▁patty	-10.6156
▁crushed	-10.6169
▁tia	-10.6195
ub	-10.6222
▁louis	-10.6228
▁arcade	-10.6233
▁threatened	-10.6233
▁candidate	-10.6233
▁stack	-10.6233
▁valentine	-10.6233
▁recess	-10.6233
▁batch	-10.6237
▁alive	-10.6239
▁ants	-10.6245
▁trap	-10.6246
▁pit	-10.6249
▁jesse	-10.6251
▁jokes	-10.6258
▁pi	-10.6267
▁ve	-10.6269
▁maybe	-10.6269
▁register	-10.6284
▁u	-10.6289
▁shots	-10.6294
▁create	-10.6298
▁da	-10.6307
▁content	-10.6313
▁ellie	-10.6313
▁tomatoes	-10.6315
rc	-10.6318
▁july	-10.632
▁washer	-10.632
▁sighed	-10.6327
▁parent	-10.6327
▁approaching	-10.6329
▁roommates	-10.6352
▁debt	-10.6356
▁escape	-10.6372
▁painful	-10.6373
han	-10.6373
▁dive	-10.6381
▁excitement	-10.6393
▁iphone	-10.6393
▁memory	-10.6393
▁stephanie	-10.6393
▁written	-10.6393
▁stream	-10.6393
▁spicy	-10.6393
▁volunteer	-10.642
▁maya	-10.6427
▁shave	-10.6428
▁nu	-10.6438
▁borrowed	-10.6438
▁investigate	-10.6453
▁counselor	-10.6473
▁overnight	-10.6473
▁somewhere	-10.6473
▁riley	-10.6473
▁tiger	-10.6474
▁meals	-10.6474
▁racing	-10.6474
▁bella	-10.6484
▁melted	-10.6491
▁direction	-10.6491
▁reported	-10.6495
▁stealing	-10.6507
▁reward	-10.6511
over	-10.6516
▁hundreds	-10.652
▁your	-10.6528
▁dealer	-10.6541
ile	-10.6549
▁commercial	-10.6554
▁harold	-10.6555
▁nicole	-10.6555
▁battle	-10.6555
▁national	-10.6558
▁sisters	-10.6559
▁johnson	-10.657
▁dam	-10.6572
▁cause	-10.6574
▁earl	-10.6586
▁net	-10.6587
▁condition	-10.6605
▁blocks	-10.6606
▁stress	-10.6607
ron	-10.6613
▁correct	-10.6628
▁feelings	-10.6635
▁discount	-10.6636
▁murder	-10.6636
▁angie	-10.6637
▁cody	-10.6639
▁moon	-10.6641
off	-10.6643
igh	-10.6647
▁begins	-10.6661
▁hose	-10.6668
▁hal	-10.6669
▁circle	-10.6699
▁beard	-10.6709
ily	-10.6709
▁natural	-10.671
▁thin	-10.6714
▁aquarium	-10.6719
▁factory	-10.6719
▁frisbee	-10.6719
▁haunted	-10.6719
▁midnight	-10.6719
▁response	-10.6719
▁thunder	-10.6719
▁wrist	-10.6719
▁subway	-10.672
▁shaking	-10.672
▁overweight	-10.6721
▁mar	-10.6724
▁comedy	-10.6724
▁code	-10.6728
▁member	-10.674
▁thrown	-10.6741
▁ducks	-10.6747
▁judges	-10.6759
▁fans	-10.6776
▁sail	-10.678
▁ignore	-10.6791
▁slip	-10.6801
▁puppies	-10.6802
▁bracelet	-10.6802
▁healthier	-10.6803
▁pulling	-10.6804
▁dread	-10.6806
▁answers	-10.6808
work	-10.6812
▁friendship	-10.6816
fully	-10.6821
▁web	-10.6822
▁bra	-10.6829
ey	-10.6834
▁stars	-10.6844
▁hurting	-10.6845
▁brushed	-10.6848
ue	-10.6858
ette	-10.6866
▁l	-10.6871
▁arguing	-10.6886
▁elizabeth	-10.6886
▁envelope	-10.6886
▁excellent	-10.6886
▁frightened	-10.6886
▁instrument	-10.6886
▁junior	-10.6886
▁monster	-10.6886
▁strike	-10.6886
▁trunk	-10.6886
▁wandered	-10.6886
▁cafe	-10.6886
▁value	-10.6887
▁robot	-10.6887
▁france	-10.6889
▁north	-10.6896
▁drug	-10.6911
ler	-10.6914
▁beef	-10.6914
▁ruth	-10.6928
▁tore	-10.6936
▁sounds	-10.6937
▁tablet	-10.694
▁trust	-10.6944
▁prices	-10.6955
▁outdoors	-10.6956
▁cro	-10.6968
▁blake	-10.6971
▁brenda	-10.6971
▁firm	-10.6971
▁scoop	-10.6971
▁buddy	-10.6971
▁digging	-10.6972
▁charity	-10.6972
▁marty	-10.6972
▁sofa	-10.6972
▁condo	-10.6973
▁surprisingly	-10.6973
▁lace	-10.6977
▁fry	-10.6978
▁smashed	-10.6983
▁signs	-10.7005
▁switched	-10.7011
▁claim	-10.7028
▁tami	-10.7033
▁total	-10.7049
▁heads	-10.705
▁batter	-10.7052
▁wa	-10.7055
▁arnold	-10.7057
▁period	-10.7057
▁wrestling	-10.7057
▁yoga	-10.7057
▁chasing	-10.7057
▁experienced	-10.7058
▁litter	-10.706
▁rex	-10.7065
▁admired	-10.7065
▁denied	-10.7066
▁inspired	-10.7075
▁normally	-10.7075
▁sewing	-10.7079
▁yell	-10.7089
▁blow	-10.71
▁weights	-10.7111
▁includ	-10.7114
▁discover	-10.7114
▁cara	-10.7125
▁author	-10.7142
▁elevator	-10.7143
▁quality	-10.7143
▁swung	-10.7143
▁brew	-10.7143
▁queen	-10.7143
▁quarterback	-10.7143
▁respect	-10.7148
▁balloons	-10.7148
▁scolded	-10.7148
▁musician	-10.7149
▁wire	-10.7155
▁spelling	-10.7156
her	-10.7195
▁comb	-10.7204
▁exchange	-10.721
▁wins	-10.7216
▁cleared	-10.7216
▁cafeteria	-10.723
▁natalie	-10.723
▁opportunity	-10.723
▁sentence	-10.723
▁sunscreen	-10.723
▁thief	-10.723
▁jasper	-10.723
▁ronald	-10.723
▁risk	-10.723
▁mentioned	-10.7239
▁published	-10.7239
▁rarely	-10.7241
▁dryer	-10.7255
▁shorts	-10.7258
▁poorly	-10.7267
▁rocky	-10.7272
lar	-10.7274
▁noodles	-10.7274
▁teams	-10.73
▁range	-10.7302
▁ida	-10.7312
▁human	-10.7313
▁suspended	-10.7318
▁unsure	-10.7318
▁closing	-10.7318
▁dying	-10.7318
▁diving	-10.7318
▁property	-10.7318
▁lance	-10.7319
▁abandoned	-10.7322
▁container	-10.7329
▁jackie	-10.7332
▁holidays	-10.7334
▁kit	-10.7339
▁crowded	-10.7342
▁sweat	-10.7356
▁compete	-10.7386
▁retrieve	-10.7386
▁froze	-10.7387
▁chosen	-10.7403
▁lasted	-10.7406
▁arranged	-10.7406
▁arriving	-10.7406
▁kindergarten	-10.7406
▁timothy	-10.7406
▁paycheck	-10.7406
▁hallway	-10.7407
▁dorm	-10.7407
▁karl	-10.7407
▁hidden	-10.7407
▁bin	-10.7408
▁dale	-10.7408
▁loss	-10.7412
▁mower	-10.7415
▁decorated	-10.742
▁toby	-10.7426
▁counted	-10.7441
▁lifted	-10.7445
▁len	-10.7446
year	-10.7455
▁owners	-10.7456
▁brave	-10.7457
▁coast	-10.7467
▁feeding	-10.7486
▁diane	-10.7495
▁prescribed	-10.7495
▁unique	-10.7495
▁shiny	-10.7495
▁sped	-10.7502
▁daddy	-10.7504
▁shopped	-10.7505
▁regularly	-10.7506
▁totally	-10.7508
▁recovered	-10.7514
▁tow	-10.7517
▁su	-10.7526
▁bone	-10.7545
▁pets	-10.7556
▁wings	-10.7564
▁states	-10.7567
▁hi	-10.7568
▁india	-10.7575
▁rec	-10.758
▁protect	-10.7583
▁ceiling	-10.7585
▁destination	-10.7585
▁excuse	-10.7585
▁jelly	-10.7585
▁lindsay	-10.7585
▁smiling	-10.7585
▁supermarket	-10.7585
▁bleach	-10.7585
▁christian	-10.7585
▁director	-10.7587
▁har	-10.7591
▁bryan	-10.7591
▁scare	-10.7591
▁parties	-10.7592
▁pitcher	-10.76
▁pies	-10.7616
▁dozens	-10.7617
▁hook	-10.7648
ite	-10.7672
▁caleb	-10.7676
▁monica	-10.7676
▁ease	-10.7677
▁shane	-10.7678
▁slightly	-10.7679
▁allow	-10.7681
▁term	-10.7682
▁patiently	-10.7687
▁aid	-10.7693
▁deck	-10.7694
▁dresses	-10.7712
ship	-10.7712
▁boarded	-10.772
▁olympics	-10.7732
▁excitedly	-10.774
▁tru	-10.7756
▁tips	-10.7762
▁experiment	-10.7768
▁agency	-10.7768
▁curb	-10.7768
▁dinosaur	-10.7768
▁mturk	-10.7768
▁patrick	-10.7768
▁starving	-10.7768
▁collar	-10.7768
▁stephen	-10.7769
▁bond	-10.777
▁glue	-10.777
ably	-10.777
▁taco	-10.781
▁classmate	-10.7814
rk	-10.7821
▁crossed	-10.7826
▁tune	-10.7832
gy	-10.7836
▁presented	-10.7849
▁physical	-10.7852
▁proudly	-10.7853
▁hip	-10.7853
▁tend	-10.7858
▁adjust	-10.7861
▁april	-10.7861
▁lilly	-10.7861
▁positive	-10.7861
▁massive	-10.7861
▁ultimately	-10.7862
▁resolved	-10.7866
▁lori	-10.7868
▁ref	-10.7869
▁caus	-10.7881
▁wheels	-10.7894
book	-10.7908
ible	-10.7909
dding	-10.7922
▁belongings	-10.7954
▁cliff	-10.7954
▁creative	-10.7955
▁submitted	-10.7955
▁sheila	-10.7955
cient	-10.7959
▁kat	-10.7962
cing	-10.7971
▁cheaper	-10.7979
▁cans	-10.7985
lie	-10.7994
ction	-10.7995
▁expect	-10.7995
▁hamburger	-10.7997
▁filling	-10.7998
▁leader	-10.8001
▁mini	-10.8014
▁smoked	-10.8032
20	-10.8035
▁pee	-10.8039
▁buddies	-10.8048
▁heartbroken	-10.8048
▁stylist	-10.8048
▁swore	-10.8048
▁treasure	-10.8048
▁plumber	-10.8049
▁sharon	-10.8049
▁lightning	-10.8049
▁hammer	-10.8049
▁mask	-10.805
▁jog	-10.8054
▁recognized	-10.8064
▁hunter	-10.8068
▁scar	-10.8069
▁ju	-10.8071
▁gri	-10.8072
▁disc	-10.808
ified	-10.8088
▁character	-10.8094
▁guest	-10.8096
▁sew	-10.8096
▁col	-10.8097
▁chickens	-10.8102
▁non	-10.8103
▁savings	-10.8107
ok	-10.8107
au	-10.8109
▁curtains	-10.8111
workers	-10.8114
▁catching	-10.8118
▁weekends	-10.812
▁dresser	-10.8133
▁desperate	-10.8135
▁netflix	-10.8144
▁sunburn	-10.8144
▁supervisor	-10.8144
▁thick	-10.8144
▁bomb	-10.8144
▁ditch	-10.8144
▁jogging	-10.8144
▁addicted	-10.8153
▁donated	-10.8166
▁smaller	-10.8167
▁hits	-10.8179
▁bump	-10.8189
▁ni	-10.8199
▁cared	-10.8208
▁mid	-10.8209
▁press	-10.8215
▁contract	-10.8237
▁official	-10.824
▁crab	-10.824
▁defend	-10.824
▁probab	-10.824
▁babysitter	-10.8241
▁canoe	-10.8242
▁china	-10.8242
die	-10.8243
▁kris	-10.8248
▁photographer	-10.825
▁robin	-10.8251
▁appreciated	-10.8254
▁moves	-10.8258
▁orders	-10.8259
▁skill	-10.8261
▁pretend	-10.8284
▁bubble	-10.8289
▁kayak	-10.8291
▁repaired	-10.8303
▁punch	-10.8308
▁whe	-10.8315
▁brett	-10.8337
▁detail	-10.8337
▁intense	-10.8337
▁librarian	-10.8337
▁nathan	-10.8337
▁session	-10.8337
▁buried	-10.8337
▁bottles	-10.8338
▁gabe	-10.8338
▁mold	-10.8338
▁poem	-10.8338
ill	-10.8338
▁active	-10.8339
▁marco	-10.834
▁mailman	-10.834
▁noah	-10.8346
▁barn	-10.835
▁fee	-10.8353
▁cord	-10.8371
▁mow	-10.8381
▁damaged	-10.8384
▁keeps	-10.8399
war	-10.8399
▁flood	-10.8406
▁ruin	-10.841
▁wi	-10.8414
▁fixing	-10.843
▁calmed	-10.8431
▁ecstatic	-10.8435
▁original	-10.8435
▁overwhelmed	-10.8435
▁previous	-10.8435
▁suspicious	-10.8435
▁thursday	-10.8435
▁uniform	-10.8435
▁attached	-10.8435
▁ipad	-10.8435
▁dried	-10.8435
▁data	-10.8436
▁tray	-10.8437
▁bananas	-10.8457
▁eats	-10.846
▁cheated	-10.8461
▁twins	-10.8479
▁bent	-10.8502
▁convince	-10.8514
▁tradition	-10.8514
▁tear	-10.8521
▁thousands	-10.8523
▁potato	-10.8531
▁activities	-10.8534
▁anxiety	-10.8534
▁chemistry	-10.8534
▁flour	-10.8534
▁japan	-10.8534
▁participate	-10.8534
▁resist	-10.8534
▁root	-10.8534
▁elated	-10.8535
▁fever	-10.8538
▁exit	-10.854
▁fb	-10.8544
▁startled	-10.8545
ose	-10.8555
▁fur	-10.8571
▁coins	-10.8581
▁twin	-10.859
box	-10.8595
▁gloves	-10.8628
▁amusement	-10.8634
▁diamond	-10.8634
▁doorbell	-10.8634
▁elderly	-10.8634
▁foul	-10.8634
▁mcdonald	-10.8634
▁crep	-10.8634
▁creature	-10.8634
▁sasha	-10.8634
▁dr	-10.8664
▁dared	-10.8672
▁wonder	-10.8678
▁returning	-10.8679
▁fears	-10.8679
▁11	-10.8681
▁forty	-10.8689
back	-10.8706
▁cla	-10.871
the	-10.8712
▁degrees	-10.8729
▁mitch	-10.8735
▁document	-10.8735
▁ceremony	-10.8735
▁crew	-10.8735
▁clark	-10.8735
▁stew	-10.8736
▁swell	-10.8736
▁sleepover	-10.8739
▁accused	-10.8743
▁scarf	-10.8745
▁drums	-10.8748
▁hood	-10.8749
▁gu	-10.8757
oun	-10.8778
▁performing	-10.8785
▁material	-10.8794
▁tu	-10.8802
▁dated	-10.8815
▁tomato	-10.8834
▁attract	-10.8834
▁nerves	-10.8835
▁marsha	-10.8836
▁peace	-10.8836
▁babies	-10.8837
▁diaper	-10.8837
▁europe	-10.8837
▁exploring	-10.8837
▁series	-10.8837
▁avid	-10.8837
▁fiance	-10.8838
▁attractive	-10.8838
▁marge	-10.8838
▁babysitting	-10.8838
▁skipped	-10.8839
hand	-10.8844
▁deposit	-10.8847
▁confessed	-10.8851
▁sleepy	-10.8852
▁signal	-10.8854
let	-10.8861
▁casey	-10.8867
▁limit	-10.8911
▁dragg	-10.8922
▁aside	-10.8928
▁december	-10.894
▁error	-10.894
▁margaret	-10.894
▁nasty	-10.894
▁scientist	-10.894
▁survey	-10.894
▁twelve	-10.894
▁cents	-10.8941
▁clara	-10.8942
ex	-10.8957
▁para	-10.8959
▁responded	-10.8964
▁stronger	-10.8966
▁divorced	-10.8983
▁coupon	-10.9003
▁scrap	-10.9016
▁poison	-10.902
▁trade	-10.9024
▁noon	-10.9025
▁attending	-10.9028
▁drives	-10.9034
▁bookstore	-10.9044
▁passenger	-10.9044
▁pierced	-10.9044
▁sixteen	-10.9044
▁tongue	-10.9044
▁princess	-10.9045
▁management	-10.9045
ied	-10.9048
▁conditioner	-10.9053
▁nora	-10.9066
▁dar	-10.9086
▁focused	-10.9088
▁paula	-10.9088
▁electronics	-10.9092
▁waste	-10.9092
▁types	-10.9103
par	-10.913
▁campaign	-10.915
▁changing	-10.915
▁common	-10.915
▁hesitant	-10.915
▁military	-10.915
▁parrot	-10.915
▁object	-10.915
▁teased	-10.9161
▁engineer	-10.9178
▁plates	-10.9192
▁arrives	-10.9197
▁albert	-10.9206
▁earrings	-10.9211
▁cub	-10.9212
▁spiders	-10.9231
▁breaks	-10.9235
▁ache	-10.9247
▁austin	-10.9256
▁culture	-10.9256
▁engaged	-10.9256
▁fortune	-10.9256
▁kelley	-10.9256
▁blade	-10.9256
▁char	-10.9256
▁virus	-10.9256
▁batteries	-10.9257
▁robbed	-10.9257
▁karate	-10.9258
▁label	-10.926
▁lana	-10.9261
▁sour	-10.9262
▁snowman	-10.9264
▁bleeding	-10.9266
▁mommy	-10.9266
nna	-10.9268
▁seriously	-10.9269
▁ally	-10.9274
▁splashed	-10.9281
▁roses	-10.9295
▁collecting	-10.9309
▁21	-10.931
▁fail	-10.931
▁float	-10.931
▁dolls	-10.9316
ai	-10.9335
▁changes	-10.9337
▁snowed	-10.9338
▁apologize	-10.9343
▁donate	-10.9348
▁donuts	-10.9352
▁severe	-10.9356
ez	-10.9363
▁sy	-10.9363
▁buzz	-10.9363
▁decorations	-10.9363
▁goldfish	-10.9363
▁rejected	-10.9363
▁terribly	-10.9363
▁thrift	-10.9363
▁tasting	-10.9364
▁decent	-10.9365
▁gray	-10.9365
▁dock	-10.9365
▁sheet	-10.9365
▁pri	-10.9366
▁dove	-10.9367
▁collapsed	-10.9367
▁blamed	-10.9373
▁teller	-10.9387
▁tower	-10.9398
▁cupcakes	-10.9427
▁choir	-10.9472
▁nursing	-10.9472
▁shannon	-10.9472
▁similar	-10.9472
▁assumed	-10.9472
▁butterfly	-10.9472
▁flirt	-10.9472
▁minor	-10.9472
▁lizard	-10.9472
▁waking	-10.9473
▁retirement	-10.9473
▁gang	-10.9474
▁organized	-10.9483
▁disgusted	-10.9484
▁guns	-10.9488
▁indian	-10.9488
▁shouted	-10.9489
▁heels	-10.9498
▁bears	-10.9516
bed	-10.9525
▁fu	-10.9526
▁reviews	-10.9527
room	-10.9528
▁delighted	-10.9534
▁deb	-10.9543
▁tube	-10.9544
▁chat	-10.9551
▁ha	-10.9555
▁pace	-10.9559
▁imp	-10.9579
▁affair	-10.9582
▁familiar	-10.9582
▁injury	-10.9582
▁lecture	-10.9582
▁lemon	-10.9582
▁responsible	-10.9582
▁salmon	-10.9582
▁silence	-10.9582
▁flashlight	-10.9582
▁assistant	-10.9582
▁courtney	-10.9583
▁pride	-10.9585
▁profit	-10.9588
▁passion	-10.9591
▁disgusting	-10.9592
▁male	-10.9596
▁server	-10.9598
▁belly	-10.9601
▁pages	-10.9602
▁allen	-10.9614
▁shirts	-10.9632
▁deli	-10.9639
▁remain	-10.964
▁cheat	-10.964
▁watches	-10.9643
▁cups	-10.9656
aid	-10.9664
za	-10.9681
▁proper	-10.9691
▁chicago	-10.9693
▁craigslist	-10.9693
▁education	-10.9693
▁oatmeal	-10.9693
▁rebecca	-10.9693
▁subject	-10.9693
▁trevor	-10.9693
▁awesome	-10.9693
▁among	-10.9693
▁basic	-10.9693
▁stitches	-10.9694
▁reaction	-10.9694
▁broom	-10.9694
▁electricity	-10.9694
▁freezing	-10.9694
▁howard	-10.9696
▁sex	-10.9697
▁walter	-10.9698
▁bounced	-10.9702
▁debate	-10.9703
▁raw	-10.9704
▁posters	-10.9715
▁mowing	-10.9721
▁sheets	-10.9732
▁coupons	-10.9737
▁bubbles	-10.9749
▁peer	-10.9758
▁mu	-10.9775
▁larger	-10.9776
▁propose	-10.9785
▁packing	-10.9788
▁solo	-10.9789
▁tre	-10.9799
▁bruce	-10.9806
▁gallon	-10.9806
▁government	-10.9806
▁opinion	-10.9806
▁prayed	-10.9806
▁raccoon	-10.9806
▁shadow	-10.9806
▁tech	-10.9806
▁bolt	-10.9806
▁massage	-10.9806
▁allowance	-10.9806
▁proceeded	-10.9813
▁revealed	-10.9816
▁spots	-10.9819
▁twisted	-10.9821
▁seller	-10.9822
▁printer	-10.9824
▁colorful	-10.9824
▁charger	-10.9825
ah	-10.983
lia	-10.984
▁heater	-10.9848
nual	-10.9861
▁voted	-10.9861
▁abe	-10.9871
pping	-10.9871
▁peel	-10.9873
▁plug	-10.9873
▁invest	-10.9889
▁bark	-10.9892
ical	-10.9895
▁cooler	-10.9899
▁quarters	-10.9903
▁bun	-10.9916
▁burrito	-10.9919
▁conference	-10.9919
▁helmet	-10.9919
▁monitor	-10.9919
▁veggies	-10.9919
▁whale	-10.9919
▁windshield	-10.9919
▁antique	-10.9919
▁dawn	-10.9919
▁slot	-10.992
▁nuts	-10.992
▁cupboard	-10.9921
▁shade	-10.9921
▁promoted	-10.9925
▁choices	-10.9929
▁crawled	-10.9932
▁port	-10.9934
lle	-10.9934
▁sued	-10.9939
▁jones	-10.9939
▁compliments	-10.9944
▁letters	-10.9944
▁jam	-10.9947
▁rescued	-10.9949
▁cu	-10.9981
▁sled	-10.9982
▁carrots	-10.9986
mble	-10.9992
▁blankets	-11
▁hiked	-11.0009
▁avoided	-11.0017
▁robber	-11.003
▁africa	-11.0034
▁depression	-11.0034
▁england	-11.0034
▁silver	-11.0034
▁thunderstorm	-11.0034
▁scale	-11.0034
▁honey	-11.0035
▁ivan	-11.0035
▁leah	-11.0035
▁raft	-11.0036
▁expired	-11.0036
▁soldier	-11.0037
▁maid	-11.0038
▁bandage	-11.0043
▁county	-11.0046
▁survived	-11.0054
▁shells	-11.0058
▁carter	-11.0058
▁blown	-11.006
▁loses	-11.006
▁flooded	-11.0068
▁colored	-11.0085
▁knocking	-11.0089
▁spark	-11.0093
▁approach	-11.0097
ja	-11.013
▁francis	-11.015
▁barbara	-11.015
▁bartender	-11.015
▁bonnie	-11.015
▁hardware	-11.015
▁miserable	-11.015
▁prescription	-11.015
▁sniff	-11.015
▁strict	-11.015
▁sunglasses	-11.015
▁assured	-11.015
▁sorry	-11.015
uck	-11.0154
▁rash	-11.0158
▁mice	-11.0159
▁teen	-11.0164
▁chewing	-11.0169
▁dori	-11.0171
▁highest	-11.0189
▁forth	-11.0191
▁cora	-11.0196
▁theme	-11.0211
school	-11.0227
▁dump	-11.0239
▁elephant	-11.0241
▁victor	-11.025
▁gig	-11.025
▁glen	-11.0252
ative	-11.026
ana	-11.0263
▁gradually	-11.0268
▁heavily	-11.0268
▁lulu	-11.0268
▁muffin	-11.0268
▁stacey	-11.0268
▁leslie	-11.0268
▁ashamed	-11.0268
▁below	-11.0268
▁grant	-11.0268
▁mild	-11.0268
▁drill	-11.0268
▁stall	-11.0268
▁typing	-11.0269
▁nyc	-11.027
▁poop	-11.027
▁examined	-11.0275
my	-11.0277
▁alert	-11.0279
▁maker	-11.0279
▁sweets	-11.0281
ban	-11.0315
▁spin	-11.0321
▁bothered	-11.0322
▁joel	-11.033
▁consider	-11.0334
▁tri	-11.0338
▁pour	-11.034
▁tile	-11.0364
▁settle	-11.0368
▁sample	-11.0372
▁clients	-11.0376
10	-11.0379
▁babysit	-11.0385
▁drama	-11.0387
▁cassie	-11.0387
▁parlor	-11.0387
▁pokemon	-11.0387
▁profusely	-11.0387
▁purpose	-11.0387
▁scissors	-11.0387
▁storage	-11.0387
▁trumpet	-11.0387
▁sunset	-11.0387
▁clapped	-11.0387
▁reality	-11.0391
▁torn	-11.0407
▁bay	-11.0407
▁missy	-11.0416
▁scraped	-11.042
▁march	-11.0431
▁beating	-11.0447
▁carly	-11.0452
▁teammates	-11.0462
▁recipes	-11.0473
▁muscle	-11.0483
▁retire	-11.0486
▁gus	-11.0488
eg	-11.0497
▁admit	-11.0506
▁competitive	-11.0508
▁draft	-11.0508
▁lindsey	-11.0508
▁stadium	-11.0508
▁underneath	-11.0508
▁honest	-11.0508
▁dining	-11.0508
▁softball	-11.0508
▁attendant	-11.051
▁freshman	-11.0512
▁hay	-11.0516
▁edward	-11.0522
▁bur	-11.0527
▁cramp	-11.0527
▁surfing	-11.0546
▁fully	-11.055
▁awe	-11.058
mate	-11.06
▁peanuts	-11.0608
sha	-11.0628
▁angrily	-11.063
▁blog	-11.063
▁elena	-11.063
▁square	-11.063
▁thumb	-11.063
▁itself	-11.063
▁pantry	-11.063
▁rehab	-11.063
▁daycare	-11.063
▁multiple	-11.063
▁vision	-11.063
▁rhonda	-11.063
▁biology	-11.063
▁champion	-11.063
▁gamble	-11.063
▁jet	-11.063
iest	-11.0631
▁auto	-11.0635
▁sprained	-11.0635
▁exploded	-11.0635
▁branches	-11.0636
▁fainted	-11.0641
▁misses	-11.0643
▁overall	-11.0644
▁reel	-11.0648
▁toaster	-11.0652
▁pouring	-11.0655
▁wasted	-11.0659
▁fruits	-11.0661
row	-11.0675
▁cure	-11.0692
▁nia	-11.0693
plugged	-11.0702
▁swings	-11.0711
▁roast	-11.0724
▁respond	-11.0724
▁mist	-11.0737
▁affect	-11.0753
▁campfire	-11.0753
▁critic	-11.0753
▁evacuate	-11.0753
▁pattern	-11.0753
▁shelves	-11.0753
▁elementary	-11.0753
▁whitney	-11.0753
▁berries	-11.0753
▁image	-11.0753
▁groom	-11.0754
▁apparently	-11.0754
▁inches	-11.0756
▁renee	-11.0756
▁wishes	-11.076
▁gay	-11.0769
ble	-11.0771
▁pairs	-11.0771
▁shaved	-11.0785
▁exchanged	-11.0786
▁goals	-11.0788
cent	-11.0788
,000	-11.0795
▁overtime	-11.0799
▁scratching	-11.0804
▁happening	-11.0805
▁nic	-11.0818
▁brakes	-11.0822
▁gather	-11.0828
▁treating	-11.0828
▁becomes	-11.083
▁splash	-11.0849
chi	-11.0852
▁release	-11.0858
▁lighter	-11.0865
▁finals	-11.0865
▁sorts	-11.0866
▁clip	-11.0878
▁barbecue	-11.0878
▁blonde	-11.0878
▁debbie	-11.0878
▁gerald	-11.0878
▁irritated	-11.0878
▁smartphone	-11.0878
▁lenny	-11.0878
▁horn	-11.0879
▁braid	-11.0879
▁fluffy	-11.088
▁mechanical	-11.0887
▁trapped	-11.089
▁helpful	-11.0911
▁knees	-11.0916
▁watered	-11.0923
air	-11.0938
▁musical	-11.0945
▁san	-11.0952
▁harm	-11.0959
all	-11.0986
▁mario	-11.0987
▁pad	-11.0999
▁heated	-11.1
▁entertain	-11.1004
definitely	-11.1005
▁female	-11.1005
▁infection	-11.1005
▁javier	-11.1005
▁lasagna	-11.1005
▁promptly	-11.1005
▁serving	-11.1005
▁vegetarian	-11.1005
▁wednesday	-11.1005
▁village	-11.1005
▁bullet	-11.1005
▁doubt	-11.1005
▁touchdown	-11.1005
▁snap	-11.1005
▁hillary	-11.1006
▁taxes	-11.1007
▁ross	-11.1011
▁donation	-11.1015
▁correctly	-11.1018
▁poster	-11.1021
▁baker	-11.1028
▁adults	-11.1037
▁flames	-11.1055
▁tam	-11.1085
▁monkeys	-11.1094
▁demand	-11.1104
▁solve	-11.1112
▁drum	-11.1117
▁custom	-11.1125
▁caffeine	-11.1133
▁cheerleader	-11.1133
▁creek	-11.1133
▁employer	-11.1133
▁kelsey	-11.1133
▁knowledge	-11.1133
▁robbie	-11.1133
▁trampoline	-11.1133
▁spirit	-11.1133
▁siren	-11.1133
▁general	-11.1133
▁skirt	-11.1133
▁frantically	-11.1133
▁aware	-11.1133
▁method	-11.1133
▁realizing	-11.1134
▁leather	-11.1134
▁liam	-11.1134
▁bait	-11.1136
▁lola	-11.1139
▁weekly	-11.1143
▁stormed	-11.1147
▁smiths	-11.1151
day	-11.1153
▁gar	-11.1162
▁hooked	-11.1174
▁west	-11.118
▁mindy	-11.1186
ander	-11.1191
▁complaining	-11.1195
▁formed	-11.1202
▁flavors	-11.1231
▁stretch	-11.1234
▁products	-11.1253
▁attitude	-11.1263
▁cheek	-11.1263
▁cowboy	-11.1263
▁device	-11.1263
▁exotic	-11.1263
▁exterminator	-11.1263
▁forecast	-11.1263
▁frustration	-11.1263
▁japanese	-11.1263
▁lewis	-11.1263
▁pregnancy	-11.1263
▁secure	-11.1263
▁telescope	-11.1263
▁bonus	-11.1263
▁foreign	-11.1263
▁upgrade	-11.1263
▁haley	-11.1263
▁handsome	-11.1263
▁booth	-11.1266
▁snowball	-11.1266
▁mission	-11.127
▁punished	-11.1272
▁clay	-11.1272
▁turk	-11.1272
▁wiped	-11.1276
▁chewed	-11.1288
▁yo	-11.1301
▁based	-11.1306
▁printed	-11.1313
▁leap	-11.132
▁towels	-11.1337
▁wars	-11.1344
▁gain	-11.1346
▁bart	-11.135
▁dvd	-11.1394
▁dylan	-11.1394
▁fifth	-11.1394
▁lifeguard	-11.1394
▁obsessed	-11.1394
▁reservation	-11.1394
▁smack	-11.1394
▁spoon	-11.1394
▁bragg	-11.1394
▁bailey	-11.1394
▁repeat	-11.1394
▁lucas	-11.1395
▁vince	-11.1395
▁tipped	-11.1396
▁brain	-11.1398
▁accomplished	-11.1403
▁snakes	-11.1407
▁spoiled	-11.1408
▁muscles	-11.1421
▁shi	-11.1432
▁rolls	-11.1434
▁pressed	-11.1436
▁boo	-11.1459
▁photograph	-11.1506
▁ending	-11.1524
▁alligator	-11.1528
▁benefit	-11.1528
▁deciding	-11.1528
▁fault	-11.1528
▁narrow	-11.1528
▁political	-11.1528
▁stupid	-11.1528
▁substitute	-11.1528
▁unhealthy	-11.1528
▁vegan	-11.1528
▁yogurt	-11.1528
▁zack	-11.1528
▁consult	-11.1528
▁fond	-11.1528
▁title	-11.1528
▁rubber	-11.1528
▁console	-11.1528
▁membership	-11.1528
▁income	-11.1528
▁stanley	-11.1529
▁dropping	-11.1529
▁diligently	-11.1529
▁germany	-11.1535
▁delayed	-11.1539
▁luc	-11.1543
▁errands	-11.1554
▁cole	-11.156
▁needle	-11.1563
▁records	-11.1569
wn	-11.1576
har	-11.158
▁towed	-11.1586
▁sticks	-11.1591
▁faith	-11.1601
▁sting	-11.1624
▁recover	-11.1627
▁backwards	-11.1637
▁decorate	-11.1643
▁exams	-11.1653
▁activity	-11.1663
▁bouquet	-11.1663
▁dennis	-11.1663
▁episode	-11.1663
▁negative	-11.1663
▁shampoo	-11.1663
▁wanda	-11.1663
▁owen	-11.1663
▁liking	-11.1664
▁thoroughly	-11.1664
▁tuna	-11.1664
▁ronnie	-11.1664
▁flies	-11.1665
▁mental	-11.1672
▁desperately	-11.1675
▁healed	-11.1676
▁macy	-11.1678
▁fastest	-11.1691
ache	-11.1691
▁ads	-11.1697
▁lifting	-11.1713
▁materials	-11.172
▁sim	-11.1723
▁jed	-11.1732
▁skates	-11.1735
▁separate	-11.1779
▁texting	-11.178
▁lid	-11.1795
▁browsing	-11.18
▁daisy	-11.18
▁disease	-11.18
▁exercising	-11.18
▁hometown	-11.18
▁illegal	-11.18
▁london	-11.18
▁rival	-11.18
▁whistle	-11.18
▁quilt	-11.18
▁milton	-11.18
▁preferred	-11.18
▁grandson	-11.1801
▁juan	-11.1801
▁chatted	-11.1802
▁trial	-11.1803
▁producer	-11.1809
▁bedtime	-11.1814
▁tightly	-11.182
▁elephants	-11.1832
▁blowing	-11.1839
▁coughing	-11.1844
▁volunteered	-11.1849
bel	-11.1869
▁rip	-11.1872
▁oldest	-11.1885
▁sights	-11.1893
▁nightmares	-11.1897
mail	-11.1906
▁wreck	-11.1909
▁smooth	-11.191
▁cartoons	-11.1919
▁heights	-11.193
▁german	-11.1931
▁paintings	-11.1936
▁athlete	-11.1939
▁brick	-11.1939
▁kerry	-11.1939
▁lobster	-11.1939
▁overslept	-11.1939
▁preparation	-11.1939
▁rufus	-11.1939
▁crystal	-11.1939
▁hector	-11.1939
▁sophie	-11.1939
▁jackpot	-11.1939
▁amused	-11.1939
▁appearance	-11.1939
▁events	-11.1939
▁skinny	-11.1939
▁hello	-11.194
▁repairman	-11.1941
▁swimmer	-11.1941
▁tick	-11.1943
▁sneakers	-11.1944
ify	-11.1958
▁smoothie	-11.1958
▁designer	-11.1981
▁rolling	-11.1993
▁windy	-11.1994
▁requested	-11.2
▁pushing	-11.2005
▁brownies	-11.2011
▁characters	-11.2012
▁mic	-11.2013
▁bones	-11.2025
▁relatives	-11.2029
▁braces	-11.2033
▁appreciate	-11.2059
▁argue	-11.2059
▁rake	-11.2062
▁direct	-11.2066
▁magazines	-11.2074
▁occasion	-11.2079
▁cavities	-11.2079
▁gambling	-11.2079
▁lobby	-11.2079
▁suitcase	-11.2079
▁trophy	-11.2079
▁watermelon	-11.2079
▁begging	-11.2079
▁dragon	-11.208
▁kitty	-11.208
▁pork	-11.2081
▁spice	-11.2081
▁gps	-11.2081
▁hoop	-11.2081
▁maddie	-11.2082
▁wooden	-11.2088
▁increased	-11.2097
▁discussed	-11.2099
▁sweating	-11.2118
▁fairly	-11.2139
▁dee	-11.2143
▁hamburgers	-11.2156
▁talented	-11.217
clock	-11.2182
▁lips	-11.2195
▁icy	-11.2196
▁inch	-11.22
▁promise	-11.2202
▁recognize	-11.2203
▁spi	-11.2203
▁silent	-11.2213
▁zoe	-11.2215
▁favor	-11.2222
▁arthur	-11.2222
▁clue	-11.2222
▁companies	-11.2222
▁gloria	-11.2222
▁ollie	-11.2222
▁permission	-11.2222
▁seafood	-11.2222
▁strawberry	-11.2222
▁studies	-11.2222
▁swept	-11.2222
▁venue	-11.2222
▁gymnastics	-11.2222
▁campsite	-11.2222
▁canyon	-11.2222
▁walmart	-11.2222
▁slapped	-11.2222
▁dumpster	-11.2223
▁hiring	-11.2223
▁dunk	-11.2223
▁duty	-11.2224
▁rapper	-11.2224
▁illness	-11.2225
▁roar	-11.2229
▁bass	-11.2232
▁interviewed	-11.2234
▁severely	-11.2234
▁policeman	-11.2234
▁rested	-11.2235
▁onions	-11.2235
▁pockets	-11.2236
▁separated	-11.2244
▁downloaded	-11.225
▁breathe	-11.2256
▁clearly	-11.226
▁canceled	-11.2276
▁wakes	-11.2317
elia	-11.232
▁researching	-11.2342
lma	-11.2351
▁holly	-11.2367
▁belonged	-11.2367
▁earthquake	-11.2367
▁graduating	-11.2367
▁madison	-11.2367
▁rainbow	-11.2367
▁rink	-11.2367
▁syrup	-11.2367
▁buffet	-11.2367
▁warren	-11.2367
▁pony	-11.2367
▁hamster	-11.2368
▁manny	-11.237
▁sheep	-11.2371
▁creepy	-11.2371
▁danielle	-11.2374
▁claw	-11.2374
▁flute	-11.2374
▁italy	-11.2375
▁abuse	-11.2375
▁trim	-11.2377
aging	-11.2379
▁disappeared	-11.2385
▁youngest	-11.2387
▁ky	-11.2396
▁ordering	-11.2401
ple	-11.2403
▁suck	-11.2405
▁beers	-11.2406
▁snowing	-11.2414
▁scr	-11.2417
▁seems	-11.2422
▁oranges	-11.2457
istic	-11.2472
shirt	-11.2473
▁rate	-11.2486
▁dressing	-11.2486
▁fleas	-11.249
▁leftovers	-11.2498
▁dishwasher	-11.2514
▁dizzy	-11.2514
▁lettuce	-11.2514
▁scrambled	-11.2514
▁strength	-11.2514
▁mattress	-11.2514
▁nerve	-11.2517
▁dina	-11.2519
▁tug	-11.252
▁tar	-11.2522
▁katy	-11.2526
▁rental	-11.2529
▁shay	-11.2532
▁pastor	-11.2535
▁cory	-11.2539
▁tin	-11.2545
▁rushing	-11.2577
▁clowns	-11.2583
▁efforts	-11.2593
▁grave	-11.2596
pm	-11.26
▁grip	-11.2603
▁chew	-11.2613
▁pump	-11.2634
▁vomit	-11.2634
▁download	-11.2635
▁offering	-11.2646
▁blocked	-11.2652
▁anybody	-11.2663
▁astronaut	-11.2663
▁decorating	-11.2663
▁fascinated	-11.2663
▁helicopter	-11.2663
▁intersection	-11.2663
▁jeb	-11.2663
▁journey	-11.2663
▁oscar	-11.2663
▁politics	-11.2663
▁powder	-11.2663
▁ribbon	-11.2663
▁starbucks	-11.2663
▁banned	-11.2664
▁frost	-11.2664
▁joshua	-11.2664
▁snuggl	-11.2664
▁rack	-11.2664
▁surface	-11.2664
▁rule	-11.2665
▁connection	-11.2665
▁vendor	-11.2665
ology	-11.2671
▁golden	-11.2671
▁provided	-11.268
▁imagined	-11.2685
▁speaker	-11.2703
▁barked	-11.2709
▁melt	-11.2713
▁greatly	-11.2738
▁dart	-11.2774
▁highly	-11.2783
▁enroll	-11.2786
▁bruise	-11.2794
▁recent	-11.2809
▁mag	-11.281
▁journal	-11.2814
▁blank	-11.2815
▁access	-11.2815
▁brittany	-11.2815
▁chloe	-11.2815
▁enemy	-11.2815
▁entrance	-11.2815
▁firefighter	-11.2815
▁fountain	-11.2815
▁horace	-11.2815
▁luggage	-11.2815
▁plain	-11.2815
▁software	-11.2815
▁underwear	-11.2815
▁valuable	-11.2815
▁wolf	-11.2815
▁troy	-11.2815
▁floss	-11.2815
▁pearl	-11.2815
▁thus	-11.2815
▁reflect	-11.2815
▁rise	-11.2815
▁xbox	-11.2815
▁numer	-11.2816
▁textbook	-11.2816
▁dash	-11.2816
▁jody	-11.2816
▁controller	-11.2817
▁speakers	-11.2817
▁mint	-11.2817
▁knitting	-11.2818
ities	-11.2822
▁disliked	-11.2822
▁straighten	-11.2826
▁worm	-11.2841
▁taller	-11.2846
▁peek	-11.2853
▁trailer	-11.2872
▁crashing	-11.2876
▁update	-11.2884
▁pursue	-11.2888
▁ringing	-11.2889
▁rag	-11.2898
▁breathing	-11.2917
▁messages	-11.2918
▁contacts	-11.2927
▁aya	-11.2948
▁peppers	-11.2958
▁financial	-11.296
▁boot	-11.2966
▁fool	-11.2968
▁australia	-11.2969
▁celebrating	-11.2969
▁convenience	-11.2969
▁garlic	-11.2969
▁georgia	-11.2969
▁incident	-11.2969
▁marvin	-11.2969
▁fox	-11.2969
▁prevent	-11.2969
▁replied	-11.2969
▁jude	-11.2969
▁theatre	-11.2969
▁canada	-11.2969
▁ginger	-11.2969
▁korea	-11.2969
▁corey	-11.2969
▁disneyland	-11.2969
▁notebook	-11.297
▁panda	-11.2972
▁logan	-11.2972
▁paperwork	-11.2973
▁glove	-11.2979
▁recorded	-11.2979
▁height	-11.2981
▁closest	-11.2981
▁alexis	-11.2982
▁mayor	-11.2984
▁publisher	-11.2988
▁opera	-11.3001
▁samples	-11.3002
▁sadie	-11.3003
▁marshmallows	-11.3004
▁wondering	-11.3006
▁brushing	-11.3039
▁ph	-11.3049
▁mistakes	-11.3072
▁aced	-11.3077
▁develop	-11.3088
▁produce	-11.3094
▁bucks	-11.3104
▁advance	-11.3105
▁stamps	-11.3106
▁effect	-11.3124
▁alfred	-11.3125
▁crisp	-11.3125
▁lifestyle	-11.3125
▁scooter	-11.3125
▁supply	-11.3125
▁tabitha	-11.3125
▁tunnel	-11.3125
▁wealthy	-11.3125
▁filter	-11.3125
▁gordon	-11.3125
▁sprint	-11.3125
▁fulfill	-11.3125
▁polly	-11.3125
▁bernie	-11.3125
▁spy	-11.3125
▁chili	-11.3125
▁occurred	-11.3125
▁kylie	-11.3125
▁terri	-11.3126
▁tutorial	-11.3126
▁patron	-11.3126
▁wax	-11.3127
▁mason	-11.3128
▁pickles	-11.3131
▁gasped	-11.3132
▁swerved	-11.3133
▁checkout	-11.3134
▁sigh	-11.3156
▁stretched	-11.316
▁mass	-11.3164
▁repairs	-11.3168
▁mum	-11.3197
▁designed	-11.3221
▁joint	-11.3239
▁lotion	-11.3247
rus	-11.325
▁greet	-11.3255
▁spell	-11.326
▁comment	-11.3269
tory	-11.327
▁olive	-11.3279
▁adorable	-11.3284
▁detector	-11.3284
▁engagement	-11.3284
▁environment	-11.3284
▁impossible	-11.3284
▁sausage	-11.3284
▁suzie	-11.3284
▁unusual	-11.3284
▁vanilla	-11.3284
▁variety	-11.3284
▁wandering	-11.3284
▁compromise	-11.3284
▁transit	-11.3284
▁welcome	-11.3284
▁bloom	-11.3284
▁witness	-11.3284
▁limp	-11.3284
▁bald	-11.3284
▁alright	-11.3284
▁suggestion	-11.3285
▁lacy	-11.3286
▁crackers	-11.3289
▁adoption	-11.329
▁politely	-11.3291
▁pens	-11.3302
▁bitter	-11.3308
▁boiled	-11.3309
▁deeply	-11.334
▁forum	-11.3343
▁sid	-11.3343
▁shove	-11.3347
▁seal	-11.3356
▁crossing	-11.3368
▁hosting	-11.3368
▁stained	-11.337
▁cane	-11.3381
▁lyn	-11.3391
▁tha	-11.3399
▁legal	-11.3406
▁boxing	-11.3407
▁gust	-11.3407
▁barb	-11.341
▁refuse	-11.3425
▁recording	-11.3428
▁comments	-11.3431
▁lions	-11.3431
▁painter	-11.344
▁specific	-11.3445
▁scan	-11.3445
▁advised	-11.3445
▁blender	-11.3445
▁competing	-11.3445
▁decade	-11.3445
▁indoors	-11.3445
▁jazz	-11.3445
▁jerome	-11.3445
▁libby	-11.3445
▁overjoyed	-11.3445
▁raffle	-11.3445
▁spun	-11.3445
▁stunned	-11.3445
▁clinic	-11.3445
▁escort	-11.3445
▁screw	-11.3445
▁fetch	-11.3445
▁habits	-11.3447
▁yan	-11.3448
▁2011	-11.3448
▁scent	-11.3448
▁frequently	-11.345
▁hop	-11.3453
▁function	-11.3454
▁earth	-11.3454
▁janie	-11.3458
▁dial	-11.3459
▁ability	-11.3466
▁donut	-11.3469
▁rear	-11.3473
▁dip	-11.3476
▁gathering	-11.3477
▁pill	-11.3478
▁leftover	-11.3478
▁sites	-11.3481
izing	-11.3484
▁sticky	-11.3493
▁leaking	-11.3506
▁beam	-11.3551
▁ranger	-11.3572
▁confront	-11.358
▁impatient	-11.36
▁pleasant	-11.36
▁invent	-11.3607
▁autograph	-11.3609
▁cellphone	-11.3609
▁cherry	-11.3609
▁commute	-11.3609
▁disturb	-11.3609
▁elbow	-11.3609
▁gently	-11.3609
▁grey	-11.3609
▁injuries	-11.3609
▁navy	-11.3609
▁patricia	-11.3609
▁resident	-11.3609
▁squad	-11.3609
▁surrounded	-11.3609
▁swollen	-11.3609
▁inspiration	-11.361
▁addiction	-11.361
▁selection	-11.361
▁itchy	-11.361
▁forgetting	-11.3614
▁approved	-11.3617
▁tee	-11.362
▁stamp	-11.3629
▁topic	-11.3635
▁anxiously	-11.3638
▁callie	-11.3649
▁mowed	-11.3658
▁cows	-11.3664
stone	-11.3668
▁lover	-11.3675
▁piled	-11.3709
▁auditioned	-11.3718
yard	-11.3722
down	-11.3736
gave	-11.3741
q	-11.3745
▁increase	-11.3755
▁buck	-11.3768
▁wrap	-11.3774
▁chelsea	-11.3776
▁fantastic	-11.3776
▁ornament	-11.3776
▁pajamas	-11.3776
▁procedure	-11.3776
▁snatch	-11.3776
▁steep	-11.3776
▁teresa	-11.3776
▁toothbrush	-11.3776
▁melanie	-11.3776
▁allergy	-11.3776
▁rosie	-11.3776
▁arrow	-11.3776
▁sandals	-11.3776
▁google	-11.3776
▁francisco	-11.3777
▁diary	-11.3777
▁pageant	-11.3778
▁fireplace	-11.3778
dental	-11.3778
▁copies	-11.3781
▁impression	-11.3782
▁marcy	-11.3784
▁zoey	-11.3785
▁mona	-11.3791
▁desired	-11.3791
▁cloud	-11.3791
▁cartoon	-11.3799
quir	-11.38
▁needles	-11.3809
▁busted	-11.3811
▁coloring	-11.3812
ula	-11.382
▁fled	-11.388
▁julian	-11.3886
▁spill	-11.3894
field	-11.3905
▁connect	-11.3914
▁assembl	-11.3918
▁mop	-11.3919
gen	-11.3923
1000	-11.3933
▁worms	-11.3937
▁beyond	-11.3945
▁congratulated	-11.3945
▁ketchup	-11.3945
▁laundromat	-11.3945
▁marissa	-11.3945
▁necessary	-11.3945
▁quentin	-11.3945
▁squeeze	-11.3945
▁resort	-11.3945
▁souvenir	-11.3945
▁calorie	-11.3945
▁capture	-11.3945
▁rocket	-11.3946
▁jury	-11.3947
▁chill	-11.3948
▁tourist	-11.3949
▁joanne	-11.395
▁joanna	-11.3951
▁mama	-11.3952
▁freddy	-11.3952
▁deleted	-11.3955
▁measured	-11.3958
▁danger	-11.3959
▁matches	-11.3971
▁solved	-11.3972
▁matched	-11.3996
▁palm	-11.4
▁registered	-11.4008
▁wig	-11.4014
▁pep	-11.4017
▁stu	-11.402
▁receiv	-11.4025
▁carton	-11.4032
▁meter	-11.4065
▁traps	-11.4088
▁appear	-11.4088
▁abroad	-11.4118
▁brent	-11.4118
▁broccoli	-11.4118
▁coconut	-11.4118
▁editor	-11.4118
▁expense	-11.4118
▁giraffe	-11.4118
▁graham	-11.4118
▁gwen	-11.4118
▁jonathan	-11.4118
▁maurice	-11.4118
▁retail	-11.4118
▁script	-11.4118
▁sketch	-11.4118
▁swat	-11.4118
▁technician	-11.4118
▁estate	-11.4118
▁hollywood	-11.4118
▁realtor	-11.4118
▁assistance	-11.4118
▁zone	-11.4119
▁eliza	-11.4119
▁percent	-11.4119
▁secretary	-11.412
▁chopped	-11.4122
▁handful	-11.4132
▁stopping	-11.4135
▁cameron	-11.4143
▁miley	-11.4147
▁option	-11.4147
▁flea	-11.4147
▁skilled	-11.417
kin	-11.4189
000	-11.4199
▁louder	-11.4215
▁bid	-11.4223
▁understanding	-11.4232
▁asian	-11.4233
▁reporter	-11.4242
oc	-11.4252
water	-11.4253
▁anti	-11.4265
▁please	-11.4274
▁freak	-11.4277
away	-11.4279
▁constant	-11.4284
▁stroll	-11.4286
▁arrival	-11.4293
▁happiness	-11.4293
▁length	-11.4293
▁orchard	-11.4293
▁purchasing	-11.4293
▁religion	-11.4293
▁snowstorm	-11.4293
▁somebody	-11.4293
▁supper	-11.4293
▁sweep	-11.4293
▁sword	-11.4293
▁rumor	-11.4293
▁operation	-11.4293
▁motor	-11.4293
▁betsy	-11.4294
▁neat	-11.4294
▁sharing	-11.4294
▁renew	-11.4294
▁hail	-11.4295
▁barney	-11.4298
▁confirmed	-11.4305
▁defeated	-11.4306
▁edna	-11.431
▁marc	-11.4314
▁reply	-11.4314
▁dusty	-11.4315
▁folded	-11.4316
▁advanced	-11.4316
▁cru	-11.4318
▁bagel	-11.4322
rubbed	-11.4322
▁pawn	-11.4325
▁outdoor	-11.4326
▁poisoning	-11.4334
▁bud	-11.4343
▁mailed	-11.4362
▁outlet	-11.4373
▁fr	-11.4374
▁hardest	-11.4403
▁cul	-11.4407
▁semi	-11.441
▁leading	-11.4413
▁jade	-11.4422
▁paw	-11.4445
▁struggle	-11.4451
run	-11.4452
▁violent	-11.4463
▁jug	-11.447
▁vend	-11.4471
▁reception	-11.4471
▁terror	-11.4471
▁prefer	-11.4471
▁august	-11.4472
▁bbq	-11.4472
▁begun	-11.4472
▁complex	-11.4472
▁drowned	-11.4472
▁grease	-11.4472
▁jersey	-11.4472
▁lydia	-11.4472
▁orchestra	-11.4472
▁perfume	-11.4472
▁technology	-11.4472
▁terrific	-11.4472
▁veterinarian	-11.4472
▁crunch	-11.4472
▁oak	-11.4472
▁overcome	-11.4472
▁surgeon	-11.4472
▁salsa	-11.4472
▁tess	-11.4472
▁shaving	-11.4472
▁ipod	-11.4473
▁lester	-11.4473
▁glow	-11.4473
▁bullies	-11.4474
▁motivated	-11.4478
▁perry	-11.4478
▁leaf	-11.4481
▁angeles	-11.4482
▁crawling	-11.4489
▁browsed	-11.4489
▁lease	-11.449
▁tackled	-11.449
▁dodge	-11.4491
▁quitting	-11.4494
▁fighter	-11.4509
lp	-11.452
▁included	-11.4532
▁fairy	-11.4537
▁boxer	-11.4571
▁breed	-11.4578
▁landing	-11.4582
▁lip	-11.4584
ew	-11.4585
▁boil	-11.4606
▁flyers	-11.4613
cooked	-11.4613
▁closely	-11.4619
▁provide	-11.4624
▁arrest	-11.4625
▁shout	-11.4626
▁ram	-11.4633
▁encourage	-11.4633
▁introduce	-11.4646
▁blizzard	-11.4653
▁foster	-11.4653
▁hairdresser	-11.4653
▁homeowner	-11.4653
▁jeep	-11.4653
▁penguin	-11.4653
▁refreshed	-11.4653
▁rotten	-11.4653
▁skeptical	-11.4653
▁sought	-11.4653
▁steam	-11.4653
▁yarn	-11.4653
▁connor	-11.4653
▁ladies	-11.4653
▁kurt	-11.4654
▁average	-11.4654
▁bride	-11.4654
▁weighed	-11.4654
▁boris	-11.4654
▁statue	-11.4654
▁packet	-11.4654
mores	-11.4654
▁napkin	-11.4654
▁sherry	-11.4654
▁alaska	-11.4655
▁trina	-11.4656
▁chatting	-11.4656
▁flush	-11.4657
▁rosa	-11.4657
▁deadline	-11.4657
▁powerful	-11.4659
▁cardboard	-11.466
rated	-11.4668
spiring	-11.467
▁chop	-11.4671
▁suspected	-11.4678
▁manage	-11.4685
head	-11.4694
▁weeds	-11.4739
▁stat	-11.4754
▁sending	-11.4757
▁ranch	-11.4763
place	-11.4779
zing	-11.4783
pack	-11.4786
▁gardening	-11.4795
▁caller	-11.4796
▁entirely	-11.4798
▁poke	-11.4802
▁pose	-11.4822
▁mari	-11.4834
logist	-11.4839
▁athletic	-11.4839
▁calendar	-11.4839
▁cricket	-11.4839
▁elaine	-11.4839
▁individual	-11.4839
▁infected	-11.4839
▁landscape	-11.4839
▁maintain	-11.4839
▁microphone	-11.4839
▁millie	-11.4839
▁obliged	-11.4839
▁pharmacy	-11.4839
▁responsibility	-11.4839
▁swimsuit	-11.4839
▁ziggy	-11.4839
▁cocoa	-11.4839
▁insect	-11.4839
▁gaming	-11.4839
▁jeffrey	-11.4839
▁owed	-11.4839
▁connie	-11.484
▁amelia	-11.4841
▁bradley	-11.4841
▁contractor	-11.4843
▁exist	-11.4845
▁colin	-11.4847
▁photography	-11.4849
▁located	-11.485
▁lars	-11.4853
▁careless	-11.4857
▁youth	-11.4868
▁passes	-11.4871
▁marti	-11.4874
▁bert	-11.4892
erson	-11.4892
▁chemicals	-11.4907
▁dolphins	-11.4915
▁grapes	-11.4935
▁emotional	-11.4935
▁classic	-11.4941
▁entering	-11.4952
point	-11.4989
▁gladly	-11.5005
▁survive	-11.5019
▁peaceful	-11.502
▁east	-11.5021
200	-11.5025
▁elect	-11.5026
▁brook	-11.5027
▁arizona	-11.5027
▁companion	-11.5027
▁fantasy	-11.5027
▁gesture	-11.5027
▁gorgeous	-11.5027
▁gossip	-11.5027
▁honeymoon	-11.5027
▁milkshake	-11.5027
▁mosquito	-11.5027
▁offended	-11.5027
▁profile	-11.5027
▁renovat	-11.5027
▁shrimp	-11.5027
▁tissue	-11.5027
▁christina	-11.5027
▁plot	-11.5027
▁creation	-11.5029
▁potty	-11.5032
▁lila	-11.5034
▁kindness	-11.5034
▁victoria	-11.5044
ural	-11.5049
▁someday	-11.5052
▁hack	-11.5057
▁gaining	-11.5063
▁briana	-11.5076
▁investigated	-11.5076
▁difficulty	-11.5084
▁counting	-11.509
▁lea	-11.5151
▁walt	-11.5151
▁del	-11.5151
▁grin	-11.5163
▁teenage	-11.52
▁polite	-11.5211
▁reluctant	-11.5211
▁allergies	-11.522
▁cavity	-11.522
▁concentrate	-11.522
▁defense	-11.522
▁detective	-11.522
▁grumpy	-11.522
▁harvest	-11.522
▁jellyfish	-11.522
▁mushrooms	-11.522
▁religious	-11.522
▁stereo	-11.522
▁valerie	-11.522
▁volume	-11.522
▁cheeseburger	-11.522
▁ferry	-11.522
▁tractor	-11.522
▁swarm	-11.522
▁scrubbed	-11.522
▁opposite	-11.522
▁auction	-11.522
▁breeze	-11.522
▁stink	-11.522
▁recommendation	-11.5221
▁inspection	-11.5221
▁muddy	-11.5221
▁slim	-11.5222
▁marine	-11.5222
▁scenery	-11.5223
▁declared	-11.5223
▁trek	-11.5223
▁cade	-11.5226
▁praised	-11.5231
▁directly	-11.5232
▁slowed	-11.5236
▁soaking	-11.5247
▁fellow	-11.525
▁petting	-11.5259
▁retrieved	-11.5265
▁wage	-11.5267
haul	-11.5273
▁willie	-11.5278
▁smelling	-11.5288
well	-11.5306
▁crumbs	-11.5309
▁contain	-11.5362
▁sober	-11.5366
▁wing	-11.5384
▁imagine	-11.5398
▁mate	-11.5399
▁recruit	-11.5401
▁commit	-11.5414
▁jewel	-11.5415
▁cautious	-11.5416
▁antibiotic	-11.5416
▁burglar	-11.5416
▁criminal	-11.5416
▁deodorant	-11.5416
▁discouraged	-11.5416
▁jungle	-11.5416
▁permanent	-11.5416
▁reprimanded	-11.5416
▁revenge	-11.5416
▁safari	-11.5416
▁skydiving	-11.5416
▁society	-11.5416
▁sprout	-11.5416
▁brief	-11.5416
▁interrupt	-11.5416
▁knot	-11.5416
▁samuel	-11.5416
▁zero	-11.5416
▁adrian	-11.5416
▁irene	-11.5416
▁poetry	-11.5416
▁magician	-11.5417
▁convention	-11.5417
▁nita	-11.5418
▁prop	-11.5418
▁rory	-11.542
raising	-11.542
▁temper	-11.5421
▁nursery	-11.5422
▁meaning	-11.5423
▁stroller	-11.5423
▁darkness	-11.5425
▁cookout	-11.5426
▁provider	-11.5426
▁tax	-11.5429
▁rail	-11.5429
▁funds	-11.5431
▁marci	-11.5435
▁movement	-11.544
▁pc	-11.5441
▁contained	-11.5445
▁restore	-11.5463
lai	-11.5466
▁floated	-11.5469
▁crayons	-11.547
▁colleagues	-11.5491
like	-11.5512
lton	-11.5518
▁techniques	-11.5532
▁exercised	-11.5539
▁pine	-11.554
bal	-11.5553
stop	-11.5582
▁feature	-11.5595
▁tackle	-11.5597
▁actual	-11.5607
▁calvin	-11.5616
▁colorado	-11.5616
▁eleven	-11.5616
▁filthy	-11.5616
▁katherine	-11.5616
▁monopoly	-11.5616
▁scuba	-11.5616
▁sneezing	-11.5616
▁somewhat	-11.5616
▁treadmill	-11.5616
▁vanessa	-11.5616
▁cushion	-11.5616
▁nacho	-11.5616
▁unpacked	-11.5616
▁permit	-11.5616
▁scam	-11.5616
▁omar	-11.5616
▁chalk	-11.5616
▁comedian	-11.5616
▁indeed	-11.5616
▁loaf	-11.5616
▁phillip	-11.5616
▁cotton	-11.5616
▁beverly	-11.5616
▁sculpture	-11.5616
▁mystery	-11.5616
▁foolish	-11.5617
▁ariel	-11.5617
▁stressful	-11.5617
▁lexi	-11.5618
▁shipped	-11.5619
▁sank	-11.5619
▁laughter	-11.5623
▁airline	-11.5624
▁fitness	-11.5625
▁kai	-11.5628
▁manual	-11.5628
▁sneezed	-11.5634
▁traded	-11.5655
▁ny	-11.5658
▁arena	-11.5662
▁jerk	-11.5666
▁hunger	-11.5669
▁vegetable	-11.5674
▁rage	-11.5685
▁charm	-11.5693
▁burt	-11.5701
▁waffles	-11.5704
▁zi	-11.5709
lea	-11.5718
▁flyer	-11.5734
▁stocking	-11.5739
▁discuss	-11.5765
▁creat	-11.5773
▁dare	-11.5776
▁thrill	-11.5791
▁distract	-11.5791
▁achieve	-11.5799
▁paddle	-11.5799
▁admire	-11.5799
▁cloth	-11.5807
▁transfer	-11.5819
▁advantage	-11.582
▁chapter	-11.582
▁diabetes	-11.582
▁dmv	-11.582
▁eagle	-11.582
▁ferret	-11.582
▁physics	-11.582
▁pirate	-11.582
▁shrugged	-11.582
▁snail	-11.582
▁strawberries	-11.582
▁toothpaste	-11.582
▁vitamin	-11.582
▁whisper	-11.582
▁fiona	-11.582
▁christine	-11.582
▁adored	-11.582
▁native	-11.582
▁steel	-11.582
▁stella	-11.582
▁link	-11.582
▁formula	-11.582
▁biking	-11.5821
▁rally	-11.5821
▁frantic	-11.5822
▁skipping	-11.5823
▁prior	-11.5824
▁vera	-11.5826
▁cursed	-11.5826
▁freeway	-11.5828
▁lifetime	-11.584
▁pickup	-11.5842
▁inspected	-11.5844
▁beaten	-11.5846
▁commented	-11.5857
▁floating	-11.5867
▁nightmare	-11.5882
▁til	-11.5907
jo	-11.5926
▁pest	-11.5952
▁interviewer	-11.5974
▁wipe	-11.5979
▁announce	-11.6007
▁browse	-11.6008
▁organize	-11.6008
mph	-11.601
▁robe	-11.6017
bbled	-11.6026
▁decor	-11.6027
▁cheryl	-11.6028
▁distraught	-11.6028
▁drake	-11.6028
▁gallery	-11.6028
▁janitor	-11.6028
▁karaoke	-11.6028
▁liquid	-11.6028
▁liquor	-11.6028
▁platform	-11.6028
▁qualified	-11.6028
▁september	-11.6028
▁skunk	-11.6028
▁vicki	-11.6028
▁wheelchair	-11.6028
▁curve	-11.6028
▁prayer	-11.6028
▁swap	-11.6028
▁bathtub	-11.6028
▁crib	-11.6028
▁slippers	-11.6028
▁deaf	-11.6028
▁shining	-11.6028
▁josie	-11.6028
▁kelli	-11.6028
▁advertisement	-11.6029
▁pudding	-11.6029
▁failure	-11.6029
▁announcement	-11.6029
▁jonah	-11.603
▁furry	-11.603
▁claus	-11.6031
▁improvement	-11.6034
▁lois	-11.6034
▁embarrassing	-11.6035
▁encountered	-11.6036
▁barbie	-11.6041
▁licked	-11.6042
▁ramp	-11.6042
▁drifted	-11.6048
▁insulted	-11.6053
▁gown	-11.6061
▁glenn	-11.6063
▁conscious	-11.6064
▁crown	-11.6065
▁laser	-11.6068
▁marching	-11.6071
▁competed	-11.6077
▁sailing	-11.609
▁sewed	-11.6092
▁professionally	-11.6097
▁totaled	-11.61
▁trusted	-11.61
▁wayne	-11.6115
nighter	-11.6136
▁wad	-11.6146
▁via	-11.6161
▁questioned	-11.6173
▁covering	-11.6188
friend	-11.6191
lift	-11.6206
▁suspect	-11.6212
▁twist	-11.6212
▁destroy	-11.6212
▁picky	-11.6238
▁chick	-11.6239
▁according	-11.6241
▁actress	-11.6241
▁breast	-11.6241
▁casserole	-11.6241
▁chinatown	-11.6241
▁gabriel	-11.6241
▁generous	-11.6241
▁grandchildren	-11.6241
▁password	-11.6241
▁reassured	-11.6241
▁troop	-11.6241
▁tumbled	-11.6241
▁ultrasound	-11.6241
▁violence	-11.6241
▁memoriz	-11.6241
▁dismiss	-11.6241
▁motion	-11.6241
▁chainsaw	-11.6241
▁virginia	-11.6241
▁maryann	-11.6241
▁lamb	-11.6241
▁network	-11.6242
▁unemployed	-11.6242
▁noticing	-11.6242
mashed	-11.6243
▁glance	-11.6243
▁assist	-11.6243
▁solid	-11.6243
▁priest	-11.6244
▁clo	-11.6244
▁deserved	-11.6246
▁wrestler	-11.6249
▁joyce	-11.6253
▁disagreed	-11.6254
▁clicked	-11.6261
▁boiling	-11.627
▁yu	-11.6272
▁marker	-11.6274
▁fre	-11.6275
▁cutest	-11.6299
▁brace	-11.6319
▁rewarded	-11.632
▁issued	-11.6324
▁skateboarding	-11.6337
▁tease	-11.6372
▁nan	-11.6397
▁22	-11.6397
▁sum	-11.6404
▁golfing	-11.6407
▁confess	-11.6429
pit	-11.6436
▁elle	-11.6449
▁background	-11.6458
▁calculator	-11.6458
▁cambridge	-11.6458
▁concrete	-11.6458
▁felix	-11.6458
▁gabby	-11.6458
▁portrait	-11.6458
▁remark	-11.6458
▁subscription	-11.6458
▁darren	-11.6458
▁eighteen	-11.6458
▁shirley	-11.6458
▁yelp	-11.6458
▁disabled	-11.6458
▁evil	-11.6458
▁nodded	-11.6458
▁owl	-11.6458
▁slope	-11.6458
▁apology	-11.6458
▁pedal	-11.6458
▁dumb	-11.6458
▁thru	-11.6459
▁nba	-11.6459
▁canvas	-11.6459
▁regardless	-11.6459
▁stir	-11.6459
▁joking	-11.6461
▁portion	-11.6462
▁washington	-11.6462
▁unexpectedly	-11.6464
▁acne	-11.6464
▁sharpen	-11.6466
▁coke	-11.6469
▁trey	-11.6473
▁ping	-11.6474
▁mocked	-11.6487
▁mock	-11.6501
▁pumped	-11.6501
▁prisoner	-11.6508
aking	-11.6515
▁conditioning	-11.6524
▁jana	-11.6531
curr	-11.6532
▁curtain	-11.6534
▁suv	-11.6545
▁drawn	-11.6552
▁fist	-11.6567
▁freda	-11.661
▁snowy	-11.6621
▁fold	-11.6624
▁walker	-11.6625
▁beck	-11.6638
▁disco	-11.6639
▁sprinkle	-11.6658
▁sneeze	-11.666
▁blame	-11.666
▁desire	-11.6661
gh	-11.6674
▁alternative	-11.6681
▁charlotte	-11.6681
▁counseling	-11.6681
▁cuddle	-11.6681
▁fundraiser	-11.6681
▁macaroni	-11.6681
▁melinda	-11.6681
▁reggie	-11.6681
▁reschedule	-11.6681
▁overseas	-11.6681
▁patrol	-11.6681
▁reese	-11.6681
▁noisy	-11.6681
▁sledding	-11.6681
▁meteor	-11.6681
▁indicat	-11.6681
▁prettie	-11.6681
▁trent	-11.6681
▁jules	-11.6681
▁bingo	-11.6682
▁nasa	-11.6683
▁peaches	-11.6683
▁bible	-11.6684
▁impressive	-11.6685
▁ruby	-11.6688
▁jonas	-11.6689
▁advertised	-11.669
▁neglected	-11.6693
▁recovery	-11.6693
▁clam	-11.6696
▁rene	-11.6699
▁paddled	-11.6703
▁naturally	-11.6705
▁randomly	-11.6712
hol	-11.6719
▁cape	-11.6738
▁relative	-11.6761
▁pancake	-11.6762
cal	-11.6796
cker	-11.6805
bag	-11.6805
▁dim	-11.6825
▁lent	-11.6831
▁ignor	-11.6854
▁jer	-11.6871
▁suggest	-11.6877
▁advertising	-11.6908
▁anticipation	-11.6908
▁biscuit	-11.6908
▁butterflies	-11.6908
▁caterpillar	-11.6908
▁challenging	-11.6908
▁dallas	-11.6908
▁diploma	-11.6908
▁elsewhere	-11.6908
▁initially	-11.6908
▁lollipop	-11.6908
▁policy	-11.6908
▁receipt	-11.6908
▁spencer	-11.6908
▁straw	-11.6908
▁unlocked	-11.6908
▁version	-11.6908
▁yolanda	-11.6908
▁chunk	-11.6908
▁innocent	-11.6908
▁stomp	-11.6908
▁steer	-11.6908
▁representative	-11.6908
▁mickey	-11.6908
▁forgive	-11.6908
▁passport	-11.6909
▁committed	-11.691
▁sipped	-11.691
▁artwork	-11.6912
▁nerd	-11.6912
▁jaw	-11.6913
▁epi	-11.6917
▁frowned	-11.692
▁treehouse	-11.692
▁currently	-11.6936
▁pup	-11.6945
▁mara	-11.695
▁remaining	-11.6958
▁roasted	-11.6962
logged	-11.6966
▁carrier	-11.6968
▁limited	-11.6973
▁sock	-11.7003
▁teammate	-11.7004
▁displayed	-11.7025
ual	-11.7039
▁recommend	-11.711
▁disappear	-11.7111
▁smash	-11.7111
▁emb	-11.7115
▁react	-11.7139
▁abigail	-11.714
▁apprehensive	-11.714
▁audrey	-11.714
▁blueberry	-11.714
▁brock	-11.714
▁candace	-11.714
▁celebration	-11.714
▁cheerleading	-11.714
▁command	-11.714
▁cynthia	-11.714
▁dairy	-11.714
▁detergent	-11.714
▁families	-11.714
▁francine	-11.714
▁glitter	-11.714
▁gorilla	-11.714
▁hairstyle	-11.714
▁hesitated	-11.714
▁lipstick	-11.714
▁lorraine	-11.714
▁overheard	-11.714
▁possession	-11.714
▁potential	-11.714
▁resource	-11.714
▁superhero	-11.714
▁victim	-11.714
▁wagon	-11.714
▁xavier	-11.714
▁blister	-11.714
▁related	-11.714
▁programming	-11.714
▁quinn	-11.714
▁internship	-11.7141
▁mortified	-11.7141
▁meowing	-11.7141
▁stunt	-11.7141
▁authorities	-11.7141
▁tasha	-11.7141
▁erik	-11.7142
▁passionate	-11.7142
▁chipped	-11.7142
▁copied	-11.7142
▁cruel	-11.7142
▁benji	-11.7143
▁fuel	-11.7144
▁rim	-11.7144
▁remy	-11.7144
▁mc	-11.7146
▁spain	-11.7149
▁toppings	-11.715
▁liza	-11.717
▁vomited	-11.7186
▁safer	-11.7194
▁pretending	-11.72
▁invested	-11.72
▁volunteering	-11.7212
▁tonya	-11.7212
▁killer	-11.7214
▁grad	-11.722
▁olympic	-11.7232
▁chore	-11.7233
▁guessed	-11.7241
▁pitched	-11.7248
▁grind	-11.7258
▁tryout	-11.726
▁triple	-11.7305
conscious	-11.7335
right	-11.7336
▁aggressive	-11.7369
▁numb	-11.737
▁atlanta	-11.7378
▁bridesmaid	-11.7378
▁cabbage	-11.7378
▁cinnamon	-11.7378
▁commission	-11.7378
▁concussion	-11.7378
▁evicted	-11.7378
▁false	-11.7378
▁kenneth	-11.7378
▁october	-11.7378
▁organization	-11.7378
▁popsicle	-11.7378
▁proposal	-11.7378
▁rifle	-11.7378
▁sleeve	-11.7378
▁sophia	-11.7378
▁wardrobe	-11.7378
▁weapon	-11.7378
▁yummy	-11.7378
▁cozy	-11.7378
▁modern	-11.7378
▁patio	-11.7378
▁cooper	-11.7378
▁naked	-11.7378
▁equal	-11.7378
▁randall	-11.7378
▁kendra	-11.7379
▁spinning	-11.7379
▁stalk	-11.7379
▁suburb	-11.7379
▁bitten	-11.7379
▁occasionally	-11.7379
▁accomplishment	-11.7379
▁refill	-11.7379
▁heidi	-11.7379
▁waist	-11.7381
▁marshall	-11.7382
▁fluid	-11.7383
▁extend	-11.7383
▁cookbook	-11.7383
▁franklin	-11.7383
▁stable	-11.7386
▁compared	-11.7387
▁mort	-11.7392
▁scratches	-11.7392
▁smoothly	-11.7394
▁victory	-11.7394
▁lara	-11.7397
▁checkup	-11.74
▁discussing	-11.7407
▁lena	-11.7408
▁rena	-11.7411
▁spilling	-11.7413
▁connected	-11.742
▁wrecked	-11.7429
▁skater	-11.7445
▁flashing	-11.746
▁mixing	-11.748
▁dani	-11.7554
▁feeder	-11.7573
▁kya	-11.7573
▁ripe	-11.758
▁inspect	-11.7589
warded	-11.7594
▁insult	-11.7594
▁flow	-11.7597
▁extreme	-11.7613
▁instant	-11.7614
▁algebra	-11.7622
▁celebrity	-11.7622
▁complicated	-11.7622
▁elliot	-11.7622
▁heaven	-11.7622
▁horribly	-11.7622
▁instructed	-11.7622
▁newborn	-11.7622
▁pepperoni	-11.7622
▁plunge	-11.7622
▁precious	-11.7622
▁retake	-11.7622
▁reunited	-11.7622
▁signature	-11.7622
▁telephone	-11.7622
▁varsity	-11.7622
▁videogame	-11.7622
▁waterfall	-11.7622
▁impact	-11.7622
▁occup	-11.7622
▁piercing	-11.7622
▁plow	-11.7622
▁shriek	-11.7622
▁entry	-11.7622
▁mount	-11.7622
▁nanny	-11.7622
▁saddened	-11.7622
▁puff	-11.7622
▁susy	-11.7623
▁clint	-11.7623
▁recall	-11.7623
▁bundle	-11.7623
▁wrapping	-11.7623
▁accent	-11.7623
▁davis	-11.7623
▁stru	-11.7624
▁inspector	-11.7625
▁kale	-11.7625
▁mavis	-11.7625
▁sunlight	-11.7626
▁attraction	-11.7626
▁trisha	-11.7627
▁alcoholic	-11.7627
▁pong	-11.763
▁accountant	-11.763
▁hive	-11.7631
▁ramen	-11.7631
▁demo	-11.7634
▁rushes	-11.7637
▁sparky	-11.7639
▁humane	-11.764
star	-11.7644
▁predicted	-11.7644
▁proof	-11.765
▁sickness	-11.7651
▁folder	-11.7655
▁useless	-11.7659
▁salty	-11.7663
▁assembled	-11.7664
▁bribe	-11.7724
▁technique	-11.7725
▁cupcake	-11.7726
▁carrot	-11.7728
▁earring	-11.7728
▁remov	-11.7734
▁debi	-11.774
made	-11.781
▁crawl	-11.7819
maker	-11.7832
▁observ	-11.7843
▁hiker	-11.7846
▁applauded	-11.7872
▁appropriate	-11.7872
▁carpenter	-11.7872
▁choosing	-11.7872
▁evidence	-11.7872
▁huddle	-11.7872
▁michigan	-11.7872
▁razor	-11.7872
▁sensitive	-11.7872
▁sunrise	-11.7872
▁unemployment	-11.7872
▁unfamiliar	-11.7872
▁volcano	-11.7872
▁surrounding	-11.7872
▁gutter	-11.7872
▁plus	-11.7872
▁pleaded	-11.7872
▁peak	-11.7872
▁shelby	-11.7872
▁fame	-11.7873
▁drummer	-11.7873
▁yanked	-11.7873
▁piggy	-11.7873
▁unknown	-11.7873
▁ninety	-11.7875
▁moose	-11.7875
▁crust	-11.7875
▁rebel	-11.7877
▁snorkeling	-11.7878
▁aimed	-11.7879
▁suffering	-11.7891
▁sweaty	-11.7894
▁binge	-11.7898
▁behaved	-11.7898
▁nelly	-11.7901
▁produced	-11.7906
▁classical	-11.7906
▁bloody	-11.7928
▁smoker	-11.7946
▁shame	-11.7964
ov	-11.8024
▁pil	-11.8033
▁wise	-11.8042
ji	-11.8051
▁wade	-11.8064
round	-11.807
▁gel	-11.8072
▁disgust	-11.8075
free	-11.809
▁swallow	-11.81
▁bleed	-11.8105
▁norma	-11.8107
mitten	-11.812
▁isabel	-11.8127
▁fog	-11.8129
ification	-11.8129
▁balcony	-11.8129
▁border	-11.8129
▁campground	-11.8129
▁countries	-11.8129
▁emptied	-11.8129
▁facility	-11.8129
▁fossil	-11.8129
▁humiliated	-11.8129
▁incorrect	-11.8129
▁industry	-11.8129
▁january	-11.8129
▁mortgage	-11.8129
▁procrastinate	-11.8129
▁protein	-11.8129
▁psychologist	-11.8129
▁ramona	-11.8129
▁recycling	-11.8129
▁referee	-11.8129
▁ridiculous	-11.8129
▁steady	-11.8129
▁sylvia	-11.8129
▁zombie	-11.8129
▁knob	-11.8129
▁melody	-11.8129
▁streak	-11.8129
▁eyesight	-11.8129
▁milly	-11.8129
▁sundae	-11.8129
▁devin	-11.8129
▁fluent	-11.8129
▁basis	-11.8129
▁amateur	-11.8129
▁harass	-11.8129
▁tempted	-11.813
▁toothache	-11.813
▁carved	-11.813
▁rudy	-11.813
▁carolina	-11.813
▁clogged	-11.813
▁garry	-11.8131
▁infest	-11.8131
▁investment	-11.8131
▁programmer	-11.8131
▁productive	-11.8132
▁centr	-11.8132
▁alison	-11.8132
▁warranty	-11.8132
▁intern	-11.8133
▁teasing	-11.8133
▁info	-11.8133
▁mimi	-11.8134
loyd	-11.8134
▁jamal	-11.8135
▁luis	-11.8136
▁growled	-11.8136
▁rinsed	-11.8137
▁intently	-11.8137
▁hallie	-11.8138
▁tallest	-11.8141
▁collector	-11.8141
▁specialist	-11.8144
▁stranded	-11.8145
▁uploaded	-11.8146
▁intended	-11.8148
▁defi	-11.8148
▁stare	-11.815
▁bound	-11.8152
▁urge	-11.816
▁steph	-11.8163
▁gail	-11.8166
▁drag	-11.8172
▁rodeo	-11.8178
▁traditional	-11.818
inary	-11.8252
tric	-11.8288
▁compos	-11.829
▁selfie	-11.8301
▁formal	-11.8329
▁publish	-11.8344
walk	-11.8349
▁brake	-11.8366
▁measure	-11.8371
▁creep	-11.8384
▁kaya	-11.8388
▁peach	-11.8389
▁submit	-11.839
▁multi	-11.8392
▁whim	-11.8392
▁abbey	-11.8392
▁adventurous	-11.8392
▁associate	-11.8392
▁awaited	-11.8392
▁binoculars	-11.8392
▁blueberries	-11.8392
▁citizen	-11.8392
▁clumsy	-11.8392
▁cucumber	-11.8392
▁custody	-11.8392
▁devour	-11.8392
▁disorder	-11.8392
▁extension	-11.8392
▁ferris	-11.8392
▁gavin	-11.8392
▁laurie	-11.8392
▁maintenance	-11.8392
▁minimum	-11.8392
▁november	-11.8392
▁poodle	-11.8392
▁slippery	-11.8392
▁sponsor	-11.8392
▁staple	-11.8392
▁thud	-11.8392
▁typical	-11.8392
▁warehouse	-11.8392
▁zebra	-11.8392
▁casual	-11.8392
▁civil	-11.8392
▁fisherman	-11.8392
▁stale	-11.8392
▁distant	-11.8392
▁organizing	-11.8392
▁odor	-11.8392
▁rico	-11.8392
▁nala	-11.8392
▁punishment	-11.8393
▁charging	-11.8393
▁preschool	-11.8393
▁drone	-11.8393
tucked	-11.8393
▁miami	-11.8394
▁margo	-11.8394
▁unconscious	-11.8395
▁tide	-11.8395
▁mina	-11.8401
▁maple	-11.8401
▁hopefully	-11.8402
▁squealed	-11.8403
▁panel	-11.8404
▁hospitalized	-11.8404
▁robbery	-11.841
▁norman	-11.8412
▁incredible	-11.8415
▁affordable	-11.8417
▁fireman	-11.8417
▁curly	-11.842
▁swallowed	-11.8422
▁homerun	-11.8424
▁bruised	-11.8428
0,000	-11.8438
▁manner	-11.844
bil	-11.8445
▁considering	-11.8447
▁diver	-11.8448
▁bumper	-11.8452
cial	-11.8455
▁slam	-11.851
▁mob	-11.851
iving	-11.8519
▁gil	-11.8547
▁wil	-11.855
port	-11.8551
gled	-11.8568
▁operate	-11.8603
▁plac	-11.8624
play	-11.8626
▁bounce	-11.863
▁spoil	-11.8633
▁concern	-11.8633
▁intent	-11.8653
▁hopeful	-11.8658
▁amazement	-11.8662
▁bikini	-11.8662
▁brunch	-11.8662
▁cemetery	-11.8662
▁certificate	-11.8662
▁cherries	-11.8662
▁communicate	-11.8662
▁concept	-11.8662
▁conclud	-11.8662
▁dejected	-11.8662
▁disaster	-11.8662
▁gravy	-11.8662
▁horatio	-11.8662
▁hyper	-11.8662
▁inherited	-11.8662
▁juanita	-11.8662
▁kingdom	-11.8662
▁meatloaf	-11.8662
▁nfl	-11.8662
▁obtain	-11.8662
▁pablo	-11.8662
▁pavement	-11.8662
▁potluck	-11.8662
▁reputation	-11.8662
▁stiff	-11.8662
▁stylish	-11.8662
▁swift	-11.8662
▁uneasy	-11.8662
▁widow	-11.8662
▁wisdom	-11.8662
▁backstage	-11.8662
▁screech	-11.8662
▁compass	-11.8662
▁nikki	-11.8662
▁embarrassment	-11.8663
▁disappointment	-11.8663
▁graphic	-11.8663
▁evelyn	-11.8663
▁documentary	-11.8663
▁wilma	-11.8664
▁horseback	-11.8665
▁consume	-11.8665
▁maze	-11.8665
▁mansion	-11.8666
▁usher	-11.8671
▁postponed	-11.8671
▁licking	-11.8677
▁lunchtime	-11.8685
▁launched	-11.8687
▁succeeded	-11.8689
▁achieved	-11.869
▁deni	-11.8693
▁marion	-11.8711
▁finishes	-11.8718
▁sparkle	-11.8779
boat	-11.8899
▁liv	-11.8902
▁select	-11.8909
▁mention	-11.8911
▁rub	-11.8922
▁frequent	-11.8931
▁bry	-11.8936
▁convert	-11.894
▁alvin	-11.894
▁appreciative	-11.894
▁archery	-11.894
▁barefoot	-11.894
▁bonfire	-11.894
▁cockroach	-11.894
▁cycle	-11.894
▁emerged	-11.894
▁estimate	-11.894
▁frustrating	-11.894
▁kansas	-11.894
▁minnesota	-11.894
▁naomi	-11.894
▁nauseous	-11.894
▁parachute	-11.894
▁practical	-11.894
▁remodel	-11.894
▁retiring	-11.894
▁snooze	-11.894
▁snoring	-11.894
▁spinach	-11.894
▁strategy	-11.894
▁terrance	-11.894
▁trout	-11.894
▁veronica	-11.894
▁wilderness	-11.894
▁withdraw	-11.894
▁cayla	-11.894
▁roxy	-11.894
▁supplement	-11.894
▁zeke	-11.894
▁barista	-11.894
▁resent	-11.894
▁fudge	-11.894
▁repeatedly	-11.894
▁marvel	-11.894
▁saint	-11.894
▁trolley	-11.894
▁kari	-11.894
▁tucker	-11.894
▁mobile	-11.894
▁tangled	-11.894
▁ceo	-11.894
▁beetle	-11.894
▁venture	-11.8941
▁fiction	-11.8941
▁fright	-11.8941
▁jammed	-11.8941
▁overheat	-11.8941
▁slipping	-11.8942
▁avery	-11.8942
▁plea	-11.8943
▁beads	-11.8943
▁caroline	-11.8944
▁popping	-11.8946
▁kidney	-11.8947
▁wal	-11.8947
▁obviously	-11.8948
▁travelling	-11.8949
▁choked	-11.8952
▁performer	-11.8953
▁pleasantly	-11.8955
▁patches	-11.8956
▁recruiter	-11.8961
▁overhead	-11.8962
▁flown	-11.8962
▁workplace	-11.8963
▁featured	-11.8969
▁frankie	-11.897
▁observed	-11.8972
▁checkers	-11.8985
▁inning	-11.9009
rrie	-11.9037
▁emotion	-11.9078
▁grape	-11.9079
▁noodle	-11.9079
▁ingredient	-11.908
▁boom	-11.9123
iate	-11.9142
▁badge	-11.9168
hood	-11.9181
▁zip	-11.9181
▁require	-11.9204
hole	-11.9221
▁threat	-11.9226
possibly	-11.9226
▁competitor	-11.9226
▁council	-11.9226
▁describ	-11.9226
▁drowning	-11.9226
▁extinguish	-11.9226
▁greta	-11.9226
▁lawnmower	-11.9226
▁penelope	-11.9226
▁philadelphia	-11.9226
▁prospect	-11.9226
▁stubborn	-11.9226
▁temporary	-11.9226
▁vivian	-11.9226
▁chief	-11.9226
▁waving	-11.9226
▁dick	-11.9226
▁pottery	-11.9226
▁grasp	-11.9226
▁denver	-11.9226
▁contra	-11.9226
▁meatballs	-11.9226
▁giggled	-11.9226
▁flick	-11.9226
▁sailboat	-11.9226
▁whipped	-11.9226
▁quote	-11.9226
▁rio	-11.9226
▁transferred	-11.9226
▁limb	-11.9226
▁transportation	-11.9226
▁requirement	-11.9227
▁shined	-11.9227
▁visitors	-11.9227
▁uber	-11.9228
▁idol	-11.9228
▁protective	-11.9228
▁unlike	-11.9229
▁shipping	-11.923
▁dull	-11.9234
▁chirping	-11.9235
urged	-11.9237
▁brighton	-11.9237
▁developer	-11.9238
▁cloudy	-11.9239
▁goalie	-11.9242
▁brianna	-11.9242
▁rig	-11.9243
▁sonya	-11.9248
▁physically	-11.9254
▁sprinkler	-11.9254
▁smarter	-11.9275
▁tale	-11.9315
▁strap	-11.933
▁brownie	-11.9387
▁medic	-11.9422
▁crow	-11.9457
▁succeed	-11.9491
▁pac	-11.9505
▁obvious	-11.9511
▁academy	-11.952
▁anticipate	-11.952
▁attorney	-11.952
▁autumn	-11.952
▁broadway	-11.952
▁christopher	-11.952
▁clutter	-11.952
▁concierge	-11.952
▁dakota	-11.952
▁dedicated	-11.952
▁demonstrat	-11.952
▁derrick	-11.952
▁elaborate	-11.952
▁guinea	-11.952
▁harriet	-11.952
▁harvard	-11.952
▁nelson	-11.952
▁pineapple	-11.952
▁pluck	-11.952
▁skeleton	-11.952
▁snicker	-11.952
▁stabbed	-11.952
▁tantrum	-11.952
▁tropical	-11.952
▁twirl	-11.952
▁unfair	-11.952
▁vintage	-11.952
▁conquer	-11.952
▁retreat	-11.952
▁veteran	-11.952
▁sack	-11.952
▁expectations	-11.952
▁contractions	-11.952
▁forehead	-11.952
▁becca	-11.952
▁oph	-11.952
▁trivia	-11.952
▁convertible	-11.952
▁candies	-11.952
▁marble	-11.952
▁crate	-11.9521
▁kirk	-11.9521
▁karina	-11.9521
▁surfboard	-11.9521
▁entertainment	-11.9522
▁discussion	-11.9522
▁buff	-11.9522
▁lure	-11.9527
▁bail	-11.9527
▁jodie	-11.9527
▁flora	-11.9528
▁seventh	-11.9536
▁reduced	-11.9537
▁silently	-11.9538
▁brushes	-11.9539
▁louise	-11.9544
▁tur	-11.955
▁enjoyable	-11.9551
▁shoo	-11.9552
▁latte	-11.9555
▁maine	-11.9556
▁spike	-11.9646
▁mick	-11.9649
▁pale	-11.9791
▁addict	-11.9792
▁drift	-11.9794
▁reveal	-11.9794
▁guilt	-11.9815
▁tack	-11.9819
▁psych	-11.9821
ticipating	-11.9823
▁abilities	-11.9823
▁bachelor	-11.9823
▁beloved	-11.9823
▁blaine	-11.9823
▁capital	-11.9823
▁crooked	-11.9823
▁drenched	-11.9823
▁enclosure	-11.9823
▁faucet	-11.9823
▁malcolm	-11.9823
▁manufactur	-11.9823
▁politician	-11.9823
▁privacy	-11.9823
▁reserve	-11.9823
▁russell	-11.9823
▁scattered	-11.9823
▁squash	-11.9823
▁squat	-11.9823
▁strain	-11.9823
▁turbulence	-11.9823
▁fierce	-11.9823
▁gender	-11.9823
▁lizzy	-11.9823
▁ballerina	-11.9823
▁beverage	-11.9823
▁olga	-11.9823
▁witch	-11.9823
▁appeal	-11.9823
▁lump	-11.9823
▁voting	-11.9823
▁kane	-11.9823
▁imaginary	-11.9823
▁tanning	-11.9823
▁sexual	-11.9823
▁imagination	-11.9823
▁rumble	-11.9824
▁ginny	-11.9824
▁kenya	-11.9829
▁debra	-11.9829
▁unplugged	-11.9829
▁limo	-11.9829
▁wept	-11.9831
▁chant	-11.9831
▁maxine	-11.9831
▁disappointing	-11.9833
▁aiden	-11.9833
▁batting	-11.9838
▁peacefully	-11.9838
▁violently	-11.9838
▁dice	-11.9839
▁impatiently	-11.984
▁hugh	-11.984
▁hugo	-11.9845
▁sitter	-11.9849
▁receiver	-11.9858
ppy	-11.9868
▁swamp	-11.9992
▁experienc	-12.008
▁chin	-12.0104
▁launch	-12.0106
▁click	-12.0106
▁faint	-12.0106
▁jodi	-12.0132
▁conduct	-12.0133
▁gentle	-12.0135
▁trump	-12.0135
▁appetite	-12.0135
▁audio	-12.0135
▁blackjack	-12.0135
▁boutique	-12.0135
▁bummed	-12.0135
▁clever	-12.0135
▁confusing	-12.0135
▁coyote	-12.0135
▁daydream	-12.0135
▁discipline	-12.0135
▁energetic	-12.0135
▁extensive	-12.0135
▁figurine	-12.0135
▁gretchen	-12.0135
▁kettle	-12.0135
▁knives	-12.0135
▁lyrics	-12.0135
▁miguel	-12.0135
▁otherwise	-12.0135
▁ourselves	-12.0135
▁persevered	-12.0135
▁podium	-12.0135
▁psychiatrist	-12.0135
▁refreshing	-12.0135
▁regain	-12.0135
▁rooster	-12.0135
▁sebastian	-12.0135
▁suzann	-12.0135
▁thread	-12.0135
▁trigger	-12.0135
▁trombone	-12.0135
▁tummy	-12.0135
▁unsuccessful	-12.0135
▁vietnam	-12.0135
▁whining	-12.0135
▁zookeeper	-12.0135
▁edgar	-12.0135
▁petition	-12.0135
▁puppet	-12.0135
▁mustard	-12.0135
▁curry	-12.0135
▁pennies	-12.0135
▁catfish	-12.0135
▁mature	-12.0135
▁oreo	-12.0135
▁duct	-12.0135
▁peggy	-12.0135
▁slack	-12.0136
▁gulp	-12.0136
▁tension	-12.0136
▁bertha	-12.0136
▁omelette	-12.0136
▁irish	-12.0136
▁receptionist	-12.0137
▁gummy	-12.0137
▁effective	-12.0137
▁firewood	-12.0137
▁peas	-12.0139
▁ridden	-12.0139
▁flaw	-12.014
▁rusty	-12.0142
ility	-12.0143
▁lice	-12.0144
▁landon	-12.0144
▁rv	-12.0147
▁reba	-12.0147
▁sway	-12.015
▁highlight	-12.0152
▁firemen	-12.0152
▁statement	-12.0153
▁financially	-12.0154
▁pub	-12.0226
▁electronic	-12.0312
▁crumb	-12.0313
▁suffer	-12.0404
ability	-12.0417
grown	-12.0417
boyfriend	-12.0417
waiting	-12.0417
▁complet	-12.0417
▁inform	-12.0428
▁predict	-12.0429
▁nation	-12.0445
mont	-12.0449
▁trish	-12.0454
▁enthusiast	-12.0458
▁alabama	-12.0458
▁almond	-12.0458
▁beneath	-12.0458
▁benjamin	-12.0458
▁catalog	-12.0458
▁champagne	-12.0458
▁curfew	-12.0458
▁foam	-12.0458
▁fracture	-12.0458
▁gertrude	-12.0458
▁independent	-12.0458
▁interstate	-12.0458
▁marijuana	-12.0458
▁marlene	-12.0458
▁meditation	-12.0458
▁prestigious	-12.0458
▁reconnect	-12.0458
▁recycle	-12.0458
▁rejection	-12.0458
▁relented	-12.0458
▁satisfy	-12.0458
▁seagull	-12.0458
▁sponge	-12.0458
▁symphony	-12.0458
▁twitter	-12.0458
▁unwrapped	-12.0458
▁viral	-12.0458
▁vocal	-12.0458
▁eyebrow	-12.0458
▁pleasure	-12.0458
▁tricia	-12.0458
▁facing	-12.0458
▁terminal	-12.0458
▁claud	-12.0458
▁slick	-12.0458
▁motel	-12.0458
▁nickname	-12.0458
▁blink	-12.0458
▁wilson	-12.0458
▁examine	-12.0459
▁rustling	-12.0459
▁zipper	-12.0459
▁selen	-12.046
▁nh	-12.046
▁slight	-12.046
▁kickball	-12.046
▁salary	-12.046
▁authority	-12.046
▁freeze	-12.0461
▁philosophy	-12.0462
▁poet	-12.0462
▁scanned	-12.0462
▁marina	-12.0463
▁eighth	-12.0468
▁gale	-12.0469
▁aggressively	-12.047
▁juggle	-12.0471
▁christy	-12.0471
▁vest	-12.0471
▁igor	-12.0472
▁roadside	-12.0473
▁oppos	-12.0497
▁wiper	-12.0508
dec	-12.0525
reg	-12.0551
▁pursu	-12.063
▁waffle	-12.0644
▁dustin	-12.0743
worm	-12.075
wash	-12.0751
▁locate	-12.0771
▁disagree	-12.0771
▁relieve	-12.0771
▁wrestle	-12.0778
▁unexpected	-12.0782
▁broth	-12.0783
▁plum	-12.0791
▁increasing	-12.0791
▁abusive	-12.0791
▁beggar	-12.0791
▁catholic	-12.0791
▁colleen	-12.0791
▁conceive	-12.0791
▁drought	-12.0791
▁fernando	-12.0791
▁guidance	-12.0791
▁illinois	-12.0791
▁motivation	-12.0791
▁rebuild	-12.0791
▁snapchat	-12.0791
▁transmission	-12.0791
▁tycho	-12.0791
▁unprepared	-12.0791
▁wildlife	-12.0791
▁yankees	-12.0791
▁blossom	-12.0791
▁combination	-12.0791
▁distribut	-12.0791
▁divide	-12.0791
▁egypt	-12.0791
▁goodwill	-12.0791
▁hotdog	-12.0791
▁medium	-12.0791
▁mustang	-12.0791
▁ovation	-12.0791
▁serena	-12.0791
▁yawn	-12.0791
▁caramel	-12.0791
▁freedom	-12.0791
▁humid	-12.0791
▁household	-12.0791
▁raven	-12.0791
▁loyal	-12.0791
▁stump	-12.0791
▁ariana	-12.0791
▁lenses	-12.0791
▁scrub	-12.0792
▁esther	-12.0792
▁shaun	-12.0792
▁collin	-12.0792
▁mitchell	-12.0792
▁roland	-12.0793
canned	-12.0794
▁conductor	-12.0794
▁rowdy	-12.0794
▁example	-12.0794
▁portable	-12.0796
▁planner	-12.0797
▁tense	-12.0798
▁bland	-12.0798
▁joanie	-12.0804
▁jerky	-12.0805
▁jillian	-12.0808
▁contestant	-12.0809
▁heroin	-12.0835
ular	-12.0837
▁buckle	-12.0855
▁bree	-12.0933
rammed	-12.103
oise	-12.11
▁delay	-12.1107
▁reduce	-12.1115
▁flipp	-12.1115
▁delete	-12.1116
▁exact	-12.1127
▁cigar	-12.1136
▁automatic	-12.1136
▁academic	-12.1136
▁admission	-12.1136
▁authentic	-12.1136
▁backseat	-12.1136
▁blockbuster	-12.1136
▁bookshelf	-12.1136
▁brazil	-12.1136
▁choking	-12.1136
▁desmond	-12.1136
▁eugen	-12.1136
▁fabulous	-12.1136
▁favourite	-12.1136
▁folk	-12.1136
▁fraud	-12.1136
▁improving	-12.1136
▁influence	-12.1136
▁inviting	-12.1136
▁lawrence	-12.1136
▁melvin	-12.1136
▁meredith	-12.1136
▁mysterious	-12.1136
▁nicholas	-12.1136
▁nicotine	-12.1136
▁nintendo	-12.1136
▁ohio	-12.1136
▁patience	-12.1136
▁pizzeria	-12.1136
▁romance	-12.1136
▁seashell	-12.1136
▁summit	-12.1136
▁technical	-12.1136
▁terrifying	-12.1136
▁thump	-12.1136
lantern	-12.1136
▁convict	-12.1136
▁taunt	-12.1136
▁summon	-12.1136
▁wallace	-12.1136
▁miller	-12.1136
▁standard	-12.1136
▁ensure	-12.1136
▁legend	-12.1136
▁anchor	-12.1136
▁vincent	-12.1136
▁snore	-12.1136
▁fumble	-12.1137
▁carving	-12.1137
▁goof	-12.1137
▁terrorist	-12.1138
▁flock	-12.1138
▁hint	-12.1138
▁acceptance	-12.1139
▁skinned	-12.114
▁antics	-12.1141
▁personality	-12.1141
▁gaze	-12.1141
▁roam	-12.1142
▁darrel	-12.1142
▁protection	-12.1143
▁batman	-12.1144
▁hopeless	-12.1145
▁rowan	-12.1146
opted	-12.1152
▁stre	-12.1154
▁dime	-12.1197
▁rome	-12.127
▁mole	-12.127
▁faithful	-12.1296
▁dolphin	-12.1346
▁instruction	-12.1347
▁whit	-12.1365
▁mack	-12.1398
▁budge	-12.1428
proof	-12.1452
▁praise	-12.1473
▁resolve	-12.1473
▁suppose	-12.1473
▁dominic	-12.1491
▁admiring	-12.1493
▁appliance	-12.1493
▁buffalo	-12.1493
▁calculus	-12.1493
▁catherine	-12.1493
▁contemplate	-12.1493
▁crochet	-12.1493
▁crutches	-12.1493
▁debating	-12.1493
▁devoted	-12.1493
▁executive	-12.1493
▁footsteps	-12.1493
▁garrett	-12.1493
▁gingerbread	-12.1493
▁granola	-12.1493
▁idiot	-12.1493
▁inappropriate	-12.1493
▁inexpensive	-12.1493
▁intimidated	-12.1493
▁jamaica	-12.1493
▁juicy	-12.1493
▁mutual	-12.1493
▁oyster	-12.1493
▁paige	-12.1493
▁regina	-12.1493
▁relocate	-12.1493
▁spooked	-12.1493
▁stool	-12.1493
▁structure	-12.1493
▁submarine	-12.1493
▁swear	-12.1493
▁alyssa	-12.1493
▁establish	-12.1493
▁kendall	-12.1493
▁leroy	-12.1493
▁philip	-12.1493
▁shortcut	-12.1493
▁splurge	-12.1493
▁squeak	-12.1493
esteem	-12.1493
▁husky	-12.1493
▁gregory	-12.1493
▁iraq	-12.1493
▁kristen	-12.1493
▁cardio	-12.1493
▁vineyard	-12.1493
▁whiskey	-12.1493
▁ireland	-12.1493
▁raved	-12.1493
▁curt	-12.1494
▁purr	-12.1494
▁hailey	-12.1494
ppled	-12.1494
▁grinned	-12.1494
▁cornelia	-12.1494
▁boardwalk	-12.1495
▁wrapper	-12.1495
▁tyson	-12.1496
▁jogged	-12.1496
▁harsh	-12.1496
▁impro	-12.1497
▁cities	-12.1497
▁consist	-12.1497
▁aloe	-12.1497
▁jace	-12.15
▁preacher	-12.15
▁superman	-12.15
▁countryside	-12.1501
▁tofu	-12.1507
▁vine	-12.1511
▁tet	-12.1583
lunk	-12.1595
▁gravel	-12.1659
▁flame	-12.1717
wood	-12.182
mart	-12.1834
▁accus	-12.1835
▁temp	-12.1845
▁surprising	-12.1855
▁regard	-12.1863
▁absent	-12.1864
▁bouncing	-12.1864
▁celebrities	-12.1864
▁chemotherapy	-12.1864
▁clyde	-12.1864
▁coordinat	-12.1864
▁cuisine	-12.1864
▁drugstore	-12.1864
▁february	-12.1864
▁genius	-12.1864
▁hilarious	-12.1864
▁identity	-12.1864
▁katrina	-12.1864
▁mbta	-12.1864
▁memorable	-12.1864
▁opportunities	-12.1864
▁registration	-12.1864
▁resolution	-12.1864
▁sandcastle	-12.1864
▁shivering	-12.1864
▁significant	-12.1864
▁suicide	-12.1864
▁symptoms	-12.1864
▁telemarketer	-12.1864
▁thirteen	-12.1864
▁unbearable	-12.1864
▁ursula	-12.1864
▁intervene	-12.1864
▁maneuver	-12.1864
▁donkey	-12.1864
▁scour	-12.1864
▁tumor	-12.1864
▁bunnies	-12.1864
▁feast	-12.1864
▁untied	-12.1864
▁housing	-12.1864
▁racket	-12.1864
▁wool	-12.1864
▁cannon	-12.1864
▁dusk	-12.1864
▁pothole	-12.1865
▁organic	-12.1865
▁harley	-12.1865
▁trimmed	-12.1865
▁humble	-12.1865
▁psychic	-12.1865
▁restart	-12.1866
▁development	-12.1866
▁thaw	-12.1867
▁paintball	-12.1871
▁travelled	-12.1872
uffe	-12.1872
▁clare	-12.1874
▁mitt	-12.1879
▁peg	-12.1879
▁luna	-12.188
▁bouncer	-12.188
▁pure	-12.1884
▁intend	-12.1888
▁rust	-12.1901
▁fearful	-12.1932
mush	-12.1949
▁ravi	-12.197
▁cram	-12.2049
▁colleague	-12.2101
turn	-12.2161
found	-12.2208
▁regretful	-12.2208
▁slug	-12.2218
▁swerve	-12.2228
▁hanna	-12.2248
▁accompany	-12.2248
▁appreciation	-12.2248
▁banjo	-12.2248
▁brilliant	-12.2248
▁candice	-12.2248
▁chimney	-12.2248
▁clutch	-12.2248
▁dripping	-12.2248
▁enemies	-12.2248
▁freelance	-12.2248
▁gustav	-12.2248
▁hobbies	-12.2248
▁horizon	-12.2248
▁identical	-12.2248
▁lawsuit	-12.2248
▁leonard	-12.2248
▁mermaid	-12.2248
▁muscular	-12.2248
▁muslim	-12.2248
▁obnoxious	-12.2248
▁rehearsal	-12.2248
▁saxophone	-12.2248
▁sermon	-12.2248
▁sophomore	-12.2248
▁sweetheart	-12.2248
▁sydney	-12.2248
▁tobacco	-12.2248
▁unaware	-12.2248
▁yacht	-12.2248
ville	-12.2248
▁alissa	-12.2248
▁alphabet	-12.2248
▁darlene	-12.2248
▁digital	-12.2248
▁distress	-12.2248
▁harvey	-12.2248
▁vinegar	-12.2248
▁foil	-12.2248
▁pigeon	-12.2248
▁tulip	-12.2248
▁bethany	-12.2248
▁region	-12.2248
▁exec	-12.2248
▁scalp	-12.2248
▁southern	-12.2248
▁creak	-12.2248
▁hawk	-12.2248
▁kennel	-12.2248
▁asthma	-12.2248
▁opal	-12.2248
▁overdue	-12.2248
▁urgent	-12.2248
▁outcome	-12.2249
▁viola	-12.2249
▁comfortably	-12.2249
▁chopping	-12.2249
▁butcher	-12.2249
▁midway	-12.225
▁trudy	-12.225
▁infant	-12.225
▁wifi	-12.225
▁roaches	-12.2251
▁2012	-12.2251
▁harness	-12.2251
▁sparkling	-12.2251
▁awakened	-12.2252
▁lime	-12.2253
▁forgetful	-12.2253
▁darla	-12.2254
▁insert	-12.2255
▁marla	-12.2256
▁milo	-12.2257
▁saddle	-12.2257
▁bunk	-12.2258
quin	-12.2279
▁visibl	-12.2281
▁combat	-12.2367
▁believ	-12.238
▁boost	-12.2444
▁chemical	-12.2501
view	-12.2606
girlfriend	-12.2608
some	-12.261
saw	-12.2616
▁punish	-12.2618
▁defeat	-12.2619
▁approve	-12.2628
▁promote	-12.2628
▁happie	-12.2643
▁gymnast	-12.2648
▁antonio	-12.2648
▁approval	-12.2648
▁briefcase	-12.2648
▁bungee	-12.2648
▁cheesecake	-12.2648
▁clarinet	-12.2648
▁democrat	-12.2648
▁despair	-12.2648
▁diagnosis	-12.2648
▁earbuds	-12.2648
▁expand	-12.2648
▁expelled	-12.2648
▁explosion	-12.2648
▁feathers	-12.2648
▁greek	-12.2648
▁guillermo	-12.2648
▁homesick	-12.2648
▁identify	-12.2648
▁interior	-12.2648
▁jewish	-12.2648
▁juggling	-12.2648
▁literally	-12.2648
▁octopus	-12.2648
▁qualify	-12.2648
▁rachael	-12.2648
▁salesperson	-12.2648
▁satisfaction	-12.2648
▁shuffl	-12.2648
▁snoop	-12.2648
▁spooky	-12.2648
▁uneven	-12.2648
▁avocado	-12.2648
▁devon	-12.2648
▁jorge	-12.2648
▁malfunction	-12.2648
▁manicure	-12.2648
▁millionaire	-12.2648
▁pedestrian	-12.2648
▁pretzel	-12.2648
▁principle	-12.2648
▁racist	-12.2648
▁reference	-12.2648
▁sierra	-12.2648
▁sunflower	-12.2648
▁urinate	-12.2648
▁deploy	-12.2648
▁derby	-12.2648
▁descend	-12.2648
▁minnie	-12.2648
▁ninth	-12.2648
▁stash	-12.2648
▁olaf	-12.2648
▁cries	-12.2648
▁stewart	-12.2648
▁playstation	-12.2648
▁prick	-12.2648
▁leggings	-12.2648
▁debris	-12.2648
▁shuttle	-12.2648
▁rica	-12.2648
▁escala	-12.2648
▁stake	-12.2648
▁soothe	-12.2649
▁fay	-12.2649
▁micah	-12.2649
▁sabr	-12.2649
▁hoard	-12.2649
▁lact	-12.2649
▁elsa	-12.2649
▁stirred	-12.2649
▁clover	-12.2649
▁acquire	-12.2649
▁marley	-12.265
▁blair	-12.265
▁clipped	-12.265
▁glenda	-12.265
▁firing	-12.265
▁historical	-12.2651
▁dipped	-12.2651
▁rina	-12.2651
▁operating	-12.2652
▁recite	-12.2653
▁bold	-12.2654
▁loop	-12.2655
▁rover	-12.2655
▁fuse	-12.2685
▁axe	-12.2912
▁surviv	-12.3008
writing	-12.3024
▁accomplish	-12.3035
▁proceed	-12.3036
▁explode	-12.3044
▁dislike	-12.3045
▁thirst	-12.3057
▁depart	-12.3064
▁represent	-12.3065
▁cinema	-12.3065
▁exclusive	-12.3065
▁advisor	-12.3065
▁anonymous	-12.3065
▁appendix	-12.3065
▁artificial	-12.3065
▁auditorium	-12.3065
▁begrudgingly	-12.3065
▁cactus	-12.3065
▁cheyenne	-12.3065
▁clung	-12.3065
▁congregation	-12.3065
▁contribute	-12.3065
▁facial	-12.3065
▁gluten	-12.3065
▁graffiti	-12.3065
▁grammar	-12.3065
▁hiccup	-12.3065
▁hopscotch	-12.3065
▁igloo	-12.3065
▁implement	-12.3065
▁incorporat	-12.3065
▁inseparable	-12.3065
▁jello	-12.3065
▁jesus	-12.3065
▁lizzie	-12.3065
▁locksmith	-12.3065
▁lumber	-12.3065
▁merchandise	-12.3065
▁oklahoma	-12.3065
▁oswald	-12.3065
▁pedicure	-12.3065
▁persisted	-12.3065
▁renown	-12.3065
▁rhythm	-12.3065
▁sluggish	-12.3065
▁tabby	-12.3065
▁tameka	-12.3065
▁tortilla	-12.3065
▁twitch	-12.3065
▁wolves	-12.3065
▁worries	-12.3065
▁apprentice	-12.3065
▁beatrice	-12.3065
▁depend	-12.3065
▁karyn	-12.3065
▁woodworking	-12.3065
▁committee	-12.3065
▁complied	-12.3065
▁fussy	-12.3065
▁lamar	-12.3065
▁pamela	-12.3065
▁revv	-12.3065
▁smear	-12.3065
identified	-12.3065
▁soggy	-12.3065
▁flops	-12.3065
▁depot	-12.3065
▁rising	-12.3065
▁gauge	-12.3065
▁squint	-12.3065
▁merry	-12.3065
▁bankruptcy	-12.3065
▁locket	-12.3065
▁robyn	-12.3065
▁ethic	-12.3065
▁anime	-12.3065
▁excelled	-12.3065
▁tokyo	-12.3066
▁emmy	-12.3066
▁tanner	-12.3067
▁wesley	-12.3067
▁journalist	-12.3067
▁dominick	-12.3067
▁ernie	-12.3068
▁panicking	-12.3068
▁runny	-12.3068
▁conner	-12.3068
▁invention	-12.3069
▁temple	-12.3074
▁nik	-12.3183
trapped	-12.3304
▁introduc	-12.344
▁lick	-12.3446
beat	-12.3459
haps	-12.346
▁upload	-12.3471
▁confirm	-12.3471
▁involv	-12.3471
▁behave	-12.3479
▁decline	-12.3479
▁champ	-12.3498
▁prince	-12.3499
▁assault	-12.35
▁caution	-12.35
▁certified	-12.35
▁convincing	-12.35
▁cottage	-12.35
▁dillon	-12.35
▁district	-12.35
▁fireflies	-12.35
▁greasy	-12.35
▁groaned	-12.35
▁kidnapped	-12.35
▁migraine	-12.35
▁nevertheless	-12.35
▁orthodontist	-12.35
▁patriots	-12.35
▁pebble	-12.35
▁pistachio	-12.35
▁ponytail	-12.35
▁racquet	-12.35
▁sensation	-12.35
▁splattered	-12.35
▁sulked	-12.35
▁suspension	-12.35
▁swoop	-12.35
▁tarantula	-12.35
▁trinket	-12.35
▁tyrone	-12.35
▁unicorn	-12.35
▁vodka	-12.35
▁wallpaper	-12.35
▁granny	-12.35
▁premier	-12.35
▁repaint	-12.35
▁scowl	-12.35
▁intolerant	-12.35
▁minivan	-12.35
▁remedy	-12.35
▁reptile	-12.35
▁shack	-12.35
▁vanished	-12.35
▁jig	-12.35
▁obey	-12.35
▁autistic	-12.35
▁insane	-12.35
▁acorn	-12.35
▁playlist	-12.35
▁flattered	-12.35
▁manuel	-12.35
▁pedro	-12.35
▁masterpiece	-12.35
▁sedan	-12.35
▁grumbled	-12.35
▁forbid	-12.35
▁foggy	-12.35
▁excessive	-12.35
▁specifically	-12.3501
▁poppy	-12.3501
▁gentleman	-12.3501
▁lorrie	-12.3501
▁stern	-12.3501
▁mural	-12.3501
▁isabella	-12.3502
▁pinned	-12.3503
▁realise	-12.3529
▁weave	-12.3535
▁mul	-12.3883
bound	-12.3913
▁strand	-12.3925
▁scold	-12.3925
▁choke	-12.3934
ford	-12.3934
▁prime	-12.3952
piration	-12.3953
responsibilities	-12.3954
▁absorb	-12.3954
▁accessories	-12.3954
▁applause	-12.3954
▁arrogant	-12.3954
▁barbeque	-12.3954
▁bargain	-12.3954
▁blended	-12.3954
▁brody	-12.3954
▁caribbean	-12.3954
▁chihuahua	-12.3954
▁cologne	-12.3954
▁commotion	-12.3954
▁culprit	-12.3954
▁decrease	-12.3954
▁division	-12.3954
▁energized	-12.3954
▁felicia	-12.3954
▁florist	-12.3954
▁fuzzy	-12.3954
▁georgina	-12.3954
▁goggles	-12.3954
▁gratitude	-12.3954
▁hammock	-12.3954
▁intrigued	-12.3954
▁isaiah	-12.3954
▁landscaping	-12.3954
▁mound	-12.3954
▁orleans	-12.3954
▁paralyzed	-12.3954
▁pianist	-12.3954
▁python	-12.3954
▁rollerblade	-12.3954
▁rollercoaster	-12.3954
▁satellite	-12.3954
▁species	-12.3954
▁transplant	-12.3954
▁trembling	-12.3954
▁tuition	-12.3954
▁unruly	-12.3954
▁wrinkled	-12.3954
▁corrupt	-12.3954
▁daryl	-12.3954
▁fourteen	-12.3954
▁gasoline	-12.3954
▁international	-12.3954
▁sheriff	-12.3954
▁domino	-12.3954
▁ernest	-12.3954
▁sampson	-12.3954
▁mallory	-12.3954
▁vent	-12.3954
▁intake	-12.3954
▁concede	-12.3954
▁magnet	-12.3954
▁pledge	-12.3954
▁minecraft	-12.3954
▁bulk	-12.3954
▁heritage	-12.3954
▁reverse	-12.3955
▁orphanage	-12.3955
▁apron	-12.3955
▁sweatshirt	-12.3955
kenzie	-12.3955
▁shelley	-12.3955
▁linger	-12.3955
▁colby	-12.3956
▁raisin	-12.3956
gulf	-12.3956
▁tidy	-12.3956
▁shady	-12.3957
▁marnie	-12.3957
honda	-12.3957
▁barrel	-12.3961
▁flap	-12.3975
tending	-12.4043
minded	-12.4063
10,000	-12.4097
spired	-12.4329
burg	-12.4424
▁historic	-12.4428
▁construct	-12.4429
▁orphan	-12.443
▁appraised	-12.443
▁attentive	-12.443
▁celery	-12.443
▁collided	-12.443
▁communication	-12.443
▁dehydrated	-12.443
▁dermatologist	-12.443
▁disbelief	-12.443
▁disqualified	-12.443
▁enormous	-12.443
▁envied	-12.443
▁explanation	-12.443
▁fencing	-12.443
▁fitbit	-12.443
▁footprint	-12.443
▁frugal	-12.443
▁hazel	-12.443
▁insecure	-12.443
▁instagram	-12.443
▁izzy	-12.443
▁julio	-12.443
▁landslide	-12.443
▁lesbian	-12.443
▁maude	-12.443
▁nutrition	-12.443
▁ordeal	-12.443
▁orientation	-12.443
▁pacific	-12.443
▁paranoid	-12.443
▁savannah	-12.443
▁shredded	-12.443
▁soothing	-12.443
▁spree	-12.443
▁sputter	-12.443
▁steadily	-12.443
▁stunning	-12.443
▁symbol	-12.443
▁thereafter	-12.443
▁wobbly	-12.443
▁accelerate	-12.443
▁amputate	-12.443
▁dvr	-12.443
▁preserve	-12.443
▁transform	-12.443
▁damien	-12.443
▁generic	-12.443
▁graci	-12.443
▁granddad	-12.443
▁stuart	-12.443
activate	-12.443
▁conrad	-12.443
▁interact	-12.443
▁blessed	-12.443
▁savor	-12.443
▁genre	-12.443
▁stef	-12.4431
▁seizure	-12.4431
▁hostess	-12.4431
▁disability	-12.4431
▁scariest	-12.4431
▁kristin	-12.4432
▁quinc	-12.4436
▁glide	-12.4441
robbing	-12.4451
▁wick	-12.452
etta	-12.4645
known	-12.4887
piece	-12.4889
foot	-12.4891
▁advertise	-12.4909
▁determine	-12.491
▁excel	-12.493
▁cecil	-12.493
▁aloud	-12.493
▁applesauce	-12.493
▁bologna	-12.493
▁broadcast	-12.493
▁cassidy	-12.493
▁chopsticks	-12.493
▁cinderella	-12.493
▁cleveland	-12.493
▁cubicle	-12.493
▁delilah	-12.493
▁demolished	-12.493
▁desperation	-12.493
▁disguise	-12.493
▁dorothy	-12.493
▁earplugs	-12.493
▁engross	-12.493
▁fidget	-12.493
▁freckle	-12.493
▁grimaced	-12.493
▁groggy	-12.493
▁grueling	-12.493
▁iguana	-12.493
▁immigrant	-12.493
▁jordyn	-12.493
▁kernels	-12.493
▁margarita	-12.493
▁memorial	-12.493
▁miserably	-12.493
▁nausea	-12.493
▁nonetheless	-12.493
▁obsession	-12.493
▁optometrist	-12.493
▁overwhelming	-12.493
▁parakeet	-12.493
▁phoebe	-12.493
▁pimple	-12.493
▁pistol	-12.493
▁pneumonia	-12.493
▁proficient	-12.493
▁railroad	-12.493
▁rattlesnake	-12.493
▁reckless	-12.493
▁remedies	-12.493
▁ritual	-12.493
▁shallow	-12.493
▁sloppy	-12.493
▁stench	-12.493
▁subscribe	-12.493
▁substance	-12.493
▁sunshine	-12.493
▁sustain	-12.493
▁swirl	-12.493
▁thieves	-12.493
▁transaction	-12.493
▁twentie	-12.493
▁underground	-12.493
▁belinda	-12.493
▁blaze	-12.493
▁dottie	-12.493
▁orlando	-12.493
▁passerby	-12.493
▁reginald	-12.493
▁swan	-12.493
▁threatening	-12.493
▁mixture	-12.493
▁utah	-12.493
▁blouse	-12.493
▁coax	-12.493
▁torture	-12.493
▁catnip	-12.493
▁brooklyn	-12.493
▁promising	-12.493
▁stubb	-12.493
▁franny	-12.493
▁hustle	-12.493
▁audit	-12.4931
▁wheat	-12.4931
▁improvise	-12.4931
▁indulg	-12.4931
▁mourn	-12.4931
▁architecture	-12.4931
▁flake	-12.4931
▁dissect	-12.4931
▁lounge	-12.4932
pplies	-12.4932
▁nibble	-12.4978
▁dangl	-12.5129
▁stumbl	-12.5251
▁crayon	-12.531
lbert	-12.5358
weight	-12.5402
▁annoy	-12.5404
looking	-12.5416
▁neglect	-12.5428
▁drea	-12.5445
▁unfortunate	-12.5448
▁warrant	-12.5449
employed	-12.5454
▁transport	-12.5455
▁sculpt	-12.5456
referred	-12.5456
▁accurate	-12.5457
▁adviser	-12.5457
▁astronomy	-12.5457
▁bernard	-12.5457
▁brutal	-12.5457
▁charcoal	-12.5457
▁chubby	-12.5457
▁chugged	-12.5457
▁cocktail	-12.5457
▁darryl	-12.5457
▁description	-12.5457
▁detroit	-12.5457
▁diarrhea	-12.5457
▁dwayne	-12.5457
▁embrace	-12.5457
▁encyclopedia	-12.5457
▁firecracker	-12.5457
▁giggling	-12.5457
▁governor	-12.5457
▁graciously	-12.5457
▁independence	-12.5457
▁inheritance	-12.5457
▁investigator	-12.5457
▁landmarks	-12.5457
▁liberty	-12.5457
▁louisiana	-12.5457
▁miracle	-12.5457
▁nightclub	-12.5457
▁persuaded	-12.5457
▁pharmacist	-12.5457
▁propane	-12.5457
▁recognition	-12.5457
▁reconsider	-12.5457
▁ridicule	-12.5457
▁spru	-12.5457
▁suspicion	-12.5457
▁traumatized	-12.5457
▁triumph	-12.5457
▁tumbling	-12.5457
▁walgreen	-12.5457
▁brainstorm	-12.5457
▁gloss	-12.5457
▁jaime	-12.5457
▁lonnie	-12.5457
▁nominated	-12.5457
▁scrubbing	-12.5457
▁superior	-12.5457
▁verbal	-12.5457
▁betrayed	-12.5457
▁doorstep	-12.5457
▁examination	-12.5457
▁meditate	-12.5457
▁paddling	-12.5457
▁warrior	-12.5457
▁restrain	-12.5457
▁slither	-12.5457
▁tinker	-12.5457
▁tobias	-12.5457
▁rotting	-12.5457
▁isaac	-12.5457
▁papa	-12.5457
▁valet	-12.5457
▁squirt	-12.5457
▁seattle	-12.5457
▁cvs	-12.5458
▁restrict	-12.5462
▁rattle	-12.5468
volu	-12.5472
▁desi	-12.5487
color	-12.5727
▁grate	-12.5785
swiped	-12.593
craft	-12.5971
▁replac	-12.5974
▁frown	-12.5983
▁ultimate	-12.6003
▁fluff	-12.6006
▁roach	-12.6009
▁stitch	-12.6009
▁occur	-12.6012
▁abruptly	-12.6012
▁acquaintance	-12.6012
▁altogether	-12.6012
▁backflip	-12.6012
▁barbershop	-12.6012
▁beagle	-12.6012
▁bronco	-12.6012
▁circuit	-12.6012
▁climate	-12.6012
▁constellations	-12.6012
▁curiosity	-12.6012
▁dictionary	-12.6012
▁disapprov	-12.6012
▁domestic	-12.6012
▁elijah	-12.6012
▁exposed	-12.6012
▁generator	-12.6012
▁grandkids	-12.6012
▁humming	-12.6012
▁hummingbird	-12.6012
▁insomnia	-12.6012
▁intelligence	-12.6012
▁intelligent	-12.6012
▁intervention	-12.6012
▁intruder	-12.6012
▁kendrick	-12.6012
▁ladybug	-12.6012
▁luxury	-12.6012
▁manuscript	-12.6012
▁mesmerized	-12.6012
▁midterm	-12.6012
▁mischievous	-12.6012
▁mormon	-12.6012
▁nashville	-12.6012
▁phoenix	-12.6012
▁roulette	-12.6012
▁rumbling	-12.6012
▁scavenge	-12.6012
▁scrabble	-12.6012
▁senator	-12.6012
▁sequel	-12.6012
▁seventeen	-12.6012
▁skidded	-12.6012
▁slumber	-12.6012
▁sobbing	-12.6012
▁sorority	-12.6012
▁spectacular	-12.6012
▁trading	-12.6012
▁trembled	-12.6012
▁unharmed	-12.6012
▁unloaded	-12.6012
▁unloading	-12.6012
▁vampire	-12.6012
▁virtual	-12.6012
▁wobbled	-12.6012
▁yeast	-12.6012
▁zucchini	-12.6012
▁cursing	-12.6012
▁defect	-12.6012
▁gerard	-12.6012
▁ordinary	-12.6012
▁statistics	-12.6012
▁bloated	-12.6012
▁fertiliz	-12.6012
▁frightening	-12.6012
▁overcame	-12.6012
▁pinata	-12.6012
▁plumbing	-12.6012
▁resembl	-12.6012
▁shivered	-12.6012
▁cleo	-12.6012
▁measurements	-12.6012
▁inhaler	-12.6012
▁agnes	-12.6012
▁scurrie	-12.6012
▁scroll	-12.6012
▁donating	-12.6012
▁skydive	-12.6012
▁grunt	-12.6012
▁squirm	-12.6012
▁vast	-12.6012
▁freshener	-12.6012
▁crouch	-12.6012
▁adapt	-12.6012
▁hattie	-12.6013
▁vital	-12.6013
▁peck	-12.6013
▁reef	-12.6013
▁latch	-12.6014
▁lodge	-12.6015
▁tiptoe	-12.6022
▁slap	-12.6027
▁crap	-12.6316
having	-12.6557
▁sprain	-12.6572
▁abandon	-12.6572
▁sci	-12.6573
▁compare	-12.658
▁motivate	-12.658
▁prepp	-12.6586
▁frida	-12.6593
▁organ	-12.6598
▁bankrupt	-12.66
▁remorse	-12.66
▁absence	-12.66
▁acrobat	-12.66
▁anatomy	-12.66
▁apologizing	-12.66
▁beehive	-12.66
▁bittersweet	-12.66
▁bodybuilder	-12.66
▁ceramic	-12.66
▁chiropractor	-12.66
▁cocoon	-12.66
▁crumpled	-12.66
▁dedication	-12.66
▁delicate	-12.66
▁diabetic	-12.66
▁doorknob	-12.66
▁dribbled	-12.66
▁drowsy	-12.66
▁dwight	-12.66
▁essential	-12.66
▁eyelashes	-12.66
▁felipe	-12.66
▁florence	-12.66
▁goodnight	-12.66
▁houston	-12.66
▁hygiene	-12.66
▁ignition	-12.66
▁investigating	-12.66
▁knight	-12.66
▁lightbulb	-12.66
▁montana	-12.66
▁negotiated	-12.66
▁obedience	-12.66
▁offensive	-12.66
▁platter	-12.66
▁portfolio	-12.66
▁procrastinating	-12.66
▁qualification	-12.66
▁ricardo	-12.66
▁scenic	-12.66
▁scoffed	-12.66
▁shepherd	-12.66
▁silvia	-12.66
▁squid	-12.66
▁steroids	-12.66
▁terrence	-12.66
▁unpleasant	-12.66
▁unsafe	-12.66
▁unwind	-12.66
▁vinyl	-12.66
▁wagged	-12.66
▁welcoming	-12.66
▁appalled	-12.66
▁boulder	-12.66
▁breathtaking	-12.66
▁devil	-12.66
▁fatigue	-12.66
▁horoscope	-12.66
▁inventory	-12.66
▁phrase	-12.66
▁recliner	-12.66
▁temptation	-12.66
▁hesitation	-12.66
▁intricate	-12.66
▁partially	-12.66
▁violation	-12.66
▁economics	-12.6601
▁hurdle	-12.6601
▁seatbelt	-12.6601
▁stutter	-12.6601
▁unfold	-12.6601
▁rearrange	-12.6601
▁gerry	-12.6601
▁mangoes	-12.6601
▁tightened	-12.6601
▁trashcan	-12.6601
▁otto	-12.6601
▁socket	-12.6601
▁sammie	-12.6601
▁atheist	-12.6601
▁barrier	-12.6601
▁cement	-12.6601
▁kart	-12.6601
▁shingle	-12.6601
▁showcase	-12.6601
▁jingle	-12.6602
▁brisk	-12.663
settling	-12.6764
▁marshmallow	-12.7079
cream	-12.7182
▁postpone	-12.7205
▁curse	-12.7205
▁diligent	-12.7217
▁architect	-12.7225
▁recreation	-12.7225
▁accompani	-12.7225
▁adept	-12.7225
▁apprehend	-12.7225
▁arthritis	-12.7225
▁aspect	-12.7225
▁association	-12.7225
▁bianca	-12.7225
▁bookmark	-12.7225
▁concession	-12.7225
▁confiscate	-12.7225
▁convenient	-12.7225
▁corporation	-12.7225
▁daphne	-12.7225
▁deflated	-12.7225
▁determination	-12.7225
▁discomfort	-12.7225
▁disposal	-12.7225
▁dissatisfied	-12.7225
▁economy	-12.7225
▁eligible	-12.7225
▁encouraging	-12.7225
▁enthralled	-12.7225
▁enthusiasm	-12.7225
▁escaping	-12.7225
▁flexibility	-12.7225
▁handshake	-12.7225
▁heartburn	-12.7225
▁heavier	-12.7225
▁identification	-12.7225
▁impulse	-12.7225
▁inflatable	-12.7225
▁ironically	-12.7225
▁jemma	-12.7225
▁jittery	-12.7225
▁kathryn	-12.7225
▁keisha	-12.7225
▁labrador	-12.7225
▁mascot	-12.7225
▁meanwhile	-12.7225
▁microsoft	-12.7225
▁nadia	-12.7225
▁naughty	-12.7225
▁nightstand	-12.7225
▁nowadays	-12.7225
▁ointment	-12.7225
▁oregon	-12.7225
▁overdraft	-12.7225
▁pitbull	-12.7225
▁preoccupied	-12.7225
▁presence	-12.7225
▁relentless	-12.7225
▁rummag	-12.7225
▁scheme	-12.7225
▁skull	-12.7225
▁splinter	-12.7225
▁staircase	-12.7225
▁stepfather	-12.7225
▁striking	-12.7225
▁tabatha	-12.7225
▁tactic	-12.7225
▁temporarily	-12.7225
▁tristan	-12.7225
▁tuxedo	-12.7225
▁vladimir	-12.7225
▁wagging	-12.7225
▁welfare	-12.7225
▁withdrew	-12.7225
▁fingerprint	-12.7225
▁fraction	-12.7225
▁frizz	-12.7225
▁gerbil	-12.7225
▁handcuff	-12.7225
▁harbor	-12.7225
▁margin	-12.7225
▁obligat	-12.7225
▁pyramid	-12.7225
▁rhyme	-12.7225
▁sightseeing	-12.7225
▁weightlifting	-12.7225
▁fax	-12.7225
▁flustered	-12.7225
▁kennedy	-12.7225
▁isolated	-12.7226
▁salvage	-12.7226
▁chute	-12.7226
▁downhill	-12.7226
▁handyman	-12.7226
▁pastries	-12.7226
▁cider	-12.7226
▁slave	-12.7226
▁thigh	-12.7226
▁churn	-12.7226
▁mistreat	-12.7226
▁redeem	-12.7226
▁nude	-12.7226
▁whip	-12.7226
▁syria	-12.7226
▁levi	-12.7226
▁prune	-12.7227
▁alexandr	-12.7228
rubbing	-12.7229
▁swipe	-12.7319
▁surge	-12.7815
▁aspirin	-12.7829
▁importan	-12.7832
respect	-12.7851
▁squeal	-12.7863
▁rinse	-12.7872
▁collapse	-12.7872
▁ufo	-12.7876
▁fortunate	-12.7883
▁philosoph	-12.7884
▁element	-12.7892
▁whisk	-12.7892
speople	-12.7892
