<unk>	0
<s>	0
</s>	0
<bos_en>	0
<bos_sp>	0
<bos_chn>	0
<bos>	0
<eos>	0
▁	-1.84667
.	-2.91691
	-3.35916
s	-4.43113
i	-4.47445
▁a	-4.57376
'	-4.58865
?	-4.68309
,	-4.80955
▁to	-4.87401
▁the	-4.87538
▁de	-5.04294
。	-5.12864
tom	-5.18525
t	-5.23629
▁you	-5.26296
▁que	-5.26631
▁is	-5.32917
▁la	-5.49193
¿	-5.6221
3	-5.68333
▁en	-5.71514
▁in	-5.72647
▁of	-5.75653
no	-5.78099
5	-5.79293
▁el	-5.79532
2	-5.79557
▁me	-5.82718
▁es	-5.87202
▁no	-5.89271
4	-5.91399
he	-5.91823
▁un	-5.92908
the	-5.95965
6	-6.07657
a	-6.13638
▁that	-6.14007
▁was	-6.18484
7	-6.32806
!	-6.33052
1	-6.34529
▁and	-6.3455
▁have	-6.35297
you	-6.36423
▁for	-6.37221
m	-6.37718
▁se	-6.37888
▁una	-6.38062
▁it	-6.38457
el	-6.42873
8	-6.47368
37	-6.50468
la	-6.50553
me	-6.50663
it	-6.51576
19	-6.51929
es	-6.52879
do	-6.53546
17	-6.54091
▁are	-6.54195
34	-6.54452
she	-6.54697
20	-6.57182
39	-6.57403
50	-6.5798
16	-6.58048
21	-6.59753
re	-6.60277
58	-6.60722
we	-6.60819
80	-6.60921
▁my	-6.61393
▁y	-6.61535
68	-6.6212
60	-6.63587
▁be	-6.64014
▁lo	-6.64075
▁not	-6.64355
47	-6.64459
40	-6.64816
▁con	-6.64893
46	-6.66105
70	-6.66191
86	-6.66196
57	-6.66339
22	-6.66785
▁on	-6.66828
▁with	-6.67719
33	-6.67876
d	-6.68264
n	-6.68873
45	-6.70007
51	-6.70436
48	-6.70767
12	-6.72588
▁tom	-6.72826
56	-6.73407
38	-6.73469
▁mary	-6.73528
13	-6.73561
49	-6.73761
79	-6.73827
35	-6.74116
89	-6.74576
14	-6.74705
59	-6.74755
36	-6.74876
▁can	-6.75069
▁your	-6.75118
▁por	-6.75186
23	-6.75475
90	-6.75722
77	-6.7578
10	-6.75949
63	-6.76371
54	-6.76646
15	-6.76839
85	-6.769
▁los	-6.77198
67	-6.77813
66	-6.78361
▁su	-6.78517
65	-6.78608
53	-6.78619
78	-6.78774
42	-6.7896
61	-6.79142
94	-6.79304
31	-6.79874
44	-6.79897
84	-6.8003
11	-6.8004
18	-6.80218
76	-6.80271
él	-6.81358
69	-6.81417
9	-6.81619
▁like	-6.81661
64	-6.81781
30	-6.81883
52	-6.82024
32	-6.82292
▁this	-6.82325
88	-6.82567
72	-6.82644
te	-6.82687
62	-6.82714
41	-6.82771
55	-6.82898
25	-6.83752
43	-6.83855
▁his	-6.84349
▁has	-6.85391
97	-6.85555
▁está	-6.85815
83	-6.86145
▁do	-6.86289
73	-6.86331
28	-6.86747
87	-6.86996
27	-6.87115
74	-6.87442
71	-6.88185
75	-6.89139
▁he	-6.894
▁don	-6.89631
▁para	-6.89941
81	-6.90521
▁at	-6.91597
26	-6.9166
91	-6.91762
的	-6.91918
95	-6.92003
96	-6.93614
我	-6.93984
29	-6.94741
what	-6.96165
98	-6.96366
▁want	-6.9665
92	-6.96939
▁know	-6.98537
▁más	-6.99275
24	-7.01527
93	-7.04494
ella	-7.06072
▁mi	-7.06286
▁al	-7.06427
this	-7.07173
99	-7.07534
▁las	-7.08114
▁her	-7.08392
了	-7.09903
▁him	-7.10973
82	-7.11708
ed	-7.12644
se	-7.16185
ll	-7.17488
ve	-7.178
r	-7.17931
▁go	-7.20747
▁will	-7.21483
¡	-7.21922
my	-7.22744
▁le	-7.22934
lo	-7.2341
▁del	-7.24653
they	-7.24771
02	-7.25506
06	-7.27655
09	-7.28456
他	-7.30793
ing	-7.31075
▁very	-7.31767
03	-7.32376
o	-7.3252
04	-7.32839
07	-7.34661
▁from	-7.35284
▁time	-7.35738
▁as	-7.35811
你	-7.36747
▁an	-7.36909
05	-7.37824
ó	-7.38315
en	-7.38854
▁up	-7.40225
▁all	-7.41007
qué	-7.41373
▁about	-7.42609
por	-7.43299
le	-7.44206
01	-7.4446
08	-7.44726
▁had	-7.45759
▁te	-7.48261
there	-7.4842
how	-7.4924
e	-7.49332
▁what	-7.49457
▁one	-7.50966
▁out	-7.51205
mi	-7.51807
▁muy	-7.52168
los	-7.52204
▁think	-7.52539
▁tu	-7.53635
▁but	-7.5365
▁by	-7.53953
▁so	-7.54706
don	-7.55569
▁tiene	-7.56155
▁here	-7.56603
"	-7.56615
▁son	-7.58015
▁qué	-7.58908
that	-7.59492
▁didn	-7.62088
▁como	-7.64508
▁going	-7.64993
▁good	-7.6727
00	-7.6765
▁get	-7.6766
▁were	-7.69044
-	-7.70597
▁than	-7.71101
c	-7.71436
is	-7.71738
yo	-7.7269
▁casa	-7.74133
mary	-7.74435
ta	-7.75636
▁did	-7.7592
▁more	-7.763
▁hacer	-7.78246
in	-7.78791
▁ha	-7.79779
▁"	-7.80167
她	-7.80286
▁am	-7.80606
▁come	-7.82641
▁we	-7.82663
▁see	-7.82804
▁fue	-7.83236
▁been	-7.83708
▁should	-7.8424
▁there	-7.84611
de	-7.84939
▁doesn	-7.86757
在	-7.86796
▁need	-7.87898
estoy	-7.88074
0	-7.88759
y	-7.90501
if	-7.90645
▁estaba	-7.90662
是	-7.90788
as	-7.91433
▁us	-7.91515
▁would	-7.91863
▁gusta	-7.92278
why	-7.93851
▁just	-7.95156
▁tiempo	-7.95158
▁much	-7.95207
▁aquí	-7.95593
▁pero	-7.97014
▁esta	-7.98342
▁people	-7.98373
ly	-7.98742
▁never	-7.99306
▁too	-7.99468
are	-7.99905
▁car	-8.00845
▁day	-8.00933
▁got	-8.01652
▁tan	-8.02548
▁now	-8.03006
▁when	-8.03164
▁ser	-8.03211
can	-8.03375
ar	-8.03593
▁eso	-8.0365
▁mucho	-8.04506
al	-8.05274
▁vez	-8.05297
▁todo	-8.06037
▁bien	-8.06209
▁nada	-8.07595
▁work	-8.08438
▁favor	-8.08938
▁help	-8.0932
mos	-8.09354
264	-8.09433
▁or	-8.09605
let	-8.10926
▁si	-8.1256
where	-8.12669
▁said	-8.12832
▁algo	-8.13424
▁love	-8.13426
las	-8.1422
▁este	-8.14471
when	-8.14514
▁who	-8.14577
tengo	-8.15862
▁man	-8.16593
please	-8.16997
▁home	-8.17247
da	-8.17491
▁last	-8.17539
▁if	-8.17609
▁era	-8.17875
▁only	-8.18129
▁puede	-8.18205
▁book	-8.18276
▁él	-8.1883
▁always	-8.19523
▁take	-8.19532
▁ir	-8.20278
er	-8.20539
▁some	-8.20575
▁sus	-8.20672
who	-8.20738
▁back	-8.21309
▁new	-8.21323
▁money	-8.21609
este	-8.22206
▁really	-8.2223
su	-8.23088
▁she	-8.23351
▁any	-8.24151
▁speak	-8.24338
▁house	-8.24502
▁two	-8.24512
不	-8.24596
esta	-8.2491
▁puedo	-8.25023
▁many	-8.25789
▁cuando	-8.26614
to	-8.26831
▁say	-8.27193
▁must	-8.27378
g	-8.27473
▁tell	-8.27725
un	-8.27852
▁right	-8.28931
▁them	-8.29208
▁lot	-8.2965
▁our	-8.29693
▁something	-8.29933
▁make	-8.2997
hay	-8.30035
quiero	-8.30722
▁o	-8.31
▁isn	-8.3112
133	-8.31262
▁eat	-8.32127
an	-8.33177
."	-8.3375
▁made	-8.33984
▁went	-8.35146
▁long	-8.35765
汤姆	-8.35765
▁they	-8.36039
si	-8.36352
▁could	-8.36496
▁school	-8.36956
▁dos	-8.36987
é	-8.38266
▁well	-8.38306
▁día	-8.38438
▁hablar	-8.38819
166	-8.39393
▁mejor	-8.40086
▁room	-8.40219
▁trabajo	-8.40287
224	-8.40413
▁still	-8.40482
ba	-8.4146
▁anything	-8.41568
▁told	-8.41845
▁boston	-8.41914
▁mañana	-8.43316
did	-8.43537
▁today	-8.44044
on	-8.44302
▁dinero	-8.44303
▁vida	-8.44843
有	-8.44954
▁english	-8.44954
▁old	-8.44995
▁dijo	-8.45288
▁father	-8.45314
吗	-8.45388
▁sin	-8.45619
▁better	-8.45794
ya	-8.45865
▁va	-8.46032
人	-8.46338
▁yo	-8.46357
▁over	-8.46413
▁into	-8.46418
112	-8.46444
▁life	-8.46462
▁their	-8.47015
▁how	-8.4733
▁off	-8.47436
▁años	-8.47517
▁way	-8.4788
▁three	-8.4798
▁ver	-8.48008
▁todos	-8.48185
174	-8.48622
▁french	-8.48863
▁years	-8.49164
his	-8.49295
▁libro	-8.49576
os	-8.49613
▁hay	-8.49686
▁live	-8.50113
160	-8.5014
▁night	-8.5076
▁están	-8.5091
▁before	-8.51582
have	-8.51924
▁little	-8.52607
cómo	-8.52696
▁tomorrow	-8.53066
168	-8.53317
▁won	-8.53349
▁esto	-8.53675
▁hace	-8.55172
▁thought	-8.55179
nos	-8.55757
▁left	-8.55804
ellos	-8.56118
169	-8.56449
我们	-8.56896
139	-8.56986
▁first	-8.57058
▁solo	-8.57078
ndo	-8.57482
?"	-8.57711
204	-8.57774
▁sobre	-8.58212
187	-8.58376
▁tengo	-8.58395
eso	-8.58402
▁every	-8.58639
ado	-8.58641
ro	-8.58812
▁poco	-8.58924
dónde	-8.59192
▁other	-8.59216
上	-8.60156
▁había	-8.60231
creo	-8.60373
嗎	-8.60559
188	-8.61104
á	-8.61194
▁world	-8.61281
149	-8.61411
ra	-8.61644
▁down	-8.61929
178	-8.62093
170	-8.62379
505	-8.63305
450	-8.63672
▁hombre	-8.64166
soy	-8.64445
159	-8.64651
186	-8.64682
:	-8.64692
;	-8.64697
189	-8.64864
113	-8.6498
▁came	-8.65111
118	-8.65173
一	-8.65273
227	-8.65332
▁does	-8.65543
205	-8.66822
▁mundo	-8.66943
▁idea	-8.66977
▁dog	-8.67038
▁again	-8.67059
▁talk	-8.6706
l	-8.67178
▁mother	-8.67751
▁buy	-8.67875
▁understand	-8.68359
her	-8.68774
▁demasiado	-8.68861
▁because	-8.69059
145	-8.69273
quién	-8.69441
▁play	-8.69491
▁siempre	-8.69646
mente	-8.6965
▁quiero	-8.6995
382	-8.70071
▁read	-8.70315
▁haber	-8.7071
我們	-8.70797
f	-8.70861
▁quiere	-8.71111
167	-8.71523
▁padre	-8.71753
▁mis	-8.72057
▁mí	-8.72244
▁saw	-8.72431
509	-8.72447
▁antes	-8.72524
好	-8.72585
106	-8.72741
176	-8.72782
130	-8.73023
▁yesterday	-8.73177
▁estar	-8.7319
182	-8.7338
▁put	-8.735
209	-8.73715
去	-8.73966
155	-8.74646
▁tres	-8.74848
▁find	-8.74861
▁estoy	-8.75016
▁give	-8.75105
108	-8.75193
▁already	-8.75257
164	-8.75652
▁francés	-8.75657
▁hard	-8.7577
206	-8.76079
153	-8.76126
▁tarde	-8.76264
▁friend	-8.76351
sé	-8.76697
▁friends	-8.76922
all	-8.77189
▁name	-8.77199
我的	-8.77287
▁gente	-8.77486
109	-8.77747
▁ahora	-8.77774
156	-8.77827
▁sabe	-8.77849
▁asked	-8.78096
▁look	-8.78348
136	-8.7847
湯姆	-8.78482
▁noche	-8.78797
190	-8.79164
▁nothing	-8.79174
▁water	-8.79302
▁after	-8.7949
449	-8.79729
ía	-8.79926
▁next	-8.79956
▁job	-8.80041
200	-8.80319
504	-8.8046
▁wanted	-8.80471
ca	-8.80509
p	-8.80637
275	-8.80734
go	-8.80909
▁without	-8.81223
▁children	-8.81249
▁ella	-8.81433
tienes	-8.81726
tu	-8.82024
很	-8.8209
▁128	-8.82492
▁happy	-8.82574
148	-8.8265
▁used	-8.8291
todos	-8.83381
▁inglés	-8.83815
123	-8.83914
▁plan	-8.84057
your	-8.84064
está	-8.84075
▁hizo	-8.8421
114	-8.844
▁ti	-8.84413
▁ever	-8.84868
▁everything	-8.84891
▁leave	-8.85186
▁nunca	-8.8524
ma	-8.85452
▁tenía	-8.86022
esto	-8.8611
b	-8.86178
ga	-8.86314
▁doctor	-8.86327
▁nuevo	-8.86467
▁doing	-8.86473
▁took	-8.86482
▁feel	-8.86753
▁mismo	-8.8686
eres	-8.87105
和	-8.8738
▁away	-8.87416
▁year	-8.87453
117	-8.87553
236	-8.87629
▁bought	-8.87969
▁verdad	-8.88146
▁morning	-8.88272
▁call	-8.88663
500	-8.88891
▁where	-8.88909
152	-8.88957
▁best	-8.89559
▁decir	-8.89759
nunca	-8.89844
▁beautiful	-8.89863
▁lost	-8.89959
183	-8.90073
▁believe	-8.90206
▁comer	-8.90354
▁gave	-8.90357
▁nos	-8.9045
▁perro	-8.90563
▁hecho	-8.90597
225	-8.91149
▁sé	-8.91323
▁brother	-8.91978
140	-8.92031
208	-8.92267
▁things	-8.92361
▁door	-8.92386
▁así	-8.92697
has	-8.927
▁coche	-8.93021
▁teacher	-8.93119
111	-8.93126
100	-8.93499
▁use	-8.93828
996	-8.93847
▁language	-8.94215
▁hora	-8.94323
▁ya	-8.94403
大	-8.95107
到	-8.95127
▁problem	-8.95296
que	-8.9531
▁120	-8.95356
这	-8.95371
778	-8.95638
179	-8.96105
▁usted	-8.96179
▁sea	-8.96426
gún	-8.96506
266	-8.96754
115	-8.96881
要	-8.97359
146	-8.9744
▁learn	-8.97814
▁ese	-8.9801
cada	-8.98037
▁soon	-8.98151
be	-8.98214
子	-8.98233
157	-8.98251
cuando	-8.98462
▁same	-8.98506
▁madre	-8.98538
905	-8.98677
796	-8.98787
▁bad	-8.98899
184	-8.99003
▁días	-8.99075
▁john	-8.9929
▁being	-8.99325
cuál	-8.99453
▁wants	-8.99457
134	-8.99839
▁cosas	-8.99852
▁sure	-8.99882
599	-8.9998
▁agua	-9.00099
▁train	-9.00207
就	-9.00221
▁found	-9.00315
▁porque	-9.00344
116	-9.0052
那	-9.00662
our	-9.00692
147	-9.01046
▁132	-9.01155
▁may	-9.01406
▁stay	-9.01462
▁late	-9.01752
▁hope	-9.01907
104	-9.02047
294	-9.02051
235	-9.0229
▁person	-9.02363
ando	-9.02448
▁cold	-9.02639
pe	-9.03023
▁uno	-9.03642
▁most	-9.03856
▁hoy	-9.03877
puedo	-9.03995
▁girl	-9.04181
puedes	-9.04336
▁estado	-9.04341
271	-9.0436
247	-9.04389
ce	-9.04684
vi	-9.04767
▁soy	-9.05046
▁thing	-9.0519
ese	-9.05406
▁often	-9.05416
▁bus	-9.06069
yanni	-9.06103
▁menos	-9.06108
366	-9.0621
able	-9.06323
▁gustaría	-9.06391
▁done	-9.06483
▁otra	-9.06483
ción	-9.06621
▁mal	-9.06805
199	-9.06849
273	-9.06859
ha	-9.06911
▁couldn	-9.06914
300	-9.06914
ron	-9.06961
119	-9.07099
▁117	-9.07541
▁wrong	-9.07566
▁boy	-9.0759
400	-9.07736
667	-9.07949
estás	-9.08076
con	-9.08308
k	-9.08398
▁problema	-9.08663
390	-9.08737
得	-9.08876
▁week	-9.08886
tú	-9.0893
▁ask	-9.09266
▁estás	-9.09266
▁quería	-9.09267
110	-9.09291
376	-9.09392
290	-9.09504
▁100	-9.09515
150	-9.09628
▁country	-9.09707
▁cannot	-9.09768
606	-9.09883
▁big	-9.0999
▁own	-9.10294
▁great	-9.10347
▁enough	-9.10463
▁ciudad	-9.10503
▁niños	-9.10625
era	-9.10703
把	-9.10789
▁bed	-9.10799
995	-9.11139
na	-9.11169
▁tú	-9.11343
cuándo	-9.11517
▁yet	-9.11524
你的	-9.11543
201	-9.11556
una	-9.11762
144	-9.11831
▁around	-9.11856
▁ni	-9.12232
come	-9.12322
▁amigos	-9.12367
▁esa	-9.1242
▁looking	-9.12553
700	-9.12847
▁escuela	-9.12862
▁cat	-9.12915
▁seen	-9.12998
▁127	-9.13001
▁fuera	-9.13229
▁please	-9.13235
▁ten	-9.13275
做	-9.13299
569	-9.13396
ada	-9.13416
▁gran	-9.13619
▁drink	-9.13908
▁veces	-9.14234
í	-9.14636
▁likes	-9.14692
900	-9.1477
▁place	-9.14815
299	-9.1491
so	-9.14936
120	-9.15081
cu	-9.15252
608	-9.15357
▁hear	-9.15709
▁amigo	-9.15833
would	-9.15859
▁sleep	-9.1593
u	-9.16028
▁puerta	-9.1612
997	-9.16154
▁study	-9.16162
▁true	-9.16341
▁food	-9.16544
▁knows	-9.16655
▁maría	-9.16678
▁books	-9.16803
用	-9.16822
999	-9.16944
at	-9.17087
354	-9.17089
282	-9.17162
吃	-9.1718
▁nadie	-9.17196
todo	-9.17252
▁buen	-9.17303
▁niño	-9.17363
▁semana	-9.17464
▁remember	-9.17608
▁119	-9.17707
▁personas	-9.17731
▁married	-9.17761
会	-9.1777
607	-9.17858
▁comprar	-9.1786
▁pasado	-9.17913
▁show	-9.18033
地	-9.18037
voy	-9.18046
▁alone	-9.18135
▁young	-9.18372
107	-9.18459
▁debería	-9.1848
387	-9.18502
▁hacerlo	-9.18505
▁otro	-9.18603
▁stop	-9.18792
▁año	-9.18928
600	-9.19018
▁voy	-9.19203
th	-9.19327
226	-9.19467
nadie	-9.19732
▁heard	-9.19931
▁even	-9.20235
co	-9.20306
498	-9.20385
▁tired	-9.20444
one	-9.20534
596	-9.20622
▁ayuda	-9.20668
151	-9.2071
▁sister	-9.2082
▁tanto	-9.20835
tomás	-9.20846
▁happened	-9.21217
670	-9.2124
585	-9.21271
▁buena	-9.21357
▁letter	-9.21581
▁city	-9.21591
他的	-9.21652
▁nombre	-9.21692
▁parece	-9.21732
pi	-9.21811
102	-9.21877
▁también	-9.22065
▁entre	-9.22311
▁difícil	-9.22397
181	-9.22443
377	-9.22454
507	-9.22639
▁coffee	-9.22936
105	-9.22955
▁tener	-9.23126
▁days	-9.23177
993	-9.23178
▁while	-9.23187
来	-9.23199
287	-9.23605
想	-9.23748
▁such	-9.23869
▁another	-9.24465
hoy	-9.24631
143	-9.24734
▁busy	-9.24861
597	-9.24979
888	-9.25048
▁once	-9.25343
para	-9.25494
391	-9.25584
▁party	-9.25727
▁desde	-9.25777
▁hermano	-9.25833
302	-9.25964
998	-9.26111
▁able	-9.26226
▁looks	-9.26279
▁mind	-9.26374
▁afraid	-9.26695
▁habitación	-9.2692
288	-9.27192
▁kind	-9.27294
z	-9.27297
sami	-9.27301
▁cuenta	-9.27891
▁care	-9.28128
les	-9.28168
380	-9.28211
▁answer	-9.28267
▁tienen	-9.28331
▁australia	-9.28442
▁persona	-9.28514
▁open	-9.28517
297	-9.28661
necesito	-9.28747
cuánto	-9.28903
440	-9.29187
▁tus	-9.29306
779	-9.29363
▁wish	-9.29389
121	-9.29624
▁woman	-9.29869
635	-9.29914
▁far	-9.29926
▁mujer	-9.29952
▁habla	-9.29957
487	-9.30037
▁child	-9.30243
609	-9.30373
401	-9.30404
ahora	-9.30413
259	-9.30512
▁these	-9.30516
▁family	-9.30562
285	-9.30801
看	-9.30909
▁parents	-9.30986
103	-9.31043
970	-9.31177
▁allí	-9.31229
说	-9.31335
▁seguro	-9.31418
919	-9.31791
ir	-9.31891
▁keep	-9.31967
▁hotel	-9.31975
▁103	-9.32417
▁truth	-9.3246
918	-9.3277
308	-9.32866
这个	-9.32994
293	-9.33087
tenemos	-9.33347
▁wife	-9.33536
tiene	-9.33552
▁rain	-9.33564
408	-9.33574
▁called	-9.33591
被	-9.33599
almost	-9.33684
593	-9.33855
▁knew	-9.33862
does	-9.33992
下	-9.34027
他们	-9.34083
這	-9.34142
▁important	-9.34217
▁después	-9.34222
▁lugar	-9.34437
1006	-9.3448
▁few	-9.34517
▁dice	-9.34526
▁129	-9.34579
li	-9.34705
siempre	-9.34768
▁nosotros	-9.34869
solo	-9.34883
▁comida	-9.34948
or	-9.35069
▁let	-9.35204
▁japanese	-9.35438
▁puedes	-9.35526
▁auto	-9.35529
659	-9.35573
▁saber	-9.35741
▁dio	-9.35851
1027	-9.35874
都	-9.35915
▁died	-9.35974
703	-9.3601
▁124	-9.36068
▁alguien	-9.3614
▁ago	-9.3617
799	-9.36277
▁easy	-9.36534
▁haven	-9.36567
son	-9.36587
▁difficult	-9.36618
▁quieres	-9.36625
▁pay	-9.36641
▁visto	-9.36782
▁lives	-9.36895
▁hospital	-9.36904
▁five	-9.36953
ste	-9.37461
256	-9.37462
▁grande	-9.37501
800	-9.3751
▁each	-9.37535
994	-9.37796
▁feliz	-9.38064
▁reading	-9.38104
1009	-9.38123
▁141	-9.38182
tell	-9.38384
中	-9.38543
▁accident	-9.38556
298	-9.38686
▁143	-9.38835
mo	-9.39077
esa	-9.39287
▁tren	-9.39436
▁duran	-9.39495
▁watch	-9.39523
ch	-9.39526
877	-9.39562
▁which	-9.39679
▁sabía	-9.39682
▁han	-9.39725
738	-9.39727
▁yourself	-9.39786
everyone	-9.40071
▁getting	-9.40343
▁wait	-9.40396
▁leer	-9.40426
man	-9.40469
▁word	-9.405
dos	-9.40751
▁phone	-9.40824
444	-9.41076
nobody	-9.41194
▁todas	-9.41347
estaba	-9.41411
吧	-9.41453
these	-9.41558
ven	-9.41642
您	-9.41702
▁those	-9.4202
▁muchos	-9.42182
▁107	-9.42277
▁hand	-9.42317
▁talking	-9.42376
po	-9.42481
1002	-9.42485
▁early	-9.42495
▁tried	-9.42637
▁try	-9.42647
▁music	-9.42923
來	-9.43016
▁café	-9.43016
▁japan	-9.43072
could	-9.43151
工作	-9.43227
▁small	-9.43253
▁write	-9.43365
▁eyes	-9.43535
pensé	-9.43561
▁país	-9.4366
for	-9.43672
▁historia	-9.43683
▁144	-9.4395
1019	-9.43994
▁quién	-9.44045
▁under	-9.44089
▁seems	-9.44161
▁bueno	-9.4429
▁libros	-9.44346
能	-9.44476
407	-9.4461
▁ayer	-9.44736
會	-9.44847
w	-9.4516
948	-9.45162
ation	-9.45183
▁di	-9.45266
▁vino	-9.45268
▁question	-9.45298
▁eating	-9.45304
▁gustan	-9.45379
▁tienes	-9.45393
▁encontrar	-9.45422
▁matter	-9.45427
▁coming	-9.45579
ting	-9.45604
▁change	-9.45708
▁started	-9.45751
ted	-9.45768
▁hermana	-9.45973
638	-9.45986
us	-9.46086
▁110	-9.46181
▁table	-9.46591
▁cómo	-9.46602
some	-9.46633
▁walk	-9.46804
▁conmigo	-9.46899
▁clase	-9.46937
▁momento	-9.46958
▁pronto	-9.47261
▁aprender	-9.47413
va	-9.47434
▁together	-9.47447
▁red	-9.47643
▁someone	-9.4793
ja	-9.47966
▁fiesta	-9.48141
puede	-9.48278
▁haciendo	-9.48416
▁gato	-9.48477
ic	-9.48584
ten	-9.48776
着	-9.48791
698	-9.48827
todavía	-9.48927
▁until	-9.49052
▁looked	-9.4928
家	-9.49322
▁140	-9.49331
▁anyone	-9.49338
fue	-9.4934
▁miedo	-9.49531
▁might	-9.49671
▁toda	-9.49728
▁met	-9.49772
666	-9.49785
713	-9.49845
▁hours	-9.49911
▁familia	-9.50167
pa	-9.50175
▁says	-9.50253
878	-9.50415
▁hair	-9.50438
說	-9.50505
less	-9.5054
▁forget	-9.50596
will	-9.50608
▁sido	-9.50636
▁rápido	-9.50655
▁tv	-9.50655
▁150	-9.50941
▁ex	-9.51134
1024	-9.5137
▁then	-9.51455
▁mayor	-9.51505
▁diez	-9.51519
▁playing	-9.51847
▁hijo	-9.51898
▁fácil	-9.51922
▁turn	-9.52039
▁through	-9.52049
▁vas	-9.5211
▁padres	-9.5215
tra	-9.5218
ni	-9.52192
▁contigo	-9.52226
▁myself	-9.52514
980	-9.52522
estamos	-9.52561
which	-9.52637
j	-9.52676
▁cama	-9.52699
▁else	-9.52727
▁end	-9.52764
▁alguna	-9.52819
x	-9.52845
550	-9.5286
▁month	-9.5292
▁class	-9.52931
▁himself	-9.52949
967	-9.53256
▁carta	-9.53269
▁why	-9.53374
▁fire	-9.53438
多	-9.53493
▁dejar	-9.53674
▁since	-9.53685
▁hot	-9.53692
▁tomar	-9.53749
268	-9.53762
比	-9.53773
▁vive	-9.5379
▁mine	-9.53796
101	-9.53808
▁les	-9.54031
may	-9.54033
▁nuestra	-9.54128
這個	-9.54137
▁parte	-9.54204
885	-9.54336
260	-9.54472
977	-9.54474
▁china	-9.5458
▁joven	-9.54705
espero	-9.54742
▁white	-9.54767
▁muchas	-9.54843
▁station	-9.54853
事	-9.54873
▁podía	-9.5504
973	-9.55089
▁nueva	-9.55124
1008	-9.5519
take	-9.55205
▁aren	-9.55273
▁ahí	-9.55384
▁color	-9.55446
▁dream	-9.55505
▁meet	-9.5554
▁number	-9.55597
小	-9.55682
▁hate	-9.55697
▁música	-9.55743
▁drive	-9.55796
906	-9.5584
968	-9.56021
1001	-9.56049
我想	-9.56079
▁sick	-9.56084
▁meeting	-9.56109
fa	-9.5617
▁fin	-9.56194
▁cosa	-9.56218
▁vivir	-9.56349
▁words	-9.56549
▁profesor	-9.56564
give	-9.56641
▁podría	-9.56852
▁dinner	-9.57014
▁part	-9.57064
▁salir	-9.57102
ity	-9.572
ment	-9.57288
▁casi	-9.57553
▁105	-9.57733
▁fast	-9.57743
verdad	-9.57751
án	-9.58235
ne	-9.58298
ver	-9.58341
▁swim	-9.58462
quieres	-9.58559
▁donde	-9.58625
▁primera	-9.58687
▁free	-9.58726
sabes	-9.58902
▁bit	-9.58905
▁working	-9.58921
▁also	-9.58922
▁importante	-9.58957
里	-9.59165
▁eres	-9.59209
▁accidente	-9.59227
▁students	-9.5931
▁per	-9.59565
aron	-9.59571
▁war	-9.59583
▁game	-9.5964
▁face	-9.59654
▁happen	-9.60071
▁cinco	-9.60198
▁between	-9.60266
est	-9.60541
879	-9.60549
▁pregunta	-9.60654
cha	-9.60697
▁anymore	-9.60795
▁contra	-9.60873
▁visit	-9.60895
975	-9.61065
▁nuestro	-9.61106
parece	-9.61336
▁real	-9.61359
▁start	-9.61515
bo	-9.61598
对	-9.616
je	-9.61773
▁nice	-9.61863
沒有	-9.61888
▁die	-9.61925
aba	-9.62077
fi	-9.62263
▁both	-9.6238
▁makes	-9.62448
▁sentence	-9.6254
▁vi	-9.62559
出	-9.62598
▁goes	-9.62633
他們	-9.6277
and	-9.63003
▁wouldn	-9.6309
ion	-9.6312
886	-9.63224
▁amor	-9.63266
▁pueden	-9.63455
▁todavía	-9.63702
v	-9.63773
▁times	-9.63797
▁angry	-9.63816
898	-9.63872
▁heart	-9.63874
▁milk	-9.63894
▁dis	-9.63936
tion	-9.64008
▁finished	-9.64033
▁llegar	-9.64043
▁high	-9.64076
▁waiting	-9.64391
▁chinese	-9.64428
clock	-9.64468
▁cerca	-9.64536
▁125	-9.64585
▁dónde	-9.64607
▁light	-9.64839
▁its	-9.64848
▁forma	-9.64887
▁policía	-9.64954
▁fell	-9.65001
▁fun	-9.65083
▁present	-9.652
▁pretty	-9.65358
▁rich	-9.65413
▁become	-9.65506
▁101	-9.65524
没有	-9.65611
▁debe	-9.65687
▁lunch	-9.65775
▁favorite	-9.65782
ru	-9.65836
▁street	-9.6594
▁piano	-9.6594
▁horas	-9.66065
▁run	-9.66078
▁acuerdo	-9.66105
▁hurt	-9.66238
749	-9.66289
▁trabajar	-9.66364
▁ready	-9.66369
一个	-9.66487
▁tonight	-9.6654
▁teléfono	-9.66603
das	-9.6667
▁134	-9.66752
▁park	-9.66761
il	-9.6681
▁death	-9.6687
▁ojos	-9.6689
▁alto	-9.66991
▁comes	-9.67046
不要	-9.67087
▁story	-9.67128
deberías	-9.67262
▁weather	-9.6727
▁siento	-9.6733
get	-9.67557
hi	-9.67665
▁living	-9.67726
680	-9.67943
jo	-9.67981
▁sólo	-9.68027
ul	-9.68051
▁minutes	-9.68117
▁jugar	-9.68145
▁having	-9.68156
▁tipo	-9.68162
▁gone	-9.68276
▁fuerte	-9.6828
▁dormir	-9.68286
many	-9.68301
▁hijos	-9.68497
ón	-9.68618
ayer	-9.68674
rá	-9.68705
▁mar	-9.68706
▁mano	-9.68764
▁sol	-9.68766
▁problemas	-9.69
▁sí	-9.69001
再	-9.69015
▁arrived	-9.69199
的人	-9.69225
▁full	-9.69271
▁movie	-9.69485
▁police	-9.69633
▁fish	-9.69675
▁computer	-9.70016
▁sorry	-9.70033
ación	-9.70075
▁god	-9.70282
▁co	-9.70303
▁window	-9.70319
▁importa	-9.70402
754	-9.70414
cia	-9.70575
1020	-9.706
▁decided	-9.70719
▁dur	-9.7082
amos	-9.70907
▁pasar	-9.70953
▁palabras	-9.70988
▁against	-9.71388
▁born	-9.71439
▁bastante	-9.71544
▁acerca	-9.71546
▁palabra	-9.71577
▁office	-9.71642
▁languages	-9.71697
▁river	-9.72069
▁ran	-9.72107
ge	-9.7218
▁men	-9.72199
▁razón	-9.72245
▁dicho	-9.72251
john	-9.72517
355	-9.72597
▁shoes	-9.72705
vo	-9.72906
过	-9.72956
▁different	-9.73129
789	-9.73359
▁ayudar	-9.73457
▁others	-9.73474
"¿	-9.73565
▁necesita	-9.73618
▁broke	-9.73716
ré	-9.7372
▁estudiar	-9.73858
不是	-9.74172
▁mesa	-9.74246
678	-9.74256
▁camino	-9.74561
za	-9.74667
也	-9.74697
▁snow	-9.74744
▁usually	-9.74827
ur	-9.74915
▁felt	-9.751
知道	-9.75299
▁close	-9.75453
▁needs	-9.75592
▁error	-9.7568
心	-9.75697
▁japón	-9.75729
▁student	-9.75729
▁quite	-9.75842
emos	-9.75916
idad	-9.75992
点	-9.76024
▁mientras	-9.76026
1074	-9.76072
▁cost	-9.76136
1004	-9.76262
▁tree	-9.76841
▁studying	-9.76866
1007	-9.77112
▁capital	-9.77154
▁pre	-9.77205
天	-9.77243
▁venir	-9.77298
▁daughter	-9.77481
ciones	-9.77576
没	-9.77673
我在	-9.7777
▁longer	-9.77781
▁summer	-9.7787
▁viene	-9.77881
ter	-9.77966
▁realmente	-9.77993
▁punto	-9.78041
▁menudo	-9.78248
▁sun	-9.78333
▁short	-9.78402
可以	-9.78629
手	-9.79167
dor	-9.79178
什么	-9.79224
▁trying	-9.79268
".	-9.79474
過	-9.79556
321	-9.7961
stop	-9.79661
▁lengua	-9.79669
▁company	-9.7973
bu	-9.79876
892	-9.79998
h	-9.80069
▁monday	-9.80111
水	-9.80298
1005	-9.80399
▁town	-9.8041
▁head	-9.80626
▁six	-9.80938
▁pasó	-9.81044
▁baby	-9.81068
▁black	-9.81147
▁tea	-9.81304
1036	-9.81367
ate	-9.81386
740	-9.81414
▁radio	-9.81453
▁interesting	-9.81472
alguien	-9.81491
▁breakfast	-9.81518
1078	-9.81606
▁lleva	-9.81615
▁win	-9.81622
▁cabeza	-9.81646
du	-9.81687
▁age	-9.81803
▁everyone	-9.81836
ban	-9.81877
“	-9.82011
▁homework	-9.82039
gracias	-9.82066
▁ellos	-9.82128
▁turned	-9.82341
▁lado	-9.82414
▁temprano	-9.8242
▁escribir	-9.8249
debería	-9.82577
look	-9.82606
行	-9.82609
▁falta	-9.82664
▁puso	-9.82773
▁dar	-9.82813
yes	-9.8282
▁será	-9.82928
▁dios	-9.82968
ho	-9.83096
它	-9.83207
▁afternoon	-9.83399
▁large	-9.83513
▁pro	-9.83517
▁hands	-9.83653
▁tuvo	-9.83778
▁picture	-9.83786
▁número	-9.83793
1061	-9.83856
▁calle	-9.83871
▁speaks	-9.83971
▁vio	-9.84081
tor	-9.84112
▁trouble	-9.84188
▁pan	-9.84192
1055	-9.84216
▁dead	-9.84222
ers	-9.84278
aquí	-9.84287
hace	-9.84433
mis	-9.84458
nte	-9.84532
▁guerra	-9.84586
▁único	-9.84586
▁película	-9.84587
▁misma	-9.8471
sí	-9.84736
▁kill	-9.84844
just	-9.84927
▁mistake	-9.85093
▁order	-9.85119
走	-9.85207
1035	-9.85241
today	-9.85254
▁esposa	-9.85586
▁tennis	-9.85586
▁pelo	-9.85647
▁última	-9.85707
一個	-9.85783
▁mean	-9.85787
▁frío	-9.85787
▁rest	-9.85793
▁cake	-9.8599
▁ocupado	-9.86023
▁killed	-9.8607
▁estaban	-9.86103
ble	-9.86144
玛丽	-9.8619
▁hombres	-9.86386
▁hubiera	-9.86395
usted	-9.8663
▁volver	-9.86678
891	-9.86721
como	-9.8676
even	-9.8686
put	-9.86861
▁four	-9.86871
1010	-9.87001
▁muerte	-9.87003
mu	-9.87059
▁dejó	-9.87124
ac	-9.87146
▁cansado	-9.87224
从	-9.87408
▁tatoeba	-9.87519
▁moment	-9.8753
▁lived	-9.87702
▁secret	-9.87719
▁saying	-9.87748
▁murió	-9.87841
people	-9.87884
▁cut	-9.88149
maría	-9.88231
▁began	-9.88234
▁nadar	-9.88587
after	-9.88616
▁prefer	-9.88643
deja	-9.88653
taking	-9.88672
▁hour	-9.88705
▁manera	-9.88769
ty	-9.88813
▁making	-9.88926
▁fall	-9.8899
▁earth	-9.89065
▁box	-9.89219
▁stupid	-9.8948
自己	-9.89541
ría	-9.89687
▁unos	-9.89776
▁watching	-9.89803
▁chance	-9.89901
▁leche	-9.89976
她的	-9.89988
▁estación	-9.8999
▁minutos	-9.90094
▁ate	-9.90184
▁nin	-9.90285
▁became	-9.9032
▁final	-9.9035
▁reason	-9.90377
▁esperanto	-9.90392
gu	-9.904
▁creo	-9.90458
▁dictionary	-9.9053
▁store	-9.90537
vamos	-9.90697
▁popular	-9.90742
time	-9.90835
▁lunes	-9.90953
qu	-9.91034
▁idioma	-9.91251
▁usar	-9.91357
呢	-9.91378
▁bring	-9.9144
▁older	-9.91499
太	-9.91546
▁later	-9.91554
▁wrote	-9.91592
▁río	-9.91815
▁suficiente	-9.91862
前	-9.9198
打	-9.91996
▁cualquier	-9.92141
▁possible	-9.92234
为	-9.92486
▁bajo	-9.92531
▁loves	-9.92589
mor	-9.92612
▁fueron	-9.92631
every	-9.92632
1016	-9.92633
▁near	-9.92641
▁listen	-9.92734
hemos	-9.92879
▁edad	-9.92888
▁mucha	-9.92985
▁quien	-9.93091
▁whole	-9.93289
▁unidos	-9.9332
▁esperar	-9.93332
▁plane	-9.9334
▁chica	-9.93414
▁queda	-9.9344
▁llevar	-9.93616
▁dark	-9.93731
▁encanta	-9.93825
▁miss	-9.94072
▁poor	-9.94189
ones	-9.94261
▁taxi	-9.94347
▁song	-9.94398
▁along	-9.94588
▁america	-9.94659
now	-9.9466
▁wonder	-9.94703
thank	-9.94716
sólo	-9.94966
▁mío	-9.94984
▁podemos	-9.94991
▁creer	-9.95018
▁flowers	-9.95183
▁tienda	-9.95288
1079	-9.95445
新	-9.95494
▁dolor	-9.95513
▁clothes	-9.95748
▁pudo	-9.95763
▁pasa	-9.95835
’	-9.96178
▁reloj	-9.96178
▁hija	-9.96179
▁tierra	-9.9618
▁médico	-9.96401
nosotros	-9.96544
时	-9.96613
▁juego	-9.96776
對	-9.96828
▁sat	-9.96941
▁sola	-9.97039
▁german	-9.97074
▁behind	-9.97075
qui	-9.971
▁works	-9.97109
▁forgot	-9.97296
▁verano	-9.97305
▁zapatos	-9.97376
▁aún	-9.9738
▁spanish	-9.97393
▁media	-9.97419
▁business	-9.97492
▁cara	-9.97516
请	-9.97583
▁otros	-9.97656
著	-9.97698
▁200	-9.97743
am	-9.98075
生	-9.98134
▁case	-9.9827
▁sueño	-9.98298
▁rather	-9.98442
▁dije	-9.98524
▁televisión	-9.98667
▁bicycle	-9.98667
▁perder	-9.98674
▁entender	-9.98687
年	-9.98785
gr	-9.98868
▁thinking	-9.98996
▁point	-9.99067
▁hit	-9.9914
▁llama	-9.99144
1048	-9.9931
▁juntos	-9.99321
快	-9.9957
▁cuarto	-9.99587
▁caught	-9.99587
ás	-9.99765
1083	-9.99793
▁trust	-9.99903
我不	-9.99914
▁estados	-9.99986
▁lie	-9.99988
真	-10.0011
請	-10.0024
▁bicicleta	-10.0028
cor	-10.003
▁wearing	-10.0033
sus	-10.0049
▁garden	-10.0052
成	-10.0054
▁hablando	-10.0061
che	-10.0066
▁news	-10.0071
▁ventana	-10.0073
▁second	-10.0075
▁building	-10.0077
nuestro	-10.0089
▁libre	-10.0097
▁team	-10.0104
ck	-10.0107
▁hungry	-10.0122
▁caja	-10.0122
▁poder	-10.0124
花	-10.0124
朋友	-10.0124
▁pensar	-10.0129
▁air	-10.0162
tar	-10.0164
▁paper	-10.0164
▁1030	-10.0167
▁pidió	-10.0174
ness	-10.0182
1017	-10.0183
!"	-10.0195
everybody	-10.0198
1057	-10.021
▁dress	-10.0217
cho	-10.0226
个	-10.024
per	-10.0248
▁side	-10.0251
1012	-10.0261
▁expensive	-10.0264
▁realidad	-10.0265
ko	-10.0281
▁hasn	-10.0283
pon	-10.0287
▁tall	-10.0288
▁luz	-10.0288
▁stopped	-10.0288
chi	-10.029
▁catch	-10.0304
学	-10.0307
而	-10.031
▁pen	-10.0311
▁chocolate	-10.0312
▁birthday	-10.0312
había	-10.0315
tic	-10.0316
cuántos	-10.0322
ieron	-10.0329
▁spend	-10.0329
vas	-10.0332
▁español	-10.036
▁perdido	-10.036
▁wine	-10.0366
▁pie	-10.0368
but	-10.0378
▁tal	-10.0393
▁agree	-10.0395
▁terrible	-10.0408
▁viejo	-10.0409
▁finish	-10.0418
▁health	-10.0423
▁van	-10.043
▁york	-10.0433
▁ropa	-10.0433
▁sent	-10.0445
▁cuatro	-10.0448
rse	-10.0459
▁animals	-10.0473
▁restaurant	-10.049
▁trip	-10.0493
▁clean	-10.0502
▁road	-10.053
三	-10.0539
▁viaje	-10.054
tal	-10.054
try	-10.0543
oh	-10.056
▁examen	-10.056
▁ustedes	-10.0564
odio	-10.057
▁posible	-10.0572
▁advice	-10.0579
▁blue	-10.0579
▁whet	-10.0579
▁rico	-10.0617
▁test	-10.0622
mon	-10.0624
▁strong	-10.0642
▁compró	-10.0653
▁kept	-10.0653
▁manos	-10.0694
▁travel	-10.0695
▁ninguna	-10.0697
1003	-10.0702
ken	-10.0708
明天	-10.0709
thanks	-10.0717
▁corazón	-10.0727
▁least	-10.0728
men	-10.0742
▁estudiantes	-10.0747
keep	-10.0749
▁famous	-10.0752
▁spent	-10.0752
别	-10.0754
▁opinion	-10.0788
但	-10.0797
▁set	-10.0805
podrías	-10.081
▁tenemos	-10.0815
▁sino	-10.0824
▁dangerous	-10.0828
▁mujeres	-10.0835
▁seis	-10.0855
um	-10.0857
▁animal	-10.0872
裡	-10.0879
▁questions	-10.09
明	-10.0902
▁oficina	-10.0904
▁learning	-10.093
▁ido	-10.0934
maybe	-10.0936
高	-10.0943
▁stand	-10.0946
可能	-10.0946
▁past	-10.0947
▁speaking	-10.0949
▁interested	-10.0958
1056	-10.0958
▁camera	-10.0971
▁salud	-10.0972
▁interesante	-10.0981
▁oído	-10.0982
▁front	-10.1
ob	-10.1001
1015	-10.1006
▁buscando	-10.1007
▁quickly	-10.1007
▁cup	-10.1009
▁touch	-10.1012
▁half	-10.1015
▁chico	-10.1015
點	-10.1024
pu	-10.103
▁autobús	-10.1032
▁girlfriend	-10.1032
▁move	-10.1032
▁pequeño	-10.1041
▁niña	-10.1041
▁primer	-10.1043
▁par	-10.1045
mira	-10.1047
▁strange	-10.1051
▁largo	-10.1058
▁oír	-10.1059
1070	-10.1066
1033	-10.1068
sh	-10.1072
▁smoke	-10.1083
▁diccionario	-10.1083
▁takes	-10.1094
▁seem	-10.1097
▁lejos	-10.1109
▁ice	-10.1123
quisiera	-10.1135
等	-10.1137
▁outside	-10.1137
▁women	-10.1138
▁floor	-10.1161
现在	-10.1164
car	-10.1174
▁sound	-10.1176
▁sad	-10.1182
▁bebé	-10.121
▁glad	-10.1213
所	-10.1225
更	-10.1226
非常	-10.1231
▁respuesta	-10.1252
1050	-10.1252
▁human	-10.1261
▁beer	-10.1263
1053	-10.1286
▁united	-10.1294
▁cook	-10.1296
▁changed	-10.1317
▁cierto	-10.1318
▁husband	-10.1319
▁reunión	-10.132
▁eaten	-10.1331
、	-10.1345
▁enfermo	-10.1345
▁wall	-10.1355
沒	-10.1359
面	-10.1361
▁malo	-10.1362
des	-10.1366
▁calor	-10.1373
▁enjoy	-10.1375
▁estos	-10.1376
▁caso	-10.1379
▁cambiar	-10.1384
ka	-10.1399
▁lose	-10.1402
▁sunday	-10.1413
debes	-10.144
sos	-10.1444
pr	-10.1447
時	-10.1451
车	-10.1451
▁states	-10.1453
▁iba	-10.1464
▁exam	-10.1464
▁carne	-10.1467
1045	-10.1467
▁llegó	-10.147
▁library	-10.1479
信	-10.1498
▁worry	-10.1499
最	-10.1502
)	-10.1506
▁pain	-10.1509
▁estamos	-10.1518
those	-10.1523
▁return	-10.1527
not	-10.1532
▁bank	-10.1535
▁tokyo	-10.1544
▁careful	-10.1548
▁exist	-10.1558
fu	-10.1566
▁algunos	-10.1582
ero	-10.1582
▁written	-10.1587
▁smoking	-10.1593
月	-10.1595
跟	-10.16
▁sky	-10.1615
▁cry	-10.1619
▁surprised	-10.1621
nada	-10.1625
▁loved	-10.163
▁haya	-10.1637
ence	-10.1638
ran	-10.1639
▁japonés	-10.1669
ry	-10.167
▁dollars	-10.1672
veral	-10.1678
▁árbol	-10.1682
▁american	-10.1688
bra	-10.169
▁mistakes	-10.1695
▁cocina	-10.1698
2376	-10.1701
▁played	-10.1705
▁accept	-10.1716
someone	-10.1719
ling	-10.1726
▁cree	-10.1733
正	-10.1734
▁known	-10.1736
ful	-10.174
▁problems	-10.1741
here	-10.1746
▁flores	-10.1751
▁haci	-10.1752
1049	-10.1767
están	-10.1768
為	-10.177
pero	-10.1775
▁simple	-10.1778
▁ideas	-10.179
1063	-10.1797
▁duro	-10.18
晚	-10.1802
▁result	-10.1813
▁sing	-10.1816
口	-10.1828
▁key	-10.1828
▁meat	-10.1836
gar	-10.1836
▁seven	-10.1844
tan	-10.1849
▁apple	-10.1849
dan	-10.1861
brought	-10.1863
▁esperando	-10.1865
▁com	-10.1874
▁frase	-10.1886
▁ruido	-10.1891
▁break	-10.1897
▁canción	-10.1901
▁preguntó	-10.1902
從	-10.1903
▁christmas	-10.1908
以	-10.1914
▁colegio	-10.1919
▁pagar	-10.192
一下	-10.1931
gen	-10.1939
▁means	-10.1947
▁1018	-10.1965
▁extranjero	-10.1969
▁tocar	-10.1971
▁public	-10.1973
▁esté	-10.198
everything	-10.1983
mañana	-10.1983
▁p	-10.1991
▁arm	-10.1991
▁cielo	-10.2004
▁bag	-10.2006
▁fine	-10.2011
你们	-10.2018
▁gas	-10.2021
▁fumar	-10.2023
ados	-10.2027
的时候	-10.2029
▁sentido	-10.2033
十	-10.2033
▁quedó	-10.2034
bob	-10.2035
車	-10.2036
今天	-10.2041
▁hice	-10.2045
五	-10.2046
昨天	-10.2049
▁hambre	-10.2061
▁crazy	-10.2061
▁clear	-10.2061
▁sit	-10.207
▁pueda	-10.2072
1098	-10.2073
▁hat	-10.2082
▁uncle	-10.2091
▁poner	-10.2111
▁avión	-10.2118
cer	-10.212
到了	-10.2128
▁hundred	-10.213
日	-10.2139
▁sense	-10.2153
podría	-10.2158
▁consider	-10.2171
喜欢	-10.2184
nothing	-10.2187
▁llamar	-10.2191
▁rec	-10.2204
▁suerte	-10.2205
▁helped	-10.2215
▁pass	-10.2216
ous	-10.2231
理	-10.2233
▁entrar	-10.2234
▁sentences	-10.2248
▁less	-10.2251
▁doubt	-10.2263
▁ganas	-10.2267
▁acaba	-10.2274
什麼	-10.2277
▁terminar	-10.2281
▁1032	-10.2282
▁blanco	-10.2292
▁herself	-10.2292
mp	-10.2297
▁bar	-10.2299
▁té	-10.2302
ú	-10.2302
▁worth	-10.2308
作	-10.232
1047	-10.2329
▁medio	-10.233
excuse	-10.2336
個	-10.2341
▁tarea	-10.2351
▁sal	-10.2353
life	-10.2366
vol	-10.2372
▁veo	-10.2381
ria	-10.2389
▁asleep	-10.24
▁tenis	-10.2414
▁explain	-10.2422
▁novia	-10.2424
▁estuvo	-10.2425
▁anoche	-10.2435
ible	-10.244
▁culpa	-10.2444
▁animales	-10.2456
▁evening	-10.2459
▁pueblo	-10.2469
▁abroad	-10.2469
aunque	-10.2469
▁pa	-10.2476
ras	-10.2482
▁control	-10.2486
▁future	-10.2498
▁writing	-10.2498
▁raining	-10.2515
▁capaz	-10.2528
▁vista	-10.2529
▁parque	-10.253
▁primero	-10.2546
▁france	-10.2557
▁baño	-10.2558
▁arrive	-10.2576
ke	-10.2578
▁equipo	-10.2588
▁completely	-10.2589
需要	-10.261
▁morir	-10.2612
cio	-10.2612
▁post	-10.2624
▁mad	-10.2631
pat	-10.2638
▁quit	-10.2641
1169	-10.2642
▁regalo	-10.2652
ab	-10.2666
▁horse	-10.2666
▁green	-10.267
▁visitar	-10.2672
después	-10.2679
1127	-10.2682
▁verte	-10.2686
ida	-10.2695
▁wear	-10.2695
▁fruit	-10.2709
▁nieve	-10.271
买	-10.2712
zo	-10.2718
jim	-10.2728
▁consejo	-10.274
▁drinking	-10.2761
者	-10.277
起	-10.2775
és	-10.2779
▁cena	-10.2781
就是	-10.2786
▁extraño	-10.2789
力	-10.2797
ojalá	-10.2801
▁noise	-10.2814
▁entonces	-10.2818
▁stayed	-10.283
▁señor	-10.283
长	-10.2832
▁telephone	-10.2832
▁feeling	-10.2832
▁preguntas	-10.2834
自	-10.286
啊	-10.2863
▁inteligente	-10.2863
▁vuelta	-10.2863
▁send	-10.2872
分	-10.2883
▁cuidado	-10.2888
of	-10.2891
1062	-10.2903
不能	-10.2906
cas	-10.2912
▁voice	-10.2925
▁months	-10.2931
good	-10.2935
▁escuchar	-10.2941
▁salió	-10.2941
▁sería	-10.2946
▁trabaja	-10.2949
led	-10.2949
▁guitar	-10.2953
▁internet	-10.2953
dad	-10.2956
▁desk	-10.2959
wa	-10.2964
學	-10.2966
▁eye	-10.2966
本	-10.297
tatoeba	-10.2971
早	-10.2971
somos	-10.298
▁éxito	-10.2987
▁probably	-10.2987
▁bread	-10.2987
1069	-10.2987
▁foto	-10.299
▁dogs	-10.2999
▁blood	-10.3006
aún	-10.3008
estos	-10.3008
叫	-10.301
ziri	-10.3018
▁vacaciones	-10.3018
▁dólares	-10.3019
▁estudiante	-10.3025
▁passed	-10.3028
▁glasses	-10.3033
▁foreign	-10.3038
▁contar	-10.3049
那个	-10.3051
2548	-10.3052
▁perros	-10.306
▁idiomas	-10.3069
2406	-10.307
已經	-10.3072
给我	-10.3074
▁mala	-10.3075
▁swimming	-10.3078
▁oportunidad	-10.3082
▁proud	-10.3082
ear	-10.3086
▁fear	-10.3098
▁fútbol	-10.3113
钱	-10.3114
ber	-10.3115
ista	-10.3116
还	-10.3119
如果	-10.3119
▁ganar	-10.312
▁listo	-10.3122
▁nuestros	-10.3125
▁gets	-10.3126
▁glass	-10.313
▁count	-10.3143
▁medicine	-10.3145
▁jardín	-10.3145
▁shirt	-10.3146
▁seat	-10.3151
”	-10.3151
▁significa	-10.3151
1193	-10.3154
▁eggs	-10.3171
1065	-10.3173
▁pude	-10.3178
mr	-10.3188
▁secreto	-10.3192
但是	-10.3206
remos	-10.3207
▁pregunto	-10.3209
▁(	-10.3214
▁llave	-10.3217
ol	-10.325
▁follow	-10.3257
▁europe	-10.3259
▁vestido	-10.3273
▁machine	-10.3273
▁tenido	-10.3273
habla	-10.3277
illa	-10.3279
▁crying	-10.3281
▁alta	-10.3284
▁causa	-10.3289
debemos	-10.3289
amente	-10.3296
▁closed	-10.3296
by	-10.3305
▁cumpleaños	-10.3305
向	-10.3305
▁asunto	-10.3305
▁club	-10.3305
▁vivo	-10.3308
1060	-10.3317
▁deberías	-10.3327
▁sleeping	-10.3327
▁situation	-10.3337
▁perdió	-10.3338
▁allá	-10.3344
▁worked	-10.3349
▁mountain	-10.3351
放	-10.3357
nu	-10.3358
发	-10.336
▁needed	-10.3366
▁beber	-10.3366
▁lluvia	-10.337
▁umbrella	-10.337
▁eran	-10.337
▁papel	-10.337
▁beach	-10.3372
1018	-10.3378
1000	-10.3386
▁drunk	-10.3396
我是	-10.3397
1077	-10.3406
老	-10.3409
▁broken	-10.3425
▁running	-10.3435
▁lista	-10.3438
正在	-10.3446
时间	-10.3466
1028	-10.3469
1084	-10.347
▁conducir	-10.347
死	-10.3479
necesitamos	-10.3483
2707	-10.3484
col	-10.3494
▁propia	-10.3501
▁puesto	-10.352
于	-10.3527
孩子	-10.3529
▁cámara	-10.3534
▁gift	-10.3534
op	-10.355
▁deal	-10.3551
▁haga	-10.3551
▁weight	-10.3555
▁thirty	-10.3556
教	-10.3567
▁difference	-10.3567
住	-10.3567
▁siquiera	-10.3568
iste	-10.3569
▁mayoría	-10.357
▁pena	-10.3575
ju	-10.3592
▁law	-10.3598
无	-10.36
▁aire	-10.3604
▁talked	-10.3611
▁seguir	-10.3622
▁kitchen	-10.3633
▁patient	-10.3633
▁bird	-10.3638
▁mil	-10.3653
encia	-10.3654
▁algunas	-10.3661
名	-10.3666
▁banco	-10.3667
▁cuanto	-10.3673
fui	-10.3675
▁teach	-10.3683
▁fuego	-10.3686
日本	-10.369
cuántas	-10.3691
可	-10.3693
▁correct	-10.3709
▁attention	-10.3712
▁opinión	-10.3734
▁negro	-10.3734
▁partido	-10.3735
▁girls	-10.3735
喝	-10.3737
▁sometimes	-10.3747
fo	-10.3753
书	-10.3768
愛	-10.3768
▁alrededor	-10.3768
▁respect	-10.3775
▁compañía	-10.3802
▁alive	-10.3805
▁natural	-10.3824
▁parecía	-10.3829
▁learned	-10.3835
▁moon	-10.3837
▁empezar	-10.3841
vis	-10.3849
tuve	-10.3854
▁grandes	-10.3858
▁impossible	-10.3862
▁errores	-10.3863
▁única	-10.387
▁leaving	-10.3871
▁golf	-10.3872
tenía	-10.3873
我要	-10.3886
▁pequeña	-10.3889
▁gatos	-10.389
已经	-10.3894
▁television	-10.3895
▁president	-10.3895
rio	-10.3896
▁cantar	-10.3896
welcome	-10.3904
▁scared	-10.3908
▁último	-10.3922
▁thinks	-10.3938
▁sitio	-10.3939
▁liked	-10.3941
1124	-10.3949
▁anybody	-10.3953
▁dance	-10.3957
▁eight	-10.397
▁imp	-10.3971
开	-10.3971
▁triste	-10.3973
▁paid	-10.3973
déjame	-10.3975
▁sell	-10.3981
▁dentro	-10.3989
1013	-10.3993
▁restaurante	-10.3995
他在	-10.4001
▁chair	-10.4007
▁cerveza	-10.4008
▁hermosa	-10.4008
dame	-10.4009
爱	-10.4013
▁sale	-10.4027
ico	-10.4036
▁alemán	-10.4042
bill	-10.4046
▁success	-10.4063
▁pizza	-10.4077
▁siete	-10.4077
ue	-10.4078
▁llorar	-10.4085
同	-10.4087
call	-10.4088
ant	-10.4089
▁igual	-10.4097
▁matar	-10.4101
▁salt	-10.4102
iva	-10.4102
ng	-10.4102
▁winter	-10.4104
▁tío	-10.4114
见	-10.4114
▁somos	-10.4116
ki	-10.4117
▁paris	-10.4125
▁taken	-10.4127
▁kids	-10.413
4364	-10.413
ton	-10.4139
▁edificio	-10.4147
▁navidad	-10.4147
▁london	-10.4164
br	-10.4166
▁quieren	-10.4168
▁spoke	-10.417
这是	-10.4172
▁body	-10.4182
听	-10.4185
很好	-10.4211
▁ama	-10.4214
▁movies	-10.4216
球	-10.4216
▁baseball	-10.4218
1052	-10.4222
▁inside	-10.4233
crees	-10.4242
1022	-10.4249
酒	-10.4253
回家	-10.4254
▁blame	-10.4255
▁film	-10.4257
▁guys	-10.426
haz	-10.4281
▁safe	-10.4285
▁course	-10.4289
▁common	-10.429
你在	-10.4295
▁tomó	-10.4301
▁walked	-10.431
▁opened	-10.4315
像	-10.4346
▁muerto	-10.4348
▁180	-10.435
▁mouth	-10.435
▁serious	-10.4358
oso	-10.436
▁atención	-10.436
▁vacation	-10.4361
▁ill	-10.4371
▁vaya	-10.4378
1067	-10.4386
▁normal	-10.4389
up	-10.4389
1096	-10.4394
▁próximo	-10.4396
▁biblioteca	-10.4396
▁art	-10.4402
▁decision	-10.4418
muchos	-10.442
▁king	-10.443
▁address	-10.4432
▁perfect	-10.4433
▁cats	-10.4443
▁conoce	-10.4444
",	-10.4449
怎么	-10.4451
▁derecho	-10.4458
▁empezó	-10.4466
▁estará	-10.4466
学习	-10.4467
▁peor	-10.4469
▁history	-10.4472
ustedes	-10.4473
我不知道	-10.4479
red	-10.4489
▁meses	-10.4498
才	-10.4504
▁across	-10.4505
▁worse	-10.4505
▁luna	-10.4507
別	-10.4511
▁quieras	-10.4512
不会	-10.4516
▁vamos	-10.4518
see	-10.4541
▁singing	-10.4551
▁li	-10.4552
▁check	-10.4553
▁report	-10.4554
ring	-10.4558
▁honest	-10.4573
iendo	-10.4578
▁boca	-10.4579
▁native	-10.4579
▁either	-10.4587
聽	-10.4588
king	-10.4589
外	-10.459
osa	-10.4603
aste	-10.4603
▁entiendo	-10.461
瑪麗	-10.4615
▁fault	-10.4615
▁choice	-10.4615
acabo	-10.4615
▁demás	-10.4615
▁younger	-10.4625
▁rules	-10.4626
turn	-10.4644
▁fact	-10.4645
có	-10.4647
▁account	-10.4651
▁completamente	-10.4652
1073	-10.4653
▁rojo	-10.4653
▁ball	-10.4654
rme	-10.4655
▁cuesta	-10.4656
为什么	-10.4659
▁habría	-10.4661
▁seemed	-10.4664
的時候	-10.4664
sin	-10.4677
▁solía	-10.4679
因为	-10.4689
▁island	-10.4696
ated	-10.4698
quería	-10.4699
▁seeing	-10.471
▁expect	-10.4711
▁smile	-10.4714
▁hagas	-10.4717
▁guy	-10.472
most	-10.4722
▁hiciste	-10.4723
▁plays	-10.4725
穿	-10.4726
▁message	-10.4726
▁chess	-10.4726
▁sabes	-10.4735
▁hurry	-10.4735
▁finally	-10.4755
后	-10.4765
▁listening	-10.4775
1011	-10.4783
長	-10.4788
6873	-10.479
你有	-10.479
ped	-10.4791
不知道	-10.4791
age	-10.4798
▁information	-10.4801
住在	-10.4802
▁village	-10.4806
uno	-10.4814
▁bath	-10.4824
只	-10.4827
▁experience	-10.483
▁church	-10.4836
▁abuelo	-10.4838
▁voz	-10.4839
▁slowly	-10.484
▁campo	-10.4841
▁shall	-10.4851
casi	-10.4856
alguna	-10.4858
錢	-10.4871
▁foot	-10.4876
▁loco	-10.4881
▁traffic	-10.4887
hu	-10.4897
▁fight	-10.4897
▁conozco	-10.4897
▁sign	-10.4899
▁rey	-10.4899
▁yours	-10.49
▁laugh	-10.4908
prefiero	-10.4914
▁easily	-10.4914
▁worried	-10.4914
▁airport	-10.4914
▁boyfriend	-10.4914
▁star	-10.4918
yesterday	-10.4933
▁kiss	-10.4938
▁bear	-10.4948
ito	-10.4948
ncluso	-10.4952
▁bottle	-10.4952
▁exactly	-10.4953
▁cambio	-10.4953
▁barco	-10.4956
▁guess	-10.4957
▁ship	-10.4961
▁shop	-10.4963
ben	-10.4963
▁inter	-10.4977
▁waited	-10.4977
▁camisa	-10.499
▁sitting	-10.4991
1168	-10.4993
6874	-10.4993
当	-10.4994
喜歡	-10.4997
▁playa	-10.5008
有人	-10.5016
pienso	-10.5019
▁quiet	-10.502
1075	-10.5022
▁danger	-10.5028
又	-10.5028
▁abrir	-10.5029
▁piensa	-10.503
▁equivocado	-10.5035
現在	-10.5043
他是	-10.5061
since	-10.5073
1099	-10.5074
iré	-10.5077
1185	-10.5079
▁player	-10.5099
▁boss	-10.5106
with	-10.5116
▁grow	-10.5123
▁volvió	-10.5127
▁twenty	-10.5134
▁nor	-10.5137
▁ticket	-10.5141
ros	-10.5143
algunos	-10.5145
1123	-10.5153
▁though	-10.5155
哪	-10.5161
1023	-10.5167
▁sombrero	-10.5183
▁treinta	-10.5183
▁twice	-10.5183
情	-10.5186
mas	-10.52
jane	-10.5207
▁fui	-10.5207
美	-10.5221
▁concert	-10.5222
▁boys	-10.5225
▁wash	-10.5226
▁conseguir	-10.5229
ut	-10.5238
han	-10.5239
▁fat	-10.5245
▁bill	-10.5248
▁peligro	-10.5254
▁soccer	-10.526
於	-10.5261
▁universidad	-10.5261
▁huevos	-10.5266
▁invited	-10.5267
wait	-10.5274
▁missed	-10.5279
▁leg	-10.5281
1106	-10.5286
▁smell	-10.5301
▁canadian	-10.5301
▁diferencia	-10.5301
▁crees	-10.5301
▁peso	-10.5317
▁smart	-10.5338
開	-10.5339
1021	-10.5339
▁university	-10.534
▁sweet	-10.534
给	-10.5341
▁favorito	-10.5344
though	-10.5349
▁minute	-10.5358
▁visited	-10.5361
路	-10.537
▁wi	-10.5377
▁fly	-10.5377
▁knife	-10.538
according	-10.5382
▁single	-10.539
▁price	-10.5391
realmente	-10.5394
▁walking	-10.54
love	-10.5404
▁solve	-10.541
寫	-10.542
▁mensaje	-10.542
▁situación	-10.542
▁leyendo	-10.542
▁driving	-10.542
▁necessary	-10.5421
▁terminado	-10.5422
antes	-10.5426
last	-10.5438
狗	-10.544
▁hold	-10.5441
stay	-10.5443
這是	-10.5455
▁weekend	-10.546
▁begin	-10.5463
estas	-10.5466
意	-10.5472
ana	-10.5473
ren	-10.5487
▁pencil	-10.55
▁marry	-10.5501
▁driver	-10.5521
开始	-10.5525
1051	-10.5536
语	-10.5539
▁studied	-10.554
▁brown	-10.554
▁teeth	-10.554
▁duele	-10.5545
▁failed	-10.5545
▁trabajando	-10.5546
2958	-10.5558
ñ	-10.5559
ismo	-10.5562
▁weren	-10.5565
1104	-10.5568
▁lleno	-10.5581
▁piece	-10.5585
▁imposible	-10.5587
2444	-10.559
▁cine	-10.562
▁invierno	-10.5622
▁regret	-10.5622
▁speech	-10.5622
▁pretend	-10.5625
▁tokio	-10.5648
cur	-10.5653
▁spain	-10.5656
▁lawyer	-10.5662
▁peligroso	-10.5668
▁presidente	-10.5674
谁	-10.5682
both	-10.5685
▁serio	-10.5686
▁general	-10.5694
lent	-10.5699
▁vaso	-10.57
问	-10.5703
▁jugando	-10.5703
ante	-10.5714
▁grandfather	-10.572
,"	-10.5721
▁futuro	-10.5724
sometimes	-10.5729
▁power	-10.573
▁hide	-10.573
应该	-10.5736
相	-10.5743
▁couple	-10.5745
拿	-10.5745
▁francia	-10.5746
給我	-10.5747
很多	-10.5754
2544	-10.5757
▁bi	-10.5766
▁cayó	-10.5772
2764	-10.5773
▁translate	-10.5775
▁encontró	-10.5777
▁cream	-10.5784
▁gana	-10.5785
果	-10.5785
▁pictures	-10.5787
▁lucky	-10.5789
受	-10.5792
2542	-10.5794
▁haría	-10.5796
debo	-10.5798
ance	-10.5798
mar	-10.5799
▁warm	-10.5807
▁pick	-10.5811
▁mr	-10.5812
▁clases	-10.5816
▁1000	-10.5825
门	-10.5827
▁ajedrez	-10.5827
▁heavy	-10.5827
▁advise	-10.5827
▁ves	-10.5835
▁mía	-10.5838
▁cr	-10.5842
dr	-10.5843
land	-10.5848
2956	-10.5855
▁promise	-10.5856
身	-10.5861
ally	-10.5865
待	-10.5867
▁frente	-10.5869
那么	-10.5869
perdí	-10.5871
never	-10.5888
3171	-10.5902
den	-10.5904
▁digas	-10.5909
當	-10.591
▁system	-10.5911
▁shopping	-10.5911
▁join	-10.5913
▁enter	-10.5913
你能	-10.5917
▁manzana	-10.5917
ger	-10.5927
conozco	-10.5929
sal	-10.5933
▁2:30.	-10.5939
dios	-10.5939
▁tras	-10.595
▁dirección	-10.5953
pro	-10.5963
only	-10.5971
▁chino	-10.5973
2408	-10.5974
com	-10.5981
▁sala	-10.5983
dime	-10.5985
▁cenar	-10.5986
利	-10.5992
▁shut	-10.5992
▁pensando	-10.5995
▁taza	-10.5999
▁lying	-10.6009
ador	-10.6013
▁trees	-10.6015
之	-10.6028
sorry	-10.6029
▁experiencia	-10.6037
▁given	-10.6038
▁type	-10.604
▁taller	-10.6043
▁caballo	-10.6045
4631	-10.6046
忙	-10.6054
两	-10.6061
去了	-10.6066
进	-10.6068
▁soup	-10.6086
mail	-10.6087
kate	-10.6089
▁tomás	-10.6093
1054	-10.6108
▁estas	-10.6111
ish	-10.6117
▁government	-10.6123
▁forward	-10.6133
▁apples	-10.6137
estaré	-10.6137
▁meaning	-10.6137
▁lake	-10.6143
▁thousand	-10.6152
▁date	-10.6162
read	-10.6162
▁periódico	-10.6166
▁countries	-10.6166
2486	-10.6174
▁caro	-10.6179
nuestra	-10.6181
make	-10.6183
四	-10.6187
4645	-10.6188
▁shower	-10.6188
▁viajar	-10.6194
▁españa	-10.6197
生活	-10.6199
物	-10.6208
▁novel	-10.6212
▁guitarra	-10.6213
▁justo	-10.6214
我会	-10.6216
bor	-10.6218
▁sugar	-10.6227
一点	-10.6229
1129	-10.6238
▁wind	-10.6241
ésta	-10.625
▁wake	-10.6258
▁pesar	-10.6262
▁pasada	-10.6264
▁verde	-10.6265
▁coat	-10.6271
gue	-10.6273
▁siendo	-10.6277
was	-10.6277
vuelve	-10.6278
兩	-10.6283
well	-10.6284
▁llover	-10.6286
ellas	-10.6292
重	-10.6294
不會	-10.6294
ina	-10.6294
性	-10.6295
山	-10.6295
▁dormido	-10.6296
▁beginning	-10.6296
▁drank	-10.6296
mike	-10.6297
法	-10.63
坐	-10.63
▁hu	-10.6303
▁dientes	-10.6313
▁ello	-10.6322
ah	-10.6322
▁offer	-10.6322
▁telling	-10.6326
全	-10.6329
dé	-10.6333
一些	-10.6342
ica	-10.6348
▁amiga	-10.6348
2405	-10.6349
7803	-10.6362
找	-10.6369
ian	-10.637
給	-10.6372
cy	-10.6372
▁dijiste	-10.6377
2954	-10.638
裏	-10.6382
▁siguiente	-10.6383
▁space	-10.6383
▁card	-10.6387
1196	-10.6389
2454	-10.6395
▁save	-10.64
还是	-10.6402
▁amable	-10.6405
none	-10.6409
dura	-10.6418
▁record	-10.6425
文	-10.6426
头	-10.6427
▁encontré	-10.643
2440	-10.6434
▁novio	-10.6438
▁hacen	-10.6444
▁habit	-10.645
▁sounds	-10.6452
▁hará	-10.6455
你是	-10.6462
▁decisión	-10.6471
▁project	-10.6471
▁iglesia	-10.6471
▁caliente	-10.6471
▁montón	-10.6472
6876	-10.6475
querés	-10.6477
写	-10.6483
▁saben	-10.6485
▁spoken	-10.6487
2402	-10.6491
你想	-10.6492
par	-10.6492
2951	-10.6492
▁moved	-10.6494
▁leaves	-10.6497
4563	-10.65
是个	-10.6503
▁vendrá	-10.6509
▁mom	-10.6513
▁peace	-10.6515
開始	-10.6516
▁pudiera	-10.6516
1120	-10.6518
▁paz	-10.6518
▁llena	-10.6518
1105	-10.6523
der	-10.6529
▁newspaper	-10.653
3170	-10.6531
cos	-10.6538
leave	-10.6547
▁cuerpo	-10.656
▁abogado	-10.656
▁comiendo	-10.6561
▁suelo	-10.6572
▁pobre	-10.6575
▁kid	-10.6578
compar	-10.6587
英語	-10.659
▁tenga	-10.6591
雨	-10.6593
.»	-10.6594
because	-10.66
ine	-10.6604
字	-10.6605
▁llamó	-10.6605
▁comió	-10.6605
▁ley	-10.6607
▁storm	-10.661
▁received	-10.6612
▁dejes	-10.6615
甚麼	-10.6619
2539	-10.6623
▁escrito	-10.663
1097	-10.663
▁goal	-10.663
1156	-10.6631
▁1054	-10.6643
问题	-10.6643
2968	-10.6643
火	-10.6645
▁canadiense	-10.665
▁cuchillo	-10.665
▁rompió	-10.665
▁certain	-10.6679
▁enseñar	-10.6686
así	-10.6695
▁parís	-10.6696
▁información	-10.6696
ambos	-10.6696
1150	-10.6705
rás	-10.6718
bal	-10.6719
看到	-10.672
espera	-10.6721
▁azul	-10.6726
two	-10.6728
▁admit	-10.6728
▁espera	-10.6737
ces	-10.674
▁view	-10.6741
▁example	-10.6741
ín	-10.6751
compré	-10.6755
2394	-10.6757
ster	-10.6758
了一	-10.6759
2409	-10.6759
都是	-10.6761
▁step	-10.6766
▁caminar	-10.6769
房子	-10.6771
所以	-10.6771
4363	-10.6774
▁cars	-10.6775
六	-10.6786
▁special	-10.6787
▁mantener	-10.6787
▁bike	-10.6789
hubo	-10.679
till	-10.6792
▁expected	-10.6797
▁llega	-10.6812
▁nine	-10.6814
4350	-10.6819
我知道	-10.6825
ff	-10.6826
道	-10.6826
▁fit	-10.6828
海	-10.6831
▁paciente	-10.6833
▁built	-10.6833
▁abuela	-10.6833
▁ok	-10.6834
▁estudiando	-10.6834
ario	-10.6834
▁luego	-10.684
做了	-10.6841
6820	-10.6842
我會	-10.6846
▁1073	-10.6852
▁silla	-10.6859
dile	-10.6865
intenta	-10.6869
children	-10.687
day	-10.687
▁divertido	-10.6879
▁college	-10.6879
▁llegue	-10.6879
▁marido	-10.688
probablemente	-10.6881
▁abandoned	-10.6884
4336	-10.6897
sión	-10.6898
pre	-10.6902
▁carro	-10.6903
▁esperaba	-10.6905
2671	-10.6907
▁beat	-10.6915
▁necesito	-10.6915
▁viven	-10.6917
▁recuerdo	-10.6919
▁principio	-10.6925
▁esperanza	-10.6925
法语	-10.6925
▁escribió	-10.6927
▁brothers	-10.693
1167	-10.6931
▁comprado	-10.6941
▁bailar	-10.6944
▁crea	-10.6944
▁montaña	-10.6945
▁resolver	-10.6946
▁bother	-10.6947
2800	-10.6947
éste	-10.695
▁suele	-10.6957
▁form	-10.6961
▁evitar	-10.6962
▁sur	-10.6968
▁purpose	-10.6971
▁paraguas	-10.6972
—	-10.6974
2400	-10.6977
anoche	-10.6978
▁gun	-10.698
▁rock	-10.6983
▁seas	-10.6994
miento	-10.6994
買	-10.6997
玩	-10.7002
1058	-10.7003
corri	-10.7008
▁funciona	-10.7012
▁vos	-10.7016
▁maestro	-10.7018
%	-10.7018
▁bonita	-10.7018
▁necesario	-10.7018
▁fruta	-10.7018
▁held	-10.7018
▁acá	-10.7021
4344	-10.7021
▁sangre	-10.7026
▁sight	-10.7027
arse	-10.7028
回	-10.7031
▁promised	-10.7032
podemos	-10.7034
tus	-10.7053
nce	-10.7057
▁odia	-10.7065
▁video	-10.7065
▁venido	-10.7065
中国	-10.7068
▁ocho	-10.7072
▁sigue	-10.7076
▁sub	-10.7081
了吗	-10.7085
lar	-10.7086
1066	-10.709
tomorrow	-10.7092
1152	-10.7092
▁varia	-10.7094
eg	-10.7102
adas	-10.7104
將	-10.7111
4558	-10.7112
游泳	-10.7112
▁support	-10.7112
▁themselves	-10.7112
▁grandmother	-10.7112
▁comido	-10.7113
1160	-10.7114
8870	-10.7121
▁stolen	-10.7122
2917	-10.7124
▁list	-10.7124
3037	-10.7125
▁gra	-10.7126
▁italian	-10.7128
▁alcohol	-10.7133
▁rato	-10.7136
▁ability	-10.7147
自己的	-10.7149
2458	-10.7152
▁dan	-10.7156
4362	-10.7157
1014	-10.7158
将	-10.7159
tienen	-10.7159
▁abierta	-10.716
▁joke	-10.7163
你們	-10.7187
bla	-10.719
2892	-10.7198
▁birds	-10.7198
van	-10.7207
mate	-10.7213
maria	-10.7221
4367	-10.7223
1142	-10.7224
▁larga	-10.7232
▁line	-10.7232
▁exactamente	-10.7233
2955	-10.7238
▁happens	-10.7238
2766	-10.724
▁segundo	-10.7255
▁famoso	-10.7255
▁traje	-10.7255
▁wallet	-10.7256
bia	-10.7258
▁necesitas	-10.7265
▁paso	-10.7271
▁fishing	-10.7274
▁actually	-10.7277
acó	-10.7277
保	-10.7303
▁próxima	-10.7303
▁slept	-10.7303
▁bosque	-10.7303
▁enemy	-10.7304
comp	-10.7306
write	-10.7317
2537	-10.7325
hold	-10.7328
让	-10.7333
ex	-10.7337
▁personal	-10.7338
▁gracias	-10.7344
門	-10.7351
白	-10.7351
票	-10.7351
▁bridge	-10.7352
▁similar	-10.7352
▁encontrado	-10.7352
2953	-10.7353
4644	-10.7361
▁frases	-10.7364
▁quedar	-10.7369
男孩	-10.7376
▁debes	-10.7379
▁rice	-10.7383
▁claro	-10.7384
1194	-10.7391
▁linda	-10.7396
2807	-10.74
▁subject	-10.74
▁europa	-10.74
2940	-10.7401
▁centro	-10.7401
▁fe	-10.7402
3177	-10.7406
estáis	-10.7406
▁otras	-10.7406
tuvimos	-10.741
▁cooking	-10.7412
▁keys	-10.7413
▁returned	-10.7415
你可以	-10.7435
2700	-10.7435
2587	-10.7442
ku	-10.7444
▁echar	-10.7445
▁forgive	-10.7447
1200	-10.7448
斯	-10.7449
▁group	-10.7449
▁yellow	-10.7449
▁among	-10.7449
▁immediately	-10.7449
▁llevaba	-10.7451
▁mamá	-10.7452
2396	-10.7465
▁llegado	-10.7467
1154	-10.7475
公	-10.7475
了嗎	-10.749
▁haces	-10.7491
平	-10.7493
▁empty	-10.7498
oc	-10.7499
▁correr	-10.7502
气	-10.7503
▁helado	-10.7504
相信	-10.7506
任何	-10.7506
ask	-10.751
▁sentado	-10.7514
lleva	-10.7516
9535	-10.7517
睡	-10.752
每	-10.7524
2895	-10.753
▁deseo	-10.7537
見	-10.7545
▁carry	-10.7547
▁juice	-10.7547
▁fuerza	-10.7547
2804	-10.7554
2952	-10.7554
▁silencio	-10.7555
1094	-10.7572
3123	-10.7572
话	-10.7578
aren	-10.7581
▁top	-10.7594
▁fotos	-10.7594
llevo	-10.7597
▁tongue	-10.7597
▁wonderful	-10.7597
termina	-10.7618
▁trata	-10.7618
▁blind	-10.763
3172	-10.763
▁jamás	-10.7631
▁hermanos	-10.7635
▁eats	-10.7638
▁buenos	-10.7644
克	-10.7646
金	-10.7646
▁estúpido	-10.7646
▁decidió	-10.7646
▁equal	-10.7646
▁funny	-10.7647
▁comenzó	-10.7648
件	-10.765
▁deja	-10.7653
▁conocer	-10.7659
還	-10.7661
▁idiot	-10.7666
▁vayas	-10.7669
3129	-10.7675
bur	-10.7677
書	-10.7679
4368	-10.768
2388	-10.7682
那是	-10.7682
hello	-10.7683
ought	-10.7693
言	-10.7696
光	-10.7696
▁shot	-10.7697
▁useful	-10.7699
3203	-10.77
▁suficientemente	-10.77
▁planet	-10.7702
▁responder	-10.7705
ok	-10.771
finalmente	-10.7711
▁owe	-10.7717
▁deep	-10.772
hola	-10.7721
pens	-10.7723
2912	-10.7726
2957	-10.7726
chu	-10.7727
desde	-10.7735
▁ocurrió	-10.7736
oí	-10.7744
4347	-10.7744
加	-10.7746
▁vieja	-10.7747
estuve	-10.7747
▁mirando	-10.7747
▁russian	-10.7748
▁estuviera	-10.7749
▁hago	-10.775
▁enamorado	-10.7753
位	-10.7755
▁fr	-10.7756
3168	-10.7757
那個	-10.7757
▁forest	-10.7757
▁super	-10.7759
1157	-10.7762
2620	-10.7765
▁afuera	-10.7772
▁domingo	-10.7779
1095	-10.7781
▁san	-10.7782
their	-10.7789
▁prove	-10.7793
表	-10.7796
▁fool	-10.7797
▁azúcar	-10.7797
nancy	-10.7797
acaso	-10.7797
▁daño	-10.7798
入	-10.78
▁dreams	-10.7802
这里	-10.7804
▁obra	-10.7807
▁england	-10.7812
each	-10.7818
algunas	-10.7825
2403	-10.7829
▁propio	-10.783
2517	-10.7832
▁lend	-10.7832
▁tele	-10.7834
2577	-10.7835
▁succeed	-10.784
1658	-10.784
後	-10.7842
8875	-10.7845
2571	-10.7845
▁earlier	-10.7848
▁hiciera	-10.7848
▁gobierno	-10.7848
▁jefe	-10.7848
▁detrás	-10.7848
▁concierto	-10.7851
▁germany	-10.7852
▁covered	-10.7853
▁piso	-10.7865
如果你	-10.7867
▁suit	-10.7869
是個	-10.7869
▁vosotros	-10.7876
▁taste	-10.7881
有很多	-10.7891
2482	-10.7897
合	-10.7899
▁aeropuerto	-10.7899
▁aconsej	-10.7899
▁taught	-10.7899
老师	-10.7899
2761	-10.7901
▁países	-10.7905
2693	-10.7905
tenés	-10.7906
4348	-10.7916
▁decide	-10.7918
▁«	-10.7919
的事	-10.7929
死了	-10.7932
▁pescado	-10.7935
▁arte	-10.7935
9532	-10.7941
fer	-10.7943
話	-10.7945
2654	-10.7947
交	-10.795
▁noticias	-10.7951
▁middle	-10.7952
▁confiar	-10.7955
3202	-10.7958
3089	-10.7961
jack	-10.7965
▁preocupa	-10.7966
3173	-10.7968
2552	-10.7974
▁stone	-10.7986
▁surprise	-10.7989
4342	-10.799
▁común	-10.7995
走了	-10.7995
▁tie	-10.7997
▁cheese	-10.8002
raise	-10.8003
val	-10.8004
8589	-10.8005
todas	-10.8006
sabía	-10.801
god	-10.8011
1103	-10.8027
2921	-10.8027
8873	-10.8032
▁social	-10.8033
▁calm	-10.8035
▁extra	-10.8039
▁material	-10.804
▁crime	-10.8043
ism	-10.8045
猫	-10.8054
▁rule	-10.8065
fre	-10.8066
▁pedir	-10.8067
▁land	-10.8068
▁aquel	-10.8073
4564	-10.8077
▁usa	-10.8078
▁decirle	-10.8081
stic	-10.809
english	-10.8093
▁attend	-10.8097
▁reglas	-10.8103
度	-10.8105
llegué	-10.8106
▁conocido	-10.8106
▁proyecto	-10.8106
▁viento	-10.8106
▁aceptar	-10.8119
ntes	-10.8121
▁flor	-10.8134
2802	-10.8138
1114	-10.8141
▁prueba	-10.8143
▁nació	-10.8146
▁luck	-10.8155
頭	-10.8158
▁público	-10.8158
成功	-10.8158
varios	-10.8158
▁feed	-10.8159
你要	-10.8159
▁painting	-10.8165
light	-10.8177
ph	-10.8182
zar	-10.8187
2776	-10.8189
▁waste	-10.8196
3200	-10.8199
4561	-10.82
关	-10.821
接	-10.821
▁studies	-10.8211
▁cruel	-10.8211
▁gusto	-10.8211
▁máquina	-10.8211
▁botella	-10.8211
▁supposed	-10.8212
▁totalmente	-10.8212
2588	-10.8222
hablas	-10.8225
tony	-10.8227
▁cute	-10.8229
3707	-10.8239
▁ride	-10.8242
ps	-10.8244
3012	-10.8245
4365	-10.8247
use	-10.825
▁everybody	-10.8251
3181	-10.8252
▁vale	-10.8256
were	-10.8256
1126	-10.826
▁piensas	-10.8262
▁absent	-10.8264
▁libertad	-10.8264
▁duda	-10.8268
9533	-10.8271
▁contento	-10.8275
是一個	-10.8276
3185	-10.8285
2549	-10.829
▁tema	-10.829
▁sold	-10.829
5840	-10.8294
▁bebe	-10.8294
8872	-10.8297
▁flower	-10.8307
4560	-10.8314
約	-10.8317
▁dirty	-10.8317
▁nervous	-10.8317
ninguno	-10.8317
▁pair	-10.832
1046	-10.8321
▁woke	-10.8321
▁carefully	-10.8323
▁page	-10.8325
2590	-10.8325
conoces	-10.8326
▁absolutely	-10.8326
2397	-10.8332
2445	-10.8335
▁corta	-10.8336
entonces	-10.8341
japan	-10.8342
▁translation	-10.8355
▁pájaro	-10.8358
1072	-10.8359
2502	-10.8362
▁share	-10.8364
1076	-10.837
▁universe	-10.837
▁ocupada	-10.8373
▁recordar	-10.8374
▁pase	-10.8375
▁rains	-10.8378
▁lago	-10.838
▁map	-10.8389
2507	-10.839
6816	-10.8397
让我	-10.84
以前	-10.8401
tim	-10.8401
▁especial	-10.8402
▁yen	-10.8404
té	-10.8405
▁charge	-10.8411
rán	-10.8412
▁staying	-10.8413
2747	-10.8418
國	-10.8422
提	-10.8423
bre	-10.843
▁1046	-10.8431
tions	-10.8431
▁felices	-10.8433
bl	-10.8434
一點	-10.8436
▁atrás	-10.8437
我能	-10.8447
我有	-10.8449
▁pedí	-10.8455
▁irme	-10.8456
9770	-10.8457
9536	-10.8462
▁sentir	-10.8462
1165	-10.8462
▁londres	-10.8463
▁ordenador	-10.8463
▁somewhere	-10.8467
▁happiness	-10.847
8871	-10.8474
bring	-10.8475
▁toca	-10.8475
eat	-10.8476
ará	-10.8477
取	-10.8478
▁risk	-10.8479
▁italy	-10.8479
▁humor	-10.8482
世界	-10.8482
1071	-10.8483
1201	-10.8486
▁tears	-10.849
▁lenguas	-10.8494
1195	-10.8496
2980	-10.8497
▁using	-10.85
▁gustaba	-10.8501
▁asiento	-10.8502
▁thank	-10.8507
我希望	-10.852
▁encuentra	-10.852
国	-10.853
西	-10.8532
▁béisbol	-10.8532
一样	-10.8537
▁tonto	-10.8537
ping	-10.8538
2508	-10.8542
▁estés	-10.8545
2698	-10.8547
▁drinks	-10.8549
2897	-10.855
定	-10.8554
2915	-10.8557
1153	-10.8561
ud	-10.8562
2378	-10.8565
3096	-10.8567
▁precio	-10.8568
4632	-10.8573
▁match	-10.8574
▁enseña	-10.8575
4600	-10.8578
▁irse	-10.8581
2845	-10.8583
边	-10.8587
▁veinte	-10.8587
▁diciendo	-10.8587
▁escritorio	-10.8587
▁orgulloso	-10.8589
▁favorita	-10.8589
▁deberes	-10.8593
一起	-10.8594
▁mejores	-10.8596
8874	-10.8596
▁dado	-10.8599
1134	-10.8603
2621	-10.8603
2801	-10.8606
3076	-10.8607
▁cual	-10.8608
▁dejado	-10.8611
▁spring	-10.8611
3067	-10.8621
▁enfermedad	-10.8627
2705	-10.8628
áis	-10.8629
▁weeks	-10.8629
▁clima	-10.8631
所有	-10.8638
conocí	-10.864
帶	-10.8642
▁sistema	-10.8642
debido	-10.8642
3158	-10.8642
感到	-10.8643
▁valor	-10.8643
这些	-10.8643
4565	-10.8645
▁hiding	-10.8647
▁pensaba	-10.8651
zó	-10.8652
▁allowed	-10.8652
2603	-10.8653
2808	-10.8654
4349	-10.8656
▁rent	-10.8658
fuimos	-10.8661
▁familiar	-10.8667
2484	-10.8669
▁asking	-10.8695
方	-10.8695
▁prisa	-10.8697
员	-10.8697
george	-10.8697
▁política	-10.8697
▁saturday	-10.8697
▁stood	-10.8697
▁encima	-10.8697
▁miró	-10.8697
2623	-10.8699
▁matemáticas	-10.8702
10268	-10.8704
1090	-10.8705
▁pasando	-10.8707
色	-10.871
2398	-10.8721
algo	-10.8721
3033	-10.8725
▁estaría	-10.8727
▁meal	-10.8731
from	-10.8731
roll	-10.8732
▁science	-10.8735
3175	-10.8735
3142	-10.8737
▁add	-10.8738
1198	-10.8743
怎麼	-10.8746
3135	-10.8749
3154	-10.875
▁grew	-10.8753
▁llevó	-10.8753
▁grupo	-10.8753
▁osaka	-10.8753
▁intentando	-10.8753
▁leído	-10.8755
4361	-10.8758
▁menor	-10.877
gó	-10.8774
open	-10.8783
的话	-10.8784
▁llamada	-10.8787
9534	-10.8791
▁suena	-10.8795
something	-10.8798
▁treat	-10.8801
▁diferente	-10.8801
2889	-10.8803
读	-10.8808
問	-10.8809
▁satisfied	-10.8809
posición	-10.8809
▁delicious	-10.8809
▁terminó	-10.8809
estábamos	-10.8809
2900	-10.8814
▁debo	-10.8815
▁trav	-10.8819
▁buenas	-10.8822
▁singer	-10.8827
4345	-10.8828
▁estudia	-10.8831
▁sopa	-10.8833
3151	-10.8835
2649	-10.884
2492	-10.8842
4538	-10.8845
3098	-10.885
▁smith	-10.885
1128	-10.8853
▁entró	-10.8857
2898	-10.8859
▁almuerzo	-10.8865
▁empresa	-10.8865
3883	-10.8865
▁correcto	-10.8866
dejé	-10.8867
dijo	-10.8874
bro	-10.8874
希望	-10.8878
▁above	-10.8878
arte	-10.888
▁act	-10.8899
rome	-10.8899
▁choose	-10.89
▁hablo	-10.89
▁llaves	-10.8906
2418	-10.8906
2481	-10.891
▁haré	-10.8913
3090	-10.8914
▁brazo	-10.8915
2805	-10.8915
▁position	-10.8917
▁protect	-10.8917
bar	-10.8918
▁línea	-10.8921
olvidé	-10.8921
▁repente	-10.8921
▁enferma	-10.8921
之前	-10.8922
2485	-10.8922
▁digo	-10.8929
▁rumor	-10.8929
▁stars	-10.893
1945	-10.8934
vivo	-10.8935
2416	-10.8941
6879	-10.8943
▁novela	-10.8945
▁modo	-10.8948
4566	-10.895
4335	-10.8952
▁interesa	-10.8956
2573	-10.8958
▁dad	-10.8965
▁casado	-10.8968
tres	-10.8968
será	-10.8978
1147	-10.8978
格	-10.8978
▁desayuno	-10.8978
▁bathroom	-10.8978
▁viendo	-10.8979
▁wedding	-10.8979
我们的	-10.8981
▁legs	-10.8981
2963	-10.8982
2762	-10.8983
2404	-10.8984
▁laughing	-10.8988
笑	-10.8989
2380	-10.8993
3000	-10.8994
▁standing	-10.8994
3036	-10.9
▁baja	-10.9008
▁due	-10.9014
2777	-10.9019
▁lady	-10.9019
3056	-10.9019
▁cause	-10.9021
stick	-10.9022
我觉得	-10.9023
2893	-10.9026
2483	-10.9027
rate	-10.9028
空	-10.9028
cri	-10.9031
▁arma	-10.9031
▁humanos	-10.9033
發	-10.9034
2721	-10.9034
照	-10.9035
▁ejemplo	-10.9035
▁museum	-10.9035
▁anciano	-10.9035
▁hermoso	-10.9036
▁boring	-10.9037
▁laughed	-10.9047
▁cartas	-10.9048
▁empieza	-10.9048
▁sisters	-10.9054
時間	-10.9057
3148	-10.9058
emp	-10.9061
2809	-10.9063
water	-10.9068
▁hates	-10.9069
▁oro	-10.907
安	-10.9075
dio	-10.9076
2706	-10.9077
出去	-10.9078
▁busca	-10.9081
1107	-10.9081
▁manzanas	-10.9084
應該	-10.9085
▁feelings	-10.9086
▁mirar	-10.9088
ries	-10.9088
▁fan	-10.9091
动	-10.9092
▁magazine	-10.9093
▁bonito	-10.9093
▁market	-10.9093
▁cal	-10.9094
▁explicar	-10.9094
▁boat	-10.9094
9177	-10.9097
2792	-10.9101
▁soul	-10.9111
▁tuyo	-10.9113
▁papá	-10.9115
2570	-10.9115
掉	-10.9117
say	-10.9117
▁venga	-10.912
rie	-10.9121
2944	-10.9122
通	-10.9125
3141	-10.9128
act	-10.913
▁chicos	-10.913
ías	-10.9138
2890	-10.9139
pel	-10.9141
6803	-10.9143
▁segura	-10.9145
▁except	-10.9145
2984	-10.9146
3099	-10.915
「	-10.915
学生	-10.915
▁abrigo	-10.9151
▁horrible	-10.9151
▁nueve	-10.9151
▁inmediatamente	-10.9151
我很	-10.9151
▁zoo	-10.9154
6875	-10.9156
▁alma	-10.9159
▁forever	-10.9163
2429	-10.9163
2447	-10.9165
▁letters	-10.9165
4633	-10.917
▁happening	-10.9176
2704	-10.918
▁5809	-10.918
▁ended	-10.9186
是什么	-10.9187
tivo	-10.9187
▁olvides	-10.9192
3216	-10.9194
ning	-10.9195
▁lies	-10.9201
▁gold	-10.9204
ser	-10.9207
▁understood	-10.9209
指	-10.9209
▁season	-10.9218
3150	-10.9225
▁capacidad	-10.9226
ña	-10.923
ple	-10.9233
2464	-10.9236
1138	-10.9236
3049	-10.9237
2503	-10.9239
4642	-10.924
主	-10.9241
2470	-10.9241
2393	-10.9242
一次	-10.9247
aña	-10.9248
▁prison	-10.925
兒	-10.9265
▁corre	-10.9267
無	-10.9267
▁worst	-10.9267
cierra	-10.9267
▁corriendo	-10.9267
▁apartment	-10.9268
querría	-10.9272
因為	-10.9275
2673	-10.9278
whenever	-10.9279
▁avoid	-10.928
lee	-10.928
2775	-10.9286
scar	-10.9288
3875	-10.9293
▁sentía	-10.9295
adora	-10.9299
2865	-10.9299
冷	-10.9303
3874	-10.9308
▁fix	-10.9318
1972	-10.932
▁entire	-10.9323
客	-10.9326
▁cousin	-10.9326
▁espalda	-10.9326
▁borracho	-10.9326
▁figure	-10.9326
▁aware	-10.9326
▁ciencia	-10.9327
▁estabas	-10.9328
ial	-10.9329
▁recently	-10.9329
3195	-10.9331
▁state	-10.9336
▁hacía	-10.934
1941	-10.9342
想要	-10.9343
1384	-10.9351
2783	-10.9352
告诉	-10.9356
tado	-10.9356
10923	-10.9357
▁nuestras	-10.9359
▁planeta	-10.9364
▁borrow	-10.9377
4562	-10.9381
▁orange	-10.9382
马	-10.9383
shi	-10.9383
▁noticia	-10.9385
▁fresh	-10.9386
2676	-10.9389
abre	-10.939
2740	-10.9395
▁faster	-10.9396
2377	-10.9398
▁debajo	-10.9406
▁respond	-10.9406
▁extraña	-10.9406
知	-10.9408
2839	-10.9411
también	-10.9414
做的	-10.9423
▁remind	-10.9423
confi	-10.9428
gua	-10.9428
▁cross	-10.943
10260	-10.9431
3035	-10.9436
▁verlo	-10.9437
你知道	-10.9438
nder	-10.9439
▁orden	-10.9442
quizá	-10.9445
argelia	-10.9445
2582	-10.9447
2580	-10.9448
▁cocinar	-10.945
▁respecto	-10.9456
trae	-10.9457
吃了	-10.9458
hice	-10.946
▁sentó	-10.946
lamento	-10.946
3138	-10.9462
▁plans	-10.9466
▁hicieron	-10.947
2469	-10.947
▁low	-10.9471
2574	-10.9475
2929	-10.9475
们	-10.9479
▁quiera	-10.9481
9538	-10.9482
sería	-10.9486
次	-10.9491
▁allow	-10.9495
▁facebook	-10.9496
關	-10.9504
努力	-10.9505
1040	-10.9508
▁verdadero	-10.9508
▁local	-10.9509
2774	-10.9513
▁dishes	-10.9513
▁primavera	-10.9514
2488	-10.9515
些	-10.9516
1146	-10.9517
▁sports	-10.9517
3082	-10.9518
2554	-10.9521
岁	-10.9526
creía	-10.9529
常	-10.953
sco	-10.9532
2969	-10.9539
▁ayudarte	-10.9541
▁stole	-10.9552
▁escape	-10.9553
▁lu	-10.9555
2694	-10.9557
2763	-10.9558
mother	-10.9559
▁necesitaba	-10.956
▁principal	-10.9563
是我的	-10.9564
▁universo	-10.9565
▁arroz	-10.9565
▁tormenta	-10.9565
▁field	-10.9568
▁button	-10.9575
▁india	-10.9576
▁entered	-10.9577
▁insult	-10.9577
2765	-10.9582
▁resto	-10.9585
▁1080	-10.9585
4559	-10.9586
▁traducir	-10.9586
總是	-10.9587
▁cell	-10.959
2419	-10.959
?»	-10.9593
停	-10.9597
1030	-10.9598
au	-10.9604
▁semanas	-10.9608
4301	-10.9616
3192	-10.9622
echa	-10.9624
2842	-10.9625
流	-10.9625
期	-10.9625
讲	-10.9625
supongo	-10.9625
▁rápidamente	-10.9626
3013	-10.9626
带	-10.9626
▁piedra	-10.9627
▁casó	-10.9627
4624	-10.9628
▁toward	-10.9631
▁siente	-10.9631
▁reached	-10.9633
dicen	-10.9634
▁oración	-10.9637
▁amo	-10.9638
muchas	-10.9639
1068	-10.9639
entra	-10.964
2598	-10.9642
hey	-10.9643
gro	-10.9643
我們的	-10.9643
2506	-10.9645
4544	-10.9646
2769	-10.9657
2614	-10.9661
我喜欢	-10.9662
2494	-10.9662
2894	-10.9666
2399	-10.9667
▁tampoco	-10.967
1151	-10.9677
▁lied	-10.9679
代	-10.9686
牙	-10.9686
▁extreme	-10.9686
▁durmiendo	-10.9686
▁gafas	-10.9686
邊	-10.9686
▁policeman	-10.9689
2443	-10.969
▁lead	-10.969
4343	-10.9692
▁wise	-10.9692
6878	-10.9693
▁refused	-10.9694
我可以	-10.9694
somebody	-10.9696
3193	-10.9698
pl	-10.9699
▁kissed	-10.9699
男人	-10.9706
3009	-10.9712
▁escucha	-10.9715
▁profesora	-10.9719
alice	-10.9729
▁apologize	-10.9735
▁named	-10.9738
▁ring	-10.974
4346	-10.9745
sentí	-10.9745
往	-10.9747
▁chicken	-10.9748
公司	-10.9748
▁honor	-10.9748
desearía	-10.9749
▁brain	-10.9749
▁minuto	-10.9752
▁actor	-10.9755
▁pared	-10.9756
2532	-10.9759
▁realized	-10.9761
▁pájaros	-10.9762
1032	-10.9763
juan	-10.9766
2428	-10.9766
2867	-10.9769
2784	-10.9769
2899	-10.9771
help	-10.9776
▁oil	-10.9784
儿	-10.9789
4369	-10.9789
▁games	-10.979
10280	-10.9791
▁admir	-10.9792
▁olvidar	-10.9792
▁somebody	-10.98
▁skura	-10.9801
▁wears	-10.9806
1207	-10.9808
2509	-10.9809
拉	-10.9809
▁izquierda	-10.9809
▁bolsa	-10.981
▁agradable	-10.981
hrew	-10.9811
留	-10.9811
2412	-10.9811
上了	-10.9814
▁diferentes	-10.9817
在哪里	-10.9818
10251	-10.982
2466	-10.9827
2771	-10.9828
活	-10.9829
2817	-10.9836
▁pone	-10.984
2701	-10.9841
▁idiota	-10.9847
站	-10.985
hor	-10.9854
▁seriously	-10.9857
▁bored	-10.9857
1387	-10.9859
▁felicidad	-10.9861
2386	-10.9862
▁main	-10.9863
2489	-10.9863
怕	-10.9864
2782	-10.9866
3250	-10.9868
▁artist	-10.9871
黑	-10.9871
▁criminal	-10.9872
▁ganó	-10.9872
▁friday	-10.9872
▁nativo	-10.9872
▁master	-10.9872
▁roof	-10.9872
3066	-10.9886
2622	-10.9888
部	-10.989
▁missing	-10.9892
英语	-10.9894
2690	-10.9902
▁preocupado	-10.9905
2583	-10.9905
1085	-10.9906
2391	-10.9907
讓	-10.9907
2869	-10.9907
▁heat	-10.9909
我也	-10.9909
▁américa	-10.9922
eras	-10.9922
vimos	-10.9923
找到	-10.9923
▁desa	-10.9925
3054	-10.9926
▁original	-10.9926
▁sepa	-10.993
9531	-10.993
特	-10.9933
▁author	-10.9933
▁jóvenes	-10.9934
▁gustó	-10.9934
▁abrió	-10.9934
3070	-10.9936
3705	-10.9936
tenéis	-10.9937
▁million	-10.9946
▁computadora	-10.9949
周	-10.995
▁smiled	-10.9955
6877	-10.9957
▁buscar	-10.9957
2708	-10.9959
▁flat	-10.996
rap	-10.9964
line	-10.9965
▁parar	-10.9966
3040	-10.9972
是一个	-10.9973
▁pastel	-10.9974
跑	-10.9975
▁neither	-10.9978
▁hablan	-10.9978
6804	-10.9981
▁anywhere	-10.9981
▁tro	-10.9981
2427	-10.9982
▁tengas	-10.9984
▁realize	-10.9985
dy	-10.9986
2518	-10.9987
3058	-10.9989
▁liber	-10.999
3019	-10.9991
語	-10.9996
量	-10.9997
▁puente	-10.9997
這些	-10.9998
paul	-11.0004
▁pieza	-11.0005
4630	-11.0006
▁dices	-11.0007
▁grave	-11.0012
2534	-11.0016
一天	-11.0016
4370	-11.0017
▁humano	-11.002
3022	-11.0021
2379	-11.0029
▁árboles	-11.0031
▁greek	-11.0031
起来	-11.0033
1173	-11.0033
3008	-11.0034
▁queremos	-11.0035
▁interest	-11.0039
3214	-11.0043
▁escribe	-11.0046
誰	-11.0048
假	-11.006
▁relax	-11.006
▁south	-11.006
▁muchacho	-11.0062
2744	-11.0063
女人	-11.0065
2864	-11.0067
2456	-11.0068
3097	-11.0073
2497	-11.0076
21116	-11.0082
▁juega	-11.0082
▁bella	-11.0083
▁suddenly	-11.0087
way	-11.0088
二	-11.0094
▁paint	-11.0096
die	-11.0097
ary	-11.0098
2498	-11.0098
▁1060	-11.0101
▁watched	-11.0102
▁hall	-11.0102
2617	-11.0102
old	-11.0105
ized	-11.0105
aban	-11.0107
不想	-11.0117
真的	-11.0118
luc	-11.0119
2422	-11.0121
讀	-11.0124
原	-11.0124
▁feet	-11.0124
▁corner	-11.0125
▁broma	-11.0126
▁bigger	-11.0126
▁raro	-11.0129
几	-11.0129
2551	-11.0133
▁finger	-11.0134
over	-11.0135
▁toilet	-11.014
班	-11.0141
2505	-11.0142
▁stranger	-11.0143
2702	-11.0147
2966	-11.0151
▁diga	-11.0158
▁football	-11.0158
▁latin	-11.0168
▁kyoto	-11.0171
▁ken	-11.0174
1089	-11.0175
▁cuidar	-11.0175
▁lavar	-11.0175
3477	-11.0181
▁breath	-11.0182
2558	-11.0184
▁sacar	-11.0186
眼	-11.0188
▁naturaleza	-11.0188
▁innocent	-11.0188
▁segunda	-11.0188
▁math	-11.019
2559	-11.0192
▁enemigo	-11.0197
▁within	-11.0197
▁healthy	-11.0198
▁junto	-11.0198
4366	-11.0199
normalmente	-11.0199
▁molesta	-11.0203
东西	-11.0203
2578	-11.0207
lava	-11.021
«¿	-11.0219
▁reach	-11.0219
3106	-11.022
ann	-11.0225
2672	-11.023
2767	-11.0237
▁board	-11.0243
▁existe	-11.0244
quiere	-11.0244
,000	-11.025
學生	-11.0252
▁culture	-11.0253
送	-11.0253
▁disease	-11.0253
约	-11.0253
▁tarta	-11.0255
▁cheap	-11.0255
▁visita	-11.0256
aré	-11.0259
3147	-11.0262
▁size	-11.0262
2990	-11.0266
2909	-11.0267
▁resultado	-11.0268
▁pienso	-11.0269
2778	-11.0271
1166	-11.0273
2722	-11.0273
2536	-11.0273
2840	-11.0282
amo	-11.0283
2639	-11.0283
3405	-11.0283
2522	-11.0284
▁chicas	-11.0284
4626	-11.0286
3041	-11.0289
2615	-11.029
4567	-11.0291
7173	-11.0293
2835	-11.0295
1135	-11.0295
3063	-11.0296
should	-11.0301
2846	-11.0305
▁fail	-11.031
2420	-11.031
8544	-11.0317
工	-11.0317
演	-11.0317
▁distance	-11.0318
▁espacio	-11.0318
▁fuji	-11.0318
▁vuelto	-11.0318
credit	-11.0318
▁ayude	-11.0318
gui	-11.0324
más	-11.0327
▁acostumbrado	-11.0327
recuerda	-11.0328
tter	-11.033
▁quedé	-11.0331
volveré	-11.0333
2500	-11.0335
▁belong	-11.0335
所有的	-11.0336
mina	-11.0341
▁estrellas	-11.0343
2663	-11.0343
▁alemania	-11.0345
1355	-11.0345
1651	-11.0347
2491	-11.0347
告訴	-11.0353
▁1068	-11.0354
3143	-11.0355
3072	-11.0356
▁sr	-11.0358
3059	-11.036
▁bomb	-11.036
2442	-11.0361
dig	-11.0364
▁artificial	-11.0365
2556	-11.0368
2415	-11.037
9038	-11.0371
1109	-11.0371
。”	-11.0374
2964	-11.0379
2451	-11.0381
bol	-11.0383
perdón	-11.0383
▁temperature	-11.0383
▁inglaterra	-11.0383
▁medicina	-11.0383
▁cool	-11.0385
▁entrada	-11.0386
3045	-11.0389
2848	-11.039
2457	-11.0391
unfortunately	-11.0394
▁pies	-11.0395
我不想	-11.0395
▁hurts	-11.0396
▁dijeron	-11.0398
难	-11.0398
2962	-11.0402
▁correo	-11.0402
▁enjoyed	-11.0403
她在	-11.0404
2612	-11.0408
2806	-11.0409
▁likely	-11.0419
▁straight	-11.0424
4603	-11.0434
女	-11.0435
2579	-11.0436
2436	-11.044
▁attack	-11.0441
2688	-11.0441
該	-11.0448
▁aprendiendo	-11.0449
▁nurse	-11.0449
▁planning	-11.045
▁contó	-11.0451
▁dicen	-11.0453
2849	-11.0454
▁area	-11.0459
▁delante	-11.0461
▁sueños	-11.0466
▁explained	-11.0467
2438	-11.0472
2882	-11.0474
▁quedarse	-11.0479
9095	-11.0481
2695	-11.0483
2465	-11.0483
2576	-11.0483
mathematics	-11.0484
進	-11.0485
2575	-11.049
問題	-11.0497
ding	-11.0499
2467	-11.0501
én	-11.0501
▁hadn	-11.0505
1088	-11.0506
3093	-11.0507
▁keeps	-11.0507
3201	-11.051
2446	-11.0512
▁programa	-11.0513
差	-11.0515
4499	-11.0515
▁advantage	-11.0515
▁derecha	-11.0515
▁discovered	-11.0515
▁comfortable	-11.0515
ales	-11.0516
▁filled	-11.0516
sol	-11.0517
3095	-11.0518
▁dry	-11.0521
▁guard	-11.0523
▁washing	-11.0525
however	-11.0526
说话	-11.0527
2401	-11.0528
▁3392	-11.0528
▁roja	-11.053
hop	-11.0532
without	-11.0535
coge	-11.0537
▁intentó	-11.0539
2490	-11.054
▁harder	-11.0542
▁web	-11.0544
▁cita	-11.0548
2455	-11.0553
2501	-11.0554
bru	-11.0558
每天	-11.0558
▁roto	-11.0563
实	-11.0569
▁trans	-11.0574
ize	-11.0576
▁wet	-11.058
▁feels	-11.0581
河	-11.0581
giving	-11.0582
▁intelligent	-11.0582
▁olvidó	-11.0582
▁twelve	-11.0582
▁aburrido	-11.0582
▁reír	-11.0582
▁guapa	-11.0582
2414	-11.0582
說話	-11.0583
2624	-11.0584
▁entiende	-11.0592
podé	-11.0594
1171	-11.0596
▁quedarme	-11.0603
▁brush	-11.0606
layla	-11.0609
買了	-11.0612
2499	-11.0613
3233	-11.0613
3198	-11.0615
▁perfecto	-11.0615
father	-11.0615
下雨	-11.0615
▁ears	-11.0622
desea	-11.0632
▁whatever	-11.0633
▁computador	-11.0633
2653	-11.0639
▁express	-11.0641
béis	-11.0641
▁oblig	-11.0643
▁exercise	-11.0643
1203	-11.0648
此	-11.0648
▁trató	-11.0649
▁ground	-11.0649
8694	-11.0649
2557	-11.065
8671	-11.065
▁huge	-11.0653
ction	-11.0654
我就	-11.0658
bio	-11.0658
2640	-11.0662
debe	-11.0663
跟我	-11.0665
▁upon	-11.0667
cogió	-11.0667
ze	-11.0667
3205	-11.0667
2619	-11.0674
2916	-11.0677
bb	-11.0677
3191	-11.0692
watch	-11.0694
▁answered	-11.0697
▁queso	-11.0698
▁tuviera	-11.0698
▁layla	-11.0703
▁usual	-11.0708
▁limpia	-11.071
2863	-11.0712
数	-11.0716
saca	-11.0716
▁drop	-11.0716
▁truck	-11.0716
菜	-11.0716
认识	-11.0716
▁ladrón	-11.0716
9547	-11.0717
1081	-11.0726
▁verme	-11.0726
▁lesson	-11.0728
law	-11.0732
2504	-11.0734
2479	-11.0734
10265	-11.0734
once	-11.0735
peter	-11.0737
▁vegetables	-11.074
2709	-11.074
▁aunt	-11.074
8904	-11.0741
▁cancer	-11.0746
3094	-11.0746
3197	-11.0746
▁talks	-11.075
看看	-11.075
▁ahead	-11.0751
3060	-11.0755
2926	-11.0761
3062	-11.0764
3215	-11.0766
2584	-11.0772
ship	-11.0774
pas	-11.0778
美国	-11.0779
▁correcta	-11.0784
化	-11.0784
▁objetivo	-11.0784
▁picnic	-11.0784
▁theater	-11.0785
fuiste	-11.0786
▁compras	-11.079
▁habló	-11.0791
▁noticed	-11.0796
▁lack	-11.0797
2741	-11.0799
该	-11.0802
▁saved	-11.0805
illas	-11.0806
▁llueve	-11.0809
tras	-11.0809
comí	-11.081
2572	-11.0813
5469	-11.0815
amar	-11.0816
aprende	-11.0824
这么	-11.0824
2384	-11.0828
ical	-11.0831
▁útil	-11.0838
fill	-11.0841
21115	-11.0846
apenas	-11.085
▁intentar	-11.0852
動	-11.0852
▁injured	-11.0853
▁sonrisa	-11.0853
▁memoria	-11.0853
今晚	-11.0853
▁primo	-11.0853
▁headache	-11.0853
▁prize	-11.0854
▁forgotten	-11.0855
▁program	-11.0855
while	-11.0856
3885	-11.0857
▁observ	-11.0859
toda	-11.0863
命	-11.0864
2815	-11.0867
▁9667	-11.0868
▁judge	-11.0869
▁limpiar	-11.0872
2585	-11.0874
▁cap	-11.0875
2772	-11.0875
▁jane	-11.0888
2884	-11.0891
▁8769	-11.0891
国家	-11.0893
8553	-11.0895
ned	-11.0896
▁believed	-11.0896
2684	-11.0899
3020	-11.0899
fuck	-11.0902
2407	-11.0903
tira	-11.091
press	-11.0912
使	-11.0918
▁condition	-11.0919
▁películas	-11.0921
店	-11.0921
▁arreglar	-11.0921
▁accent	-11.0922
▁pocket	-11.0922
▁artículo	-11.0922
▁memory	-11.0922
▁passport	-11.0922
▁bright	-11.0922
▁theory	-11.0922
▁assume	-11.0922
你不	-11.0922
1118	-11.0923
▁pensó	-11.0923
3199	-11.0925
▁race	-11.0927
▁gay	-11.0928
▁gives	-11.0932
2938	-11.094
▁dima	-11.094
▁considered	-11.0942
endo	-11.0943
▁temo	-11.0943
▁domingos	-11.0947
重要	-11.0949
▁ordered	-11.095
▁partir	-11.0958
3088	-11.0961
▁cerrar	-11.0962
2633	-11.0963
3064	-11.0968
▁1034	-11.097
3080	-11.0973
3126	-11.0975
2870	-11.0979
少	-11.0983
▁firm	-11.0989
ándose	-11.0991
▁stomach	-11.0991
与	-11.0991
落	-11.0991
▁thief	-11.0991
▁population	-11.0991
▁decidido	-11.0991
▁museo	-11.0991
▁cried	-11.0993
▁cash	-11.0993
2927	-11.0993
▁windows	-11.0995
▁silent	-11.0997
3078	-11.1003
roma	-11.1004
▁picked	-11.1005
▁caused	-11.1007
via	-11.1011
3137	-11.1021
3222	-11.1027
3249	-11.1028
camina	-11.1035
2461	-11.1036
2852	-11.1036
▁vuestro	-11.1038
2516	-11.1038
2718	-11.1039
2812	-11.1044
2519	-11.1045
▁llamado	-11.1047
▁beauty	-11.1051
8672	-11.1052
6823	-11.1053
9169	-11.1054
氣	-11.106
▁article	-11.1061
▁promesa	-11.1061
▁pintura	-11.1061
▁enorme	-11.1061
▁mitad	-11.1061
▁buying	-11.1068
10266	-11.107
2480	-11.1071
6806	-11.1071
sabe	-11.1073
▁pertenece	-11.1076
▁1976	-11.1076
5709	-11.1077
▁education	-11.1078
ward	-11.1081
2821	-11.1082
2638	-11.1084
1205	-11.1084
▁italia	-11.1085
2834	-11.1087
▁texto	-11.1091
3189	-11.1094
2421	-11.1095
cé	-11.1096
8869	-11.1101
ama	-11.1102
東西	-11.111
▁coger	-11.1112
3006	-11.1113
2819	-11.1113
cualquiera	-11.1116
1158	-11.1117
eron	-11.1118
▁pieces	-11.1128
洗	-11.1131
▁ayudó	-11.1132
▁century	-11.1132
▁professor	-11.1132
汤姆和玛丽	-11.1132
▁itself	-11.1132
回答	-11.1132
3217	-11.1133
▁3300	-11.1135
2720	-11.1135
3042	-11.1136
▁sentimientos	-11.114
▁tuya	-11.1141
▁painted	-11.1143
還是	-11.1143
3055	-11.1144
▁ganado	-11.1144
▁issue	-11.1144
1940	-11.1146
2841	-11.115
▁queja	-11.1151
▁vivía	-11.1153
▁dressed	-11.1156
2904	-11.1157
▁nature	-11.1158
▁comen	-11.1158
rí	-11.1158
▁practice	-11.1158
sois	-11.1159
▁tuve	-11.1161
2803	-11.1161
▁instead	-11.1162
▁sex	-11.1164
▁prestar	-11.1164
2601	-11.1166
3207	-11.1168
▁costs	-11.1168
▁hid	-11.1169
2616	-11.1169
▁text	-11.1174
▁estudio	-11.118
necesitas	-11.1182
2902	-11.1183
▁cards	-11.1185
2861	-11.1186
vende	-11.1186
▁cola	-11.119
2413	-11.1191
▁cd	-11.1191
2793	-11.1194
▁jugador	-11.1198
七	-11.1202
▁sábado	-11.1202
▁third	-11.1202
▁hielo	-11.1202
如何	-11.1202
▁alegra	-11.1202
英文	-11.1202
▁flight	-11.1203
2760	-11.1204
2385	-11.1204
▁pal	-11.1207
▁puedas	-11.1215
rob	-11.122
nza	-11.1221
mil	-11.1222
▁dulce	-11.1226
▁veía	-11.1231
2795	-11.1232
4764	-11.1234
yu	-11.1236
2555	-11.1243
3043	-11.1249
2930	-11.1249
2959	-11.1253
3234	-11.1253
4643	-11.1258
2512	-11.1259
3209	-11.126
▁crowd	-11.1268
mamá	-11.1269
2594	-11.1272
城市	-11.1273
付	-11.1274
▁japonesa	-11.1274
▁mundial	-11.1274
▁behavior	-11.1274
▁pregnant	-11.1274
▁revista	-11.1274
▁solution	-11.1274
课	-11.1274
▁pleasure	-11.1274
▁pool	-11.1274
2656	-11.1275
▁cantante	-11.1277
▁permitir	-11.1282
▁olvidado	-11.1286
▁cambiado	-11.1288
5644	-11.129
▁brasil	-11.129
▁cien	-11.1291
▁mark	-11.1291
▁duerme	-11.1291
由	-11.1291
3922	-11.1292
▁sand	-11.1294
▁accepted	-11.1295
▁platos	-11.1296
▁miles	-11.1307
▁director	-11.1307
iente	-11.131
3052	-11.1312
▁hole	-11.1315
2567	-11.1322
leí	-11.1325
如	-11.1329
3886	-11.1335
多少	-11.1335
▁document	-11.1337
▁slow	-11.134
close	-11.1343
做什么	-11.1343
▁encuentro	-11.1344
▁easier	-11.1346
▁stuff	-11.1346
这本书	-11.1346
▁speaker	-11.1347
▁anti	-11.1348
▁preparado	-11.1353
▁fed	-11.1353
▁uso	-11.1355
▁rica	-11.1355
▁rang	-11.1356
3079	-11.1359
告诉我	-11.136
▁canada	-11.1365
2838	-11.1366
▁runs	-11.1372
3244	-11.1375
2521	-11.1379
我把	-11.1382
▁simplemente	-11.1387
▁em	-11.1389
rió	-11.139
在这里	-11.1393
3017	-11.1395
学校	-11.1402
▁notice	-11.1408
2435	-11.1409
馬	-11.1416
▁servicio	-11.1418
▁seguridad	-11.1418
▁afford	-11.1418
旅行	-11.1418
這麼	-11.1418
▁carrera	-11.1418
éramos	-11.1419
▁cansada	-11.142
▁largest	-11.1421
6807	-11.1421
我想要	-11.1421
▁doll	-11.1422
3048	-11.1424
ner	-11.1428
回来	-11.1429
▁abandon	-11.143
3237	-11.1434
也不	-11.1437
5038	-11.144
cap	-11.144
jamás	-11.1442
mejor	-11.1445
ez	-11.1446
2908	-11.1446
dice	-11.1451
2437	-11.1452
gged	-11.1454
9546	-11.1457
▁alarm	-11.1461
机	-11.1461
uring	-11.1462
3065	-11.147
rry	-11.1475
▁hermanas	-11.1478
6403	-11.1478
▁fired	-11.1483
3241	-11.1487
▁regard	-11.1488
咖啡	-11.1491
品	-11.1491
▁lápiz	-11.1491
▁opportunity	-11.1491
▁appreciate	-11.1491
▁require	-11.1491
ny	-11.1493
2920	-11.1495
3075	-11.1497
1037	-11.1499
▁aquella	-11.15
2434	-11.1502
vos	-11.1502
▁draw	-11.1505
2096	-11.1506
▁brazil	-11.1508
3204	-11.1512
▁ante	-11.1514
▁blanca	-11.1518
▁neighbor	-11.1519
2448	-11.1521
ier	-11.1522
part	-11.1522
▁merece	-11.1525
▁agreed	-11.1529
1987	-11.1532
▁ignor	-11.1532
星期	-11.1534
▁mentira	-11.1536
▁iron	-11.1542
3265	-11.1544
▁knowledge	-11.1545
▁jack	-11.1547
4770	-11.1549
▁pill	-11.1551
ray	-11.1557
1725	-11.1558
3091	-11.1559
▁probar	-11.1559
▁continue	-11.1561
▁discurso	-11.1565
▁evil	-11.1565
▁hobby	-11.1565
nosotras	-11.1565
▁sorprendido	-11.1565
▁diario	-11.1566
那些	-11.1566
2562	-11.1566
▁ducha	-11.1566
▁center	-11.1567
▁ruso	-11.1569
怎么样	-11.1569
3068	-11.157
2697	-11.1571
camp	-11.1572
5548	-11.1573
wore	-11.1574
▁partes	-11.1574
▁vote	-11.1575
aquel	-11.1575
▁flying	-11.1577
siento	-11.1579
rd	-11.1581
4351	-11.1585
▁skin	-11.1586
2433	-11.1587
2533	-11.1588
有一	-11.1589
▁habrá	-11.1592
2514	-11.1593
4033	-11.1602
1808	-11.1605
▁africa	-11.1605
2604	-11.1605
3950	-11.1609
▁podrá	-11.1612
1857	-11.1613
2818	-11.1613
▁planes	-11.1614
▁compré	-11.1616
veo	-11.1623
9696	-11.1624
▁depende	-11.1627
這裡	-11.1635
▁decirme	-11.1636
▁nuevos	-11.1637
音	-11.1639
衣	-11.1639
▁propósito	-11.1639
▁bolígrafo	-11.1639
▁empleo	-11.1639
▁lloviendo	-11.1639
▁stuck	-11.1639
fortune	-11.1639
2933	-11.164
▁señal	-11.164
4952	-11.1642
▁torta	-11.1644
▁mapa	-11.1646
▁enviar	-11.165
▁contacto	-11.1652
▁castle	-11.1653
▁contest	-11.1653
比我	-11.1663
2978	-11.1667
2586	-11.167
3117	-11.1671
2381	-11.1673
existen	-11.1675
5737	-11.1675
▁writer	-11.1684
4602	-11.1692
片	-11.1693
11644	-11.1695
我需要	-11.1697
dí	-11.1697
2392	-11.1699
1149	-11.1702
sigue	-11.1703
▁ayudarme	-11.1704
solía	-11.1707
éis	-11.1708
八	-11.1713
服	-11.1713
歲	-11.1713
热	-11.1713
▁belleza	-11.1713
▁educación	-11.1714
2553	-11.1718
mer	-11.1718
1583	-11.172
3104	-11.172
2592	-11.1723
▁fría	-11.1723
3190	-11.1728
2960	-11.1728
▁mató	-11.1729
▁throw	-11.1729
▁wood	-11.1738
▁esas	-11.1741
▁experiment	-11.1742
收	-11.1748
2976	-11.175
2669	-11.1758
trajo	-11.1765
3005	-11.177
3016	-11.177
▁complain	-11.1773
▁viste	-11.1775
▁belongs	-11.1776
14958	-11.1781
▁calling	-11.1782
6196	-11.1784
只是	-11.1785
▁—	-11.1785
雪	-11.1788
2474	-11.1788
先	-11.1788
食	-11.1788
呀	-11.1789
树	-11.1789
▁ejercicio	-11.1789
▁ashamed	-11.1789
▁explanation	-11.1789
▁stories	-11.1789
▁intention	-11.1789
betty	-11.1789
▁guilty	-11.1789
▁weird	-11.1792
2789	-11.1792
work	-11.1794
▁enfadado	-11.1794
queremos	-11.1795
女孩	-11.1798
listen	-11.1799
▁nearly	-11.1801
▁rise	-11.1802
▁teaching	-11.1804
▁prepared	-11.1804
2493	-11.1805
▁followed	-11.1808
半	-11.1811
▁translated	-11.1812
2742	-11.1817
2636	-11.1824
▁contact	-11.1825
▁awake	-11.1826
▁ojo	-11.1826
2785	-11.1829
▁metro	-11.1833
4517	-11.1837
▁fond	-11.1837
▁north	-11.1839
2883	-11.184
▁caer	-11.184
▁levanta	-11.1844
起來	-11.1852
2652	-11.1852
8690	-11.1853
认为	-11.1854
▁aquellos	-11.1855
3169	-11.1855
天气	-11.1855
2560	-11.1858
hable	-11.186
病	-11.1863
6812	-11.1863
3023	-11.1864
▁almorzar	-11.1864
▁excellent	-11.1864
▁despacio	-11.1864
▁suitcase	-11.1864
bienvenido	-11.1864
▁relationship	-11.1864
美國	-11.1865
▁siglo	-11.1865
▁bedroom	-11.1865
▁cerrada	-11.1866
lic	-11.1868
3378	-11.187
2696	-11.1872
▁tri	-11.1876
▁permite	-11.1878
2566	-11.1878
11835	-11.188
isn	-11.1885
6197	-11.1886
1082	-11.1888
first	-11.1888
求	-11.1888
▁sabemos	-11.1894
10259	-11.1896
3122	-11.1898
▁tastes	-11.1901
dores	-11.1901
1650	-11.1902
給你	-11.1902
2786	-11.1904
只有	-11.1906
7156	-11.1907
2780	-11.191
9067	-11.1912
3073	-11.1922
2974	-11.1922
在這裡	-11.1922
2550	-11.1923
7900	-11.1924
2432	-11.193
24516	-11.1932
3103	-11.1933
2923	-11.1936
1582	-11.194
睡觉	-11.1941
▁intención	-11.1941
▁teoría	-11.1941
preferiría	-11.1941
一樣	-11.1942
▁ruin	-11.1946
您的	-11.1946
▁hill	-11.1946
我去	-11.1948
goodbye	-11.195
6809	-11.195
▁poet	-11.1951
是誰	-11.1955
2975	-11.1956
3007	-11.196
▁washed	-11.1963
2798	-11.1964
2524	-11.1964
▁norte	-11.1965
3196	-11.197
2523	-11.1972
2597	-11.1973
hablo	-11.1974
▁believes	-11.1979
cep	-11.1984
6808	-11.1988
3034	-11.1988
我不能	-11.1994
2535	-11.1995
3071	-11.2
side	-11.2
2609	-11.2003
▁discuss	-11.2009
2462	-11.2013
5087	-11.2015
2383	-11.2015
妈妈	-11.2018
肉	-11.2018
perhaps	-11.2018
▁carretera	-11.2018
▁teatro	-11.2018
▁ocean	-11.2018
3161	-11.2018
▁llamo	-11.2019
▁corto	-11.2019
▁metal	-11.202
10263	-11.2024
火車	-11.2026
3232	-11.2029
总是	-11.2033
▁lágrimas	-11.2033
3720	-11.2037
我喜歡	-11.2037
▁paseo	-11.2037
▁herido	-11.2039
▁preocupes	-11.2042
adónde	-11.2051
3144	-11.2053
2589	-11.2058
2816	-11.2059
回來	-11.206
2675	-11.206
好的	-11.2071
▁rose	-11.2072
▁talento	-11.2073
3086	-11.2073
3015	-11.2075
▁cambia	-11.2079
podés	-11.2079
3030	-11.2079
2691	-11.208
didn	-11.2085
▁lights	-11.2086
6819	-11.2086
▁pinta	-11.2086
▁modern	-11.2087
2939	-11.2095
實	-11.2095
▁ourselves	-11.2095
▁premio	-11.2095
▁value	-11.2095
▁llorando	-11.2095
▁ugly	-11.2096
ían	-11.2096
▁lenguaje	-11.2098
▁lots	-11.2098
2692	-11.2099
21113	-11.2099
地方	-11.21
▁disappointed	-11.21
2496	-11.2102
▁boda	-11.2103
▁hell	-11.2105
taro	-11.2105
▁sonido	-11.2106
▁volar	-11.2106
▁rosa	-11.2108
2781	-11.2109
▁pet	-11.2111
是我	-11.2111
▁lazy	-11.2111
push	-11.2111
觉得	-11.2116
▁nose	-11.2116
1305	-11.212
▁3805	-11.2123
▁techo	-11.2125
▁decirte	-11.2128
▁negocio	-11.2132
▁herida	-11.2133
4352	-11.214
7769	-11.2141
7192	-11.2144
1809	-11.2145
pareces	-11.215
2844	-11.215
10276	-11.2152
▁courage	-11.2153
▁darle	-11.2157
▁murder	-11.2158
3002	-11.2159
借	-11.216
cuanto	-11.216
▁algeria	-11.2161
21118	-11.2164
2613	-11.2165
▁intend	-11.2166
6821	-11.2172
2520	-11.2172
干	-11.2173
2847	-11.2173
谈	-11.2173
米	-11.2173
▁corbata	-11.2173
▁energy	-11.2173
火车	-11.2174
▁quiso	-11.2175
3053	-11.2175
▁cab	-11.2175
▁carried	-11.2176
▁apenas	-11.2177
vale	-11.218
6604	-11.218
▁arrested	-11.2181
phone	-11.2182
whoever	-11.2183
▁earthquake	-11.2189
8847	-11.2194
▁kick	-11.2198
和我	-11.2198
viva	-11.22
得到	-11.2202
▁flu	-11.2204
▁bell	-11.2205
trata	-11.2207
3127	-11.2209
▁starting	-11.2209
▁deserve	-11.2211
ating	-11.2215
2733	-11.2216
2858	-11.2223
4661	-11.2223
vete	-11.2228
母親	-11.2229
1034	-11.223
▁casar	-11.223
7774	-11.2232
▁meta	-11.2239
plant	-11.224
▁lay	-11.2247
3162	-11.2247
▁fair	-11.2248
醒	-11.2252
▁enojado	-11.2252
▁frecuencia	-11.2252
▁classroom	-11.2252
▁duty	-11.2252
vive	-11.2253
▁embargo	-11.2253
▁friendship	-11.2254
5565	-11.2254
▁grass	-11.2255
2874	-11.2257
2797	-11.2257
▁tight	-11.2258
8958	-11.2265
▁1059	-11.2269
▁haberlo	-11.2275
quien	-11.2276
懂	-11.2277
ció	-11.228
▁tratar	-11.2285
完全	-11.2293
▁diet	-11.2293
▁willing	-11.2294
▁electric	-11.2294
▁reserva	-11.2294
oye	-11.2295
7161	-11.2295
2866	-11.2296
2885	-11.2297
2843	-11.2301
份	-11.2301
handed	-11.2308
▁liar	-11.2309
2395	-11.2309
给你	-11.2315
▁placer	-11.2319
▁wound	-11.2323
4708	-11.2329
repeat	-11.2331
ler	-11.2331
神	-11.2331
▁satisfecho	-11.2331
▁request	-11.2331
▁supermarket	-11.2331
▁viernes	-11.2331
倒	-11.2331
▁amistad	-11.2331
离开	-11.2332
10261	-11.2336
▁managed	-11.2338
3218	-11.2338
衣服	-11.2338
▁traer	-11.2339
一直	-11.2347
2006	-11.2348
10267	-11.2348
three	-11.2351
2634	-11.2353
▁noches	-11.2353
▁parecen	-11.2356
ged	-11.2356
2618	-11.2371
▁madera	-11.2372
▁pierna	-11.2372
tura	-11.2375
2770	-11.2376
▁solar	-11.2376
▁abajo	-11.2377
▁force	-11.2381
2876	-11.2382
▁italiano	-11.2392
讓我	-11.2401
6699	-11.2406
星	-11.241
便	-11.2411
▁tráfico	-11.2411
▁examination	-11.2411
講	-11.2411
▁self	-11.2412
爸爸	-11.2412
▁fever	-11.2413
tendré	-11.2414
2473	-11.2414
▁escuchando	-11.2414
▁maleta	-11.2415
▁rude	-11.2415
10921	-11.2417
gal	-11.2419
▁golpe	-11.242
3092	-11.2421
▁cabo	-11.2422
2961	-11.2422
▁hang	-11.2424
15534	-11.2426
3165	-11.2429
▁potatoes	-11.243
▁pelota	-11.243
▁sooner	-11.2438
▁rid	-11.244
2965	-11.2443
últimamente	-11.2443
2659	-11.2444
▁honesto	-11.2446
▁fondo	-11.2447
3081	-11.2452
▁pot	-11.2458
costó	-11.2459
百	-11.2461
1970	-11.2461
种	-11.2461
vine	-11.2463
▁round	-11.2467
2896	-11.2469
▁birth	-11.247
1358	-11.2473
llame	-11.2473
▁esos	-11.2485
ked	-11.249
间	-11.2491
痛	-11.2492
▁paciencia	-11.2492
▁citizen	-11.2492
▁mirror	-11.2492
▁suspect	-11.2492
▁distancia	-11.2492
▁snake	-11.2492
▁sociedad	-11.2492
富	-11.2492
▁clever	-11.2492
▁elevator	-11.2492
▁harto	-11.2492
▁peces	-11.2492
先生	-11.2493
句子	-11.2493
▁culpable	-11.2493
中文	-11.2494
▁conocía	-11.2494
▁complaining	-11.2499
2888	-11.25
3213	-11.2501
▁cookies	-11.2504
2750	-11.2506
1184	-11.2507
2703	-11.2511
decid	-11.2511
2453	-11.2512
izado	-11.2512
跟你	-11.2513
11642	-11.2516
4334	-11.2517
1807	-11.2518
▁listened	-11.2524
apaga	-11.2524
▁vuelva	-11.2526
3133	-11.2529
1956	-11.253
2581	-11.2532
8418	-11.2534
▁página	-11.2535
2934	-11.2538
台	-11.254
▁soportar	-11.2543
az	-11.2544
3252	-11.2546
acepta	-11.2552
3069	-11.2558
2631	-11.256
3074	-11.2564
▁religion	-11.2567
7074	-11.2567
3038	-11.257
2979	-11.2571
russia	-11.2571
处	-11.2573
spite	-11.2573
▁levantó	-11.2573
▁tarjeta	-11.2573
▁inocente	-11.2573
▁negra	-11.2573
▁lonely	-11.2573
▁square	-11.2573
▁viviendo	-11.2573
▁dropped	-11.2574
2737	-11.2574
▁shy	-11.2575
▁smells	-11.2575
▁agrada	-11.2576
▁tratando	-11.2577
▁quick	-11.2579
2513	-11.258
民	-11.2584
2880	-11.2585
11409	-11.2589
▁trampa	-11.259
2674	-11.2593
了他	-11.2597
▁pescar	-11.2599
3156	-11.2599
2813	-11.26
▁6866	-11.2603
▁interesado	-11.2606
▁huele	-11.2606
3472	-11.2608
2463	-11.2608
感	-11.2609
▁tendrá	-11.2613
▁tend	-11.262
的是	-11.2624
2658	-11.263
ño	-11.263
2426	-11.2631
▁marca	-11.2631
▁deporte	-11.2635
hurry	-11.2636
smoking	-11.2637
▁pleased	-11.2641
8985	-11.2642
3160	-11.2644
2665	-11.2645
dar	-11.2646
ponga	-11.2648
我没有	-11.265
▁despierto	-11.2655
▁cigarette	-11.2655
▁fifty	-11.2655
▁increíble	-11.2655
▁acento	-11.2655
▁traducción	-11.2655
▁oraciones	-11.2655
okay	-11.2655
認識	-11.2655
2935	-11.2656
▁dying	-11.2657
新的	-11.266
▁certainly	-11.2662
6223	-11.2668
3061	-11.2669
4079	-11.2669
any	-11.2672
▁bite	-11.2672
整	-11.2672
ther	-11.2674
3469	-11.2677
▁vuestra	-11.268
▁besar	-11.2683
2837	-11.2684
5689	-11.2686
1188	-11.2687
2487	-11.2688
不好	-11.2691
▁teaches	-11.2692
cien	-11.2692
▁skirt	-11.2692
▁sundays	-11.2694
10284	-11.2699
他不	-11.27
▁8463	-11.2701
10258	-11.2701
out	-11.2703
3957	-11.2711
4773	-11.2712
▁comenzar	-11.2714
2390	-11.2716
▁mat	-11.2717
uda	-11.272
3087	-11.2722
▁angel	-11.2726
nna	-11.2729
5207	-11.273
▁hablado	-11.2731
3888	-11.2733
encontré	-11.2733
▁insect	-11.2736
2569	-11.2737
友	-11.2738
▁proposal	-11.2738
▁solución	-11.2738
▁failure	-11.2738
卡	-11.2738
▁absoluto	-11.2738
帮助	-11.2738
離開	-11.2738
▁flag	-11.2739
▁robó	-11.2739
▁rara	-11.2742
1989	-11.2744
你應該	-11.2747
ific	-11.2749
2850	-11.2751
8685	-11.2751
父母	-11.2751
▁loud	-11.2754
▁dare	-11.2754
▁arms	-11.2757
2595	-11.2759
2992	-11.276
trabaja	-11.2764
十分	-11.2765
▁refer	-11.2767
more	-11.2769
▁whom	-11.2774
ever	-11.2776
是谁	-11.2781
▁amount	-11.2783
▁significado	-11.2786
christ	-11.2786
2928	-11.2791
espere	-11.2793
3194	-11.2796
2459	-11.2802
8565	-11.2803
2836	-11.2805
2791	-11.2806
▁arrest	-11.2807
▁improve	-11.2809
▁build	-11.2815
▁letra	-11.2816
2787	-11.2818
▁begins	-11.2819
2651	-11.282
2982	-11.282
婚	-11.2821
▁juguete	-11.2821
fashion	-11.2821
▁incendio	-11.2821
▁enseñó	-11.2821
▁excelente	-11.2821
▁barely	-11.2821
老師	-11.2822
▁conversation	-11.2822
▁lift	-11.2822
arme	-11.2822
2678	-11.2824
小心	-11.2825
1091	-11.2827
▁greatest	-11.2828
7972	-11.2828
▁convertir	-11.2828
speak	-11.2829
3990	-11.2829
copia	-11.2832
▁brave	-11.2832
▁fixed	-11.2833
忘了	-11.2834
8991	-11.2834
estudia	-11.2835
2868	-11.2835
医生	-11.2836
rado	-11.2837
▁crimen	-11.2842
8601	-11.2848
2677	-11.285
2626	-11.285
pes	-11.285
4956	-11.2855
完	-11.2857
3231	-11.2858
▁artista	-11.2861
2949	-11.2861
dica	-11.2862
發生	-11.2869
▁preguntar	-11.287
▁effort	-11.287
和你	-11.2871
eta	-11.2872
3101	-11.2873
▁adopt	-11.2876
▁soldiers	-11.2877
aje	-11.2878
3255	-11.2881
2471	-11.2881
味	-11.2887
▁entera	-11.2887
2424	-11.289
▁complete	-11.2891
3867	-11.2892
3223	-11.2895
5541	-11.2895
▁suyo	-11.2901
3018	-11.2903
▁period	-11.2903
包	-11.2904
市	-11.2905
远	-11.2905
内	-11.2905
▁botón	-11.2905
鱼	-11.2905
adelante	-11.2905
▁responsible	-11.2905
–	-11.2905
▁oscuro	-11.2905
▁mood	-11.2905
油	-11.2905
▁oscuridad	-11.2905
silence	-11.2905
▁comportamiento	-11.2905
▁pareja	-11.2905
▁jackson	-11.2907
▁admitted	-11.2907
▁vuelo	-11.2908
2682	-11.2908
4337	-11.291
▁motor	-11.2911
▁lock	-11.2912
▁employees	-11.2913
▁14263	-11.2915
10279	-11.2918
有什么	-11.2919
▁pocas	-11.2924
▁sirve	-11.2926
6198	-11.2934
▁alcanzar	-11.2935
pronto	-11.2935
▁society	-11.2935
10262	-11.2941
▁3338	-11.2944
▁necesitan	-11.2947
9071	-11.2949
▁negocios	-11.295
dora	-11.2954
▁sharp	-11.2955
▁shoulder	-11.2957
5665	-11.2964
▁cover	-11.2964
puesto	-11.2965
▁llegará	-11.2967
puse	-11.2971
你会	-11.2981
compraste	-11.2981
▁sp	-11.2985
立	-11.299
乘	-11.299
清	-11.299
架	-11.299
节	-11.299
▁involved	-11.299
▁spirit	-11.299
▁sorpresa	-11.299
mexico	-11.299
▁jacket	-11.299
王	-11.299
明白	-11.299
法語	-11.299
▁absence	-11.299
▁opción	-11.2991
▁salary	-11.2991
3077	-11.2991
2565	-11.2992
好像	-11.2994
▁manager	-11.2994
▁produce	-11.2995
的話	-11.2996
5108	-11.2999
ities	-11.3001
3136	-11.3003
7804	-11.3003
poca	-11.3012
6393	-11.3014
▁cultura	-11.302
4604	-11.3022
▁sang	-11.3023
▁pez	-11.3024
4536	-11.3028
1389	-11.303
2602	-11.3036
japón	-11.3036
3343	-11.3037
before	-11.3037
汤姆的	-11.3039
1283	-11.3042
▁estrella	-11.3042
▁sort	-11.3043
▁costa	-11.3044
7384	-11.3045
▁vender	-11.3047
▁hearing	-11.3048
不同	-11.3049
2561	-11.3061
queda	-11.3066
▁cancel	-11.3069
2914	-11.307
的地方	-11.3072
茶	-11.3075
单	-11.3076
處	-11.3076
▁basura	-11.3076
▁bolsillo	-11.3076
columbus	-11.3076
▁física	-11.3076
▁hábito	-11.3076
▁japoneses	-11.3076
▁responsable	-11.3076
▁relación	-11.3076
▁funeral	-11.3076
這本書	-11.3076
▁canta	-11.3078
▁8540	-11.3083
▁file	-11.3084
▁excepto	-11.3086
▁created	-11.3086
3084	-11.3087
我对	-11.309
▁hero	-11.3091
seguro	-11.3094
4096	-11.3095
▁quedarte	-11.3095
2773	-11.3098
ura	-11.3099
▁casarse	-11.31
2853	-11.3105
7420	-11.3105
▁8605	-11.3106
10250	-11.3109
pica	-11.3119
esas	-11.3122
起床	-11.3125
2995	-11.3129
▁photo	-11.3129
10247	-11.3135
▁verdaderamente	-11.314
having	-11.314
▁tía	-11.3142
4608	-11.3143
▁jealous	-11.3146
7794	-11.3147
10298	-11.3149
8949	-11.315
2903	-11.3152
10248	-11.3153
3153	-11.3155
2998	-11.3157
3958	-11.3159
▁3344	-11.3161
肯	-11.3162
尽	-11.3162
▁arriba	-11.3162
▁license	-11.3162
▁costumbre	-11.3162
▁necesidad	-11.3162
▁escribiendo	-11.3162
急	-11.3162
▁oferta	-11.3162
打电话	-11.3162
发生	-11.3162
▁chiste	-11.3163
▁email	-11.3164
2748	-11.3165
2943	-11.3166
▁presente	-11.3166
▁nervioso	-11.3169
▁opera	-11.3176
8705	-11.3178
illo	-11.3178
7808	-11.318
cree	-11.318
1984	-11.3183
▁3299	-11.3186
▁dentist	-11.3188
6798	-11.3194
row	-11.32
rías	-11.3202
▁piernas	-11.3205
2746	-11.3205
10255	-11.3207
2234	-11.3208
▁alumnos	-11.3214
creí	-11.3214
2449	-11.3217
1541	-11.3218
▁roman	-11.3219
2946	-11.3222
cuáles	-11.3225
mucha	-11.3228
▁absurd	-11.3236
9542	-11.3238
confirm	-11.3239
women	-11.324
mientras	-11.3241
▁clouds	-11.3242
10252	-11.3244
▁adult	-11.3244
完成	-11.3248
▁antigua	-11.3248
▁convencer	-11.3249
▁muñeca	-11.3249
▁service	-11.3249
▁supiera	-11.3249
▁moving	-11.3249
nací	-11.325
▁volverá	-11.3253
▁argument	-11.3255
22590	-11.3256
▁spread	-11.3258
了他的	-11.3263
▁tomado	-11.3264
▁dedos	-11.3265
▁meant	-11.3267
▁paga	-11.3273
2879	-11.3273
▁results	-11.3273
3032	-11.3275
2729	-11.3279
6814	-11.328
100648	-11.328
3004	-11.3281
错	-11.3281
2699	-11.3283
2820	-11.329
▁band	-11.3291
▁islam	-11.3294
2657	-11.3294
2679	-11.3304
tendrás	-11.3306
3989	-11.3311
▁wide	-11.3312
在哪裡	-11.3314
1155	-11.3318
场	-11.3321
10281	-11.3321
3140	-11.3321
2686	-11.3322
22669	-11.3324
▁invite	-11.3325
pan	-11.3325
2886	-11.3326
▁repair	-11.3328
10275	-11.3328
我今天	-11.3336
▁conocimiento	-11.3336
▁private	-11.3336
▁strength	-11.3336
greece	-11.3336
politics	-11.3336
▁recommend	-11.3336
▁seldom	-11.3336
▁barato	-11.3336
▁sorprendió	-11.3336
▁wild	-11.3337
33310	-11.3337
這樣	-11.3337
▁level	-11.3337
▁guste	-11.3337
2689	-11.3337
▁moda	-11.3343
▁imaginar	-11.3344
​	-11.3345
shut	-11.3345
legro	-11.3346
▁siguió	-11.3349
1988	-11.335
事情	-11.335
▁forced	-11.3351
2794	-11.3351
3979	-11.3353
2924	-11.3355
7904	-11.3358
▁vecinos	-11.3359
▁gotten	-11.3359
▁butter	-11.3364
usa	-11.3366
4803	-11.3368
▁poem	-11.3368
22592	-11.337
3157	-11.3375
4357	-11.3377
人们	-11.3381
2972	-11.3381
▁remain	-11.3386
5882	-11.3389
▁naranja	-11.3394
nado	-11.3395
▁aim	-11.3397
10944	-11.3399
11267	-11.3419
3261	-11.342
▁3368	-11.3421
▁planta	-11.3422
失	-11.3423
尔	-11.3425
▁propuesta	-11.3425
▁antiguo	-11.3425
▁temperatura	-11.3425
$	-11.3425
portugal	-11.3425
vosotras	-11.3425
▁method	-11.3425
▁permiso	-11.3425
谢谢	-11.3425
▁moneda	-11.3425
▁socks	-11.3425
▁riesgo	-11.3425
▁farm	-11.3426
2832	-11.3426
2936	-11.343
6000	-11.3434
▁depends	-11.3434
2983	-11.3434
▁madrid	-11.344
▁egg	-11.3441
▁consist	-11.3446
▁total	-11.3447
3955	-11.3448
哭	-11.3451
quiera	-11.3451
3251	-11.3453
3131	-11.3454
8808	-11.3457
9087	-11.3459
2749	-11.346
▁doce	-11.3462
3242	-11.3466
告訴我	-11.3466
5082	-11.3466
▁7968	-11.3467
▁freedom	-11.3468
1802	-11.347
不了	-11.347
3783	-11.3474
7071	-11.3476
▁speed	-11.3479
ang	-11.348
2723	-11.3481
不到	-11.3481
▁pequeños	-11.3482
1286	-11.3483
3174	-11.3483
▁character	-11.3484
▁rained	-11.3486
▁joy	-11.3487
3132	-11.3493
8805	-11.3494
▁fuma	-11.3497
then	-11.3497
2527	-11.35
▁convince	-11.3502
7801	-11.3506
▁regular	-11.3511
近	-11.3511
▁gradu	-11.3512
离	-11.3514
及	-11.3514
▁portuguese	-11.3514
▁posibilidad	-11.3514
▁obey	-11.3514
▁dancing	-11.3514
war	-11.3515
4482	-11.3515
▁comment	-11.3517
▁accused	-11.3517
▁reality	-11.3518
ug	-11.3529
22662	-11.3533
錯	-11.3533
mom	-11.3537
new	-11.354
9537	-11.354
2860	-11.3545
22588	-11.3549
grab	-11.3552
▁songs	-11.3555
▁marriage	-11.3563
你會	-11.3567
3108	-11.357
11837	-11.3572
来了	-11.3578
1132	-11.3584
1175	-11.3585
pare	-11.3586
▁jar	-11.3589
他很	-11.3591
饭	-11.3591
3113	-11.3592
的朋友	-11.3598
▁3350	-11.3599
▁sientes	-11.3601
22701	-11.3603
目	-11.3604
深	-11.3604
▁matrimonio	-11.3604
quizás	-11.3604
▁beyond	-11.3604
▁cáncer	-11.3604
intenté	-11.3604
▁enemies	-11.3604
▁millones	-11.3604
这种	-11.3604
音樂	-11.3604
▁quince	-11.3604
▁sintió	-11.3605
▁raised	-11.3608
▁polish	-11.3608
cita	-11.3611
6034	-11.3614
这样	-11.3615
lip	-11.3617
sure	-11.3619
▁lit	-11.3619
▁fighting	-11.3621
出了	-11.363
22678	-11.3632
22674	-11.3632
▁corte	-11.3633
22581	-11.3633
2220	-11.3635
3085	-11.364
3295	-11.3644
她是	-11.3645
2855	-11.3646
2452	-11.3647
8446	-11.3648
犯	-11.3651
1113	-11.3653
除了	-11.3654
晚上	-11.3654
2947	-11.3659
papá	-11.3661
2989	-11.3662
▁mess	-11.3666
3257	-11.3666
▁holiday	-11.3667
▁plato	-11.3672
▁cortar	-11.3674
记	-11.3682
▁apart	-11.3682
3247	-11.3687
6805	-11.3687
4339	-11.369
▁8743	-11.369
▁object	-11.3692
種	-11.3694
或	-11.3695
員	-11.3695
警察	-11.3695
弄	-11.3695
體	-11.3695
▁interrupt	-11.3695
grecia	-11.3695
▁inteligencia	-11.3695
▁october	-11.3695
▁elegir	-11.3695
3121	-11.3696
▁resfriado	-11.3696
▁fence	-11.3697
▁nivel	-11.3697
sexual	-11.3698
▁jumped	-11.3702
22583	-11.3704
2715	-11.3705
dado	-11.3706
2348	-11.3706
▁supuesto	-11.3707
▁convinced	-11.3708
22658	-11.3709
9034	-11.3709
▁members	-11.3711
ache	-11.3714
▁locked	-11.3715
難	-11.3716
4900	-11.3722
someday	-11.3724
3258	-11.3726
22680	-11.3728
2468	-11.3733
mine	-11.3735
▁preparar	-11.3736
▁uses	-11.3738
nie	-11.3746
22585	-11.3757
2600	-11.3757
bueno	-11.3763
4490	-11.3763
▁pray	-11.3764
4801	-11.3768
trato	-11.3768
▁regresar	-11.3771
▁americano	-11.3774
mus	-11.3775
▁probable	-11.3782
熱	-11.3787
▁terremoto	-11.3787
▁consciente	-11.3787
▁nariz	-11.3787
▁access	-11.3787
▁crisis	-11.3787
▁multitud	-11.3787
▁battle	-11.3787
▁bound	-11.3787
▁negó	-11.3787
许多	-11.3787
▁childhood	-11.3787
▁false	-11.3788
▁illness	-11.3788
房間	-11.3789
▁cantidad	-11.3789
看起來	-11.379
3187	-11.3791
9540	-11.3792
2175	-11.3793
▁handsome	-11.3793
一个人	-11.3796
▁clearly	-11.3798
▁abs	-11.38
2856	-11.3803
7901	-11.3803
rima	-11.3803
hazlo	-11.3806
8695	-11.3806
2945	-11.3806
▁following	-11.3807
10269	-11.3808
他把	-11.3809
▁mud	-11.3811
ye	-11.3821
22586	-11.3821
2687	-11.3827
tendría	-11.3828
5000	-11.3828
▁diría	-11.3828
造	-11.3833
▁friendly	-11.3834
2344	-11.3835
▁plate	-11.3836
▁everywhere	-11.3838
▁encantan	-11.384
2950	-11.384
▁recibir	-11.3843
8069	-11.3845
2441	-11.3845
cuida	-11.3846
语言	-11.3851
2643	-11.3855
一切	-11.3857
21112	-11.3863
compra	-11.3863
7475	-11.3865
11643	-11.3867
▁workers	-11.3868
8388	-11.3869
▁houses	-11.3873
▁hecha	-11.3874
▁jokes	-11.3874
▁pull	-11.3876
ví	-11.3877
機	-11.3878
▁olvida	-11.3878
歌	-11.3879
论	-11.3879
风	-11.388
兄弟	-11.388
風	-11.388
▁confianza	-11.388
▁cuestión	-11.388
▁galletas	-11.388
canadá	-11.388
▁neighborhood	-11.388
學習	-11.388
▁fotografía	-11.388
▁casualidad	-11.388
escribí	-11.388
▁cities	-11.388
▁factory	-11.3881
我昨天	-11.3888
2716	-11.3888
mission	-11.389
9141	-11.3891
去年	-11.3894
▁calls	-11.3897
anyway	-11.3898
1804	-11.3908
▁amaba	-11.3908
generally	-11.3909
tern	-11.391
」	-11.3913
mol	-11.392
10205	-11.3921
▁8304	-11.3928
2907	-11.3929
4784	-11.393
2717	-11.3931
▁irá	-11.3931
▁empleados	-11.3932
▁mountains	-11.3933
▁entero	-11.3935
▁imagine	-11.3937
▁eleven	-11.3939
esos	-11.3946
不喜欢	-11.3947
▁permit	-11.3948
prices	-11.3949
2605	-11.3953
3145	-11.3953
▁dedica	-11.3953
2906	-11.3956
22582	-11.3958
3107	-11.3958
▁changes	-11.3959
▁matters	-11.3961
改	-11.3962
3047	-11.3965
7735	-11.397
电	-11.3973
万	-11.3973
杀	-11.3973
布	-11.3973
尼	-11.3973
▁energía	-11.3973
▁estómago	-11.3973
屋	-11.3973
推	-11.3973
▁esposo	-11.3973
萨米	-11.3973
▁respondió	-11.3973
常常	-11.3973
▁polite	-11.3975
▁teachers	-11.3976
▁destino	-11.3977
▁salvo	-11.3977
使用	-11.3978
2922	-11.3979
▁chicago	-11.398
4338	-11.398
22646	-11.3981
张	-11.3983
▁fácilmente	-11.3984
1801	-11.3988
▁pelea	-11.3988
algeria	-11.3988
▁repar	-11.3989
學校	-11.3989
▁receive	-11.399
▁57525	-11.3991
demand	-11.3999
22584	-11.3999
8657	-11.3999
▁rega	-11.4003
3594	-11.4004
▁sleepy	-11.4008
3051	-11.4013
8478	-11.4014
tuvieron	-11.4016
▁barba	-11.4016
22690	-11.4017
3105	-11.4018
▁mono	-11.402
他有	-11.4024
2417	-11.4025
77677	-11.4025
▁parado	-11.4027
5083	-11.4028
11400	-11.4028
3909	-11.4031
2857	-11.4034
22676	-11.4035
4771	-11.4036
不懂	-11.4038
上的	-11.4042
22684	-11.4048
3001	-11.4048
▁introduce	-11.4056
場	-11.4061
7701	-11.4062
真是	-11.4063
士	-11.4067
室	-11.4067
蛋糕	-11.4067
▁abierto	-11.4067
▁inmediato	-11.4067
▁pérdida	-11.4067
▁camión	-11.4067
▁cuerda	-11.4067
▁cárcel	-11.4067
▁vacía	-11.4067
▁thirsty	-11.4068
▁mentir	-11.4068
7394	-11.4068
▁explicación	-11.4068
▁profundamente	-11.4068
8192	-11.4069
▁classes	-11.407
▁muchacha	-11.4071
▁quise	-11.4073
3245	-11.4077
▁cabello	-11.4078
小孩	-11.408
▁task	-11.4084
▁path	-11.4087
▁quitó	-11.4088
22597	-11.4091
▁desire	-11.4091
6815	-11.4093
▁hayas	-11.4094
tuvo	-11.4094
▁mont	-11.4096
2941	-11.4096
22660	-11.4097
18981	-11.4105
signed	-11.4112
7551	-11.4113
▁humana	-11.4115
▁torre	-11.4116
21119	-11.4116
久	-11.4117
4000	-11.4118
经常	-11.412
2743	-11.4126
10253	-11.4131
健康	-11.4133
▁3341	-11.4134
cara	-11.4135
▁hojas	-11.4136
▁vecino	-11.4139
切	-11.4139
▁tenían	-11.4139
2637	-11.414
我和	-11.4141
5909	-11.4144
▁hablaba	-11.4144
pide	-11.4146
9543	-11.4148
早上	-11.4149
3384	-11.415
3083	-11.4153
認為	-11.4153
7805	-11.4156
▁3461	-11.4157
▁elefante	-11.4163
▁fifteen	-11.4163
▁pantalones	-11.4163
▁prisión	-11.4163
單	-11.4163
料	-11.4163
决定	-11.4163
▁castillo	-11.4163
▁dumb	-11.4163
1179	-11.4163
▁violent	-11.4164
▁andar	-11.4164
▁knee	-11.4165
▁towel	-11.4165
div	-11.4167
▁nuevas	-11.4168
▁pity	-11.4169
▁lindo	-11.417
vivimos	-11.4171
trate	-11.4178
2918	-11.4182
▁lentes	-11.4184
ative	-11.4184
8477	-11.419
▁7790	-11.4194
▁hechos	-11.4196
8818	-11.4197
▁pis	-11.4198
1992	-11.42
2859	-11.4201
▁weigh	-11.4202
ático	-11.4206
什么时候	-11.4206
▁escritor	-11.4206
right	-11.4207
好嗎	-11.4207
3859	-11.4209
汤姆在	-11.4215
▁autor	-11.4219
▁international	-11.422
few	-11.4221
money	-11.4222
sam	-11.4228
10287	-11.4229
幾	-11.424
22595	-11.4244
llora	-11.4244
▁cruz	-11.425
33781	-11.4252
10922	-11.4255
8543	-11.4257
2768	-11.4257
1136	-11.4258
1108	-11.4259
产	-11.4259
靠	-11.4259
夫	-11.4259
▁furniture	-11.4259
▁pressure	-11.4259
画	-11.4259
傷	-11.4259
▁conejo	-11.4259
▁materna	-11.4259
▁naked	-11.4259
肯定	-11.4259
▁recibió	-11.426
▁fortuna	-11.426
▁medida	-11.4265
2607	-11.4265
4890	-11.4265
▁reina	-11.4268
five	-11.4269
▁documento	-11.4271
2993	-11.4272
3253	-11.4278
2887	-11.4281
▁rode	-11.4282
条	-11.4287
2460	-11.4293
▁abandonar	-11.4293
▁3363	-11.4294
▁pocos	-11.4298
22689	-11.4298
▁intelligence	-11.4299
2996	-11.4299
▁3298	-11.4299
2932	-11.4305
▁cargo	-11.4306
▁discutir	-11.431
▁army	-11.4311
2685	-11.4313
9795	-11.4314
▁actual	-11.4314
3164	-11.4314
▁neighbors	-11.4319
父亲	-11.432
▁pega	-11.4325
3357	-11.4325
3115	-11.4325
like	-11.4326
▁utiliza	-11.4329
▁musical	-11.433
▁bajar	-11.4331
susan	-11.4331
pues	-11.4333
▁esfuerzo	-11.4334
3146	-11.4335
school	-11.4336
▁suffer	-11.4341
disfrut	-11.4343
▁fingers	-11.4343
2872	-11.4344
无法	-11.4347
4954	-11.435
▁prepar	-11.4351
2988	-11.4352
7501	-11.4353
3262	-11.4353
4662	-11.4355
▁effect	-11.4355
业	-11.4355
世	-11.4356
波士顿	-11.4356
消息	-11.4356
▁allergi	-11.4356
▁espejo	-11.4356
▁extranjera	-11.4356
▁misterio	-11.4356
▁mouse	-11.4356
▁cambió	-11.4356
▁descanso	-11.4357
▁manejar	-11.4359
▁pants	-11.436
▁3346	-11.4363
讓我們	-11.4366
22671	-11.4369
10299	-11.4372
▁parada	-11.4372
▁57557	-11.4377
2632	-11.4382
▁59707	-11.4385
▁fallen	-11.4386
china	-11.4388
5155	-11.4388
2977	-11.4393
tranquilo	-11.4394
3155	-11.4396
▁despertar	-11.4397
▁trick	-11.4398
pó	-11.4398
得很	-11.4398
3046	-11.4409
9423	-11.4409
▁soldados	-11.4412
ley	-11.4412
2994	-11.4416
acaba	-11.4436
2606	-11.4437
▁engine	-11.4441
firma	-11.4442
eu	-11.4446
aid	-11.4449
▁helping	-11.445
▁sudden	-11.4451
▁arruin	-11.4452
亚	-11.4454
突然	-11.4454
▁embarazada	-11.4454
hicimos	-11.4454
▁cincuenta	-11.4454
▁plenty	-11.4454
复	-11.4454
▁pasaporte	-11.4454
內	-11.4454
▁direction	-11.4454
▁cough	-11.4454
queréis	-11.4455
▁capable	-11.4456
▁curso	-11.4456
▁bandera	-11.4457
▁tallest	-11.4457
cats	-11.446
▁climbed	-11.4462
▁invented	-11.4462
▁weak	-11.4463
cerró	-11.4467
▁treated	-11.4468
2193	-11.4475
3057	-11.4476
2757	-11.4478
▁hables	-11.4479
7193	-11.4481
▁difficulty	-11.4483
▁3327	-11.4485
▁hacerte	-11.4486
iremos	-11.4487
的名字	-11.4491
▁harm	-11.4492
▁term	-11.4493
22556	-11.4494
7959	-11.4498
▁mismos	-11.45
▁paying	-11.4508
10264	-11.4509
8689	-11.4516
poli	-11.4517
2814	-11.4517
▁decía	-11.4519
cub	-11.452
▁arena	-11.452
▁romper	-11.4521
▁lucha	-11.4524
▁jam	-11.4527
cle	-11.453
直	-11.4531
22681	-11.4532
3493	-11.4536
▁hablante	-11.4537
▁resultados	-11.4539
2599	-11.454
▁sport	-11.4541
despi	-11.4543
▁asusta	-11.4545
5708	-11.4545
2985	-11.4546
唱	-11.4547
▁coches	-11.4551
pasa	-11.4552
德	-11.4552
式	-11.4553
院	-11.4553
队	-11.4553
林	-11.4553
murieron	-11.4553
recibí	-11.4553
twitter	-11.4553
▁ciego	-11.4553
▁cuadro	-11.4553
▁exchange	-11.4553
▁individual	-11.4553
▁progress	-11.4553
▁bebida	-11.4553
▁cerebro	-11.4553
迷	-11.4553
▁famosa	-11.4553
▁sofá	-11.4553
▁mintiendo	-11.4553
▁prometió	-11.4553
▁robado	-11.4554
▁prestado	-11.4555
▁gordo	-11.4557
許多	-11.4557
recuerdo	-11.4566
你应该	-11.4568
变	-11.4572
其	-11.4575
8813	-11.4576
hand	-11.4581
9849	-11.4582
15677	-11.4582
▁derechos	-11.4582
22661	-11.4584
prohibido	-11.4584
▁plants	-11.4585
1981	-11.4586
7907	-11.4588
同意	-11.4591
要去	-11.4592
▁salvar	-11.4597
actu	-11.4597
▁writes	-11.4598
▁rope	-11.4599
moto	-11.4601
22686	-11.4601
▁12969	-11.4602
▁plantas	-11.4605
tomé	-11.4608
▁usando	-11.461
必须	-11.4611
▁tail	-11.4614
6974	-11.4614
10257	-11.4615
2495	-11.4619
7882	-11.4621
語言	-11.4627
22675	-11.463
▁hung	-11.4632
▁casada	-11.4634
8566	-11.4634
8816	-11.4637
lí	-11.4639
4001	-11.464
▁brilla	-11.465
▁apagar	-11.465
▁billete	-11.4651
cuento	-11.4652
▁national	-11.4652
器	-11.4653
▁beso	-11.4653
游	-11.4653
制	-11.4653
匙	-11.4653
千	-11.4653
箇	-11.4653
▁movimiento	-11.4653
demasiada	-11.4653
▁caballero	-11.4653
休息	-11.4653
▁fábrica	-11.4653
▁motivo	-11.4653
通常	-11.4653
9662	-11.4654
儿子	-11.4655
3272	-11.4656
▁ascensor	-11.4656
▁copy	-11.4657
viaj	-11.4658
▁saving	-11.4658
▁deeply	-11.466
1958	-11.4661
▁ventanas	-11.4664
leo	-11.4666
56366	-11.4666
▁3466	-11.4666
3152	-11.4667
▁protest	-11.4669
6802	-11.4674
2079	-11.4676
lá	-11.4681
▁yenes	-11.4682
neither	-11.4689
whatever	-11.4695
6801	-11.4696
2430	-11.4698
▁58541	-11.4698
horses	-11.4698
disculpe	-11.47
back	-11.4702
22532	-11.4707
▁kinds	-11.4717
3235	-11.472
22672	-11.4723
2987	-11.4725
ería	-11.4726
2735	-11.4728
2681	-11.4728
jug	-11.4729
现	-11.473
▁piel	-11.473
3296	-11.4733
▁member	-11.4736
▁origin	-11.474
▁advance	-11.4741
▁cast	-11.4742
一件	-11.4744
▁monte	-11.4749
▁prepare	-11.4749
修	-11.4754
自行车	-11.4754
毛	-11.4754
短	-11.4754
▁appointment	-11.4754
▁available	-11.4754
▁mercado	-11.4754
comienza	-11.4754
thomas	-11.4754
▁superior	-11.4754
▁mostró	-11.4754
bush	-11.4754
▁foolish	-11.4754
▁sweater	-11.4757
pronounce	-11.4758
liz	-11.4758
franc	-11.4758
幸福	-11.4759
bil	-11.476
▁tickets	-11.4762
▁anillo	-11.4762
chan	-11.4764
▁shame	-11.4765
▁cerrado	-11.4765
▁carga	-11.4769
▁aprendido	-11.4769
▁pona	-11.477
4533	-11.477
▁despedir	-11.477
▁tire	-11.4775
33782	-11.4778
1803	-11.4784
vayamos	-11.4785
▁bat	-11.4785
我已經	-11.4785
2736	-11.4785
▁mass	-11.4786
6800	-11.4787
▁8014	-11.4789
8806	-11.4792
的工作	-11.4795
▁14396	-11.4796
rk	-11.4798
▁meter	-11.4799
3991	-11.4799
considera	-11.4807
3304	-11.481
conoce	-11.4812
human	-11.482
乐	-11.4823
desp	-11.4825
▁starts	-11.4828
4098	-11.4829
了一個	-11.4832
4809	-11.4836
ey	-11.4839
▁increase	-11.4843
22184	-11.4845
▁informe	-11.4847
▁refuse	-11.4848
▁losing	-11.4851
▁particular	-11.4853
反	-11.4855
夜	-11.4856
▁scene	-11.4856
足	-11.4856
村	-11.4856
胡	-11.4856
arabic	-11.4856
▁estúpida	-11.4856
▁midnight	-11.4856
▁supper	-11.4856
kioto	-11.4856
▁region	-11.4856
▁junio	-11.4856
▁otoño	-11.4856
魚	-11.4856
▁awful	-11.4856
▁complicated	-11.4856
▁election	-11.4856
▁conductor	-11.4856
▁central	-11.4856
天氣	-11.4857
▁completo	-11.4857
▁neck	-11.4858
▁7980	-11.4858
2596	-11.4859
▁cantando	-11.4859
▁resign	-11.486
kin	-11.4861
7072	-11.4862
▁sonrió	-11.4863
hablamos	-11.4865
▁57693	-11.4865
▁57692	-11.4865
6461	-11.4866
8682	-11.4867
yumi	-11.4871
▁acu	-11.4874
▁event	-11.4875
18865	-11.4876
35795	-11.4877
▁online	-11.4877
2981	-11.4878
2999	-11.4882
▁3328	-11.4883
2423	-11.4886
▁debía	-11.4888
being	-11.4891
22038	-11.4892
▁wondered	-11.4894
bien	-11.4895
11775	-11.4895
▁dieta	-11.4896
cí	-11.4898
pueden	-11.4901
6693	-11.4908
resist	-11.4908
▁cop	-11.4913
9544	-11.4917
我覺得	-11.4921
22647	-11.4921
▁doble	-11.4921
think	-11.4932
▁contado	-11.4934
5412	-11.4936
trabajo	-11.4937
其他	-11.4938
vino	-11.4941
▁mostrar	-11.4942
23760	-11.4942
▁recognize	-11.4946
▁fund	-11.4948
没有人	-11.4948
1395	-11.4952
▁blow	-11.4953
然	-11.4955
▁inform	-11.4956
声	-11.4959
船	-11.4959
▁percent	-11.4959
▁piscina	-11.4959
▁acabó	-11.4959
決定	-11.4959
definitely	-11.4959
▁website	-11.4959
结婚	-11.4959
装	-11.4959
▁proteger	-11.4959
▁gratis	-11.4959
▁photograph	-11.4959
▁burned	-11.496
唱歌	-11.4966
4138	-11.4966
▁remained	-11.4969
▁correspond	-11.4969
▁stronger	-11.4971
6865	-11.4975
▁invent	-11.4979
▁averiguar	-11.4979
3184	-11.4981
22700	-11.4981
▁west	-11.4982
▁extranjeros	-11.4982
▁tanta	-11.4983
mum	-11.4984
▁llamas	-11.4986
▁paró	-11.4987
▁represent	-11.4987
guarda	-11.4988
▁prisoner	-11.4989
8180	-11.4992
色的	-11.4992
ify	-11.4994
2862	-11.4994
▁lately	-11.5001
▁nubes	-11.5002
解	-11.5006
22596	-11.5011
dando	-11.5012
▁viaja	-11.5016
▁1115	-11.5016
9545	-11.5017
1873	-11.5017
▁fog	-11.502
你为什么	-11.5023
pareció	-11.5024
siga	-11.5026
3014	-11.5028
大家	-11.503
cá	-11.5045
▁cruzar	-11.5046
pá	-11.5046
▁climb	-11.5048
得很好	-11.5049
2670	-11.5054
▁suggest	-11.5054
▁lobo	-11.5055
french	-11.5055
necesita	-11.5056
▁salad	-11.5057
7806	-11.5061
▁poison	-11.5063
体	-11.5063
慢	-11.5063
建	-11.5063
窗	-11.5063
冰	-11.5063
卻	-11.5063
戴	-11.5063
聲	-11.5063
▁apartamento	-11.5063
▁dormitorio	-11.5063
▁jazz	-11.5063
▁supermercado	-11.5063
▁árabe	-11.5063
▁biggest	-11.5063
▁población	-11.5063
拍	-11.5063
▁colón	-11.5064
▁successful	-11.5064
escribi	-11.5065
▁coward	-11.5066
▁earn	-11.5066
▁conduce	-11.5068
▁ideal	-11.5071
▁8556	-11.5073
4766	-11.5074
▁sweat	-11.5078
9587	-11.5078
▁aspecto	-11.5079
▁thin	-11.5079
▁players	-11.5082
music	-11.5083
▁cerdo	-11.5088
4808	-11.509
发现	-11.509
pone	-11.5091
▁17317	-11.5094
安全	-11.5095
▁pollo	-11.5099
consult	-11.51
8487	-11.5103
▁bang	-11.5104
cuidado	-11.5108
▁guests	-11.511
▁ocurre	-11.5112
▁8193	-11.5113
▁aplica	-11.5116
▁behave	-11.5119
▁names	-11.5121
1383	-11.5126
▁asia	-11.5129
ight	-11.5129
walk	-11.513
▁noon	-11.5131
22587	-11.5136
▁design	-11.5136
4360	-11.5143
為什麼	-11.515
▁10336	-11.5151
▁forty	-11.5154
▁huevo	-11.5155
6978	-11.5156
8736	-11.5157
已	-11.5168
10290	-11.5168
離	-11.5168
沙	-11.5168
形	-11.5168
▁griego	-11.5168
passengers	-11.5168
physics	-11.5168
▁measure	-11.5169
害怕	-11.5169
hablé	-11.5169
intento	-11.5169
volví	-11.5169
llama	-11.5169
▁desayunar	-11.5169
▁distinguir	-11.517
9491	-11.5171
▁tiger	-11.5172
8903	-11.5173
2799	-11.5173
oranges	-11.5176
▁appeared	-11.5176
▁vivido	-11.5177
▁diré	-11.5179
8876	-11.5184
6900	-11.5189
▁legal	-11.5192
send	-11.5201
▁piensan	-11.5204
我没	-11.5206
22593	-11.5208
▁6797	-11.5208
坐在	-11.5209
10292	-11.5211
你最好	-11.5211
lé	-11.5211
gira	-11.5211
10240	-11.5211
entre	-11.5212
▁3342	-11.5214
▁3385	-11.5214
4763	-11.5215
在家	-11.5227
3206	-11.523
▁pensado	-11.5233
6201	-11.5235
▁5035	-11.5243
7351	-11.5247
ney	-11.5247
5901	-11.5248
▁escaleras	-11.5249
▁28288	-11.5252
1506	-11.5253
▁darme	-11.5257
24515	-11.5259
descubr	-11.5261
▁invitados	-11.5262
2967	-11.5267
▁levantar	-11.5269
达	-11.5273
鐘	-11.5274
害	-11.5275
程	-11.5275
牛	-11.5275
▁electrónico	-11.5275
▁conciencia	-11.5275
似乎	-11.5275
adiós	-11.5275
母亲	-11.5275
这件事	-11.5275
▁smiling	-11.5275
7955	-11.5275
▁facilidad	-11.5275
▁political	-11.5275
那麼	-11.5275
▁hogar	-11.5275
▁trozo	-11.5275
ología	-11.5277
stock	-11.5279
▁destroyed	-11.528
▁seguido	-11.5281
▁confused	-11.5281
▁goat	-11.5291
▁dieron	-11.5293
▁anger	-11.5293
▁lower	-11.5296
22659	-11.5297
▁highly	-11.5297
意思	-11.5299
escribe	-11.5299
2000	-11.5301
correct	-11.5303
llegamos	-11.5305
drink	-11.5306
▁plu	-11.5308
10926	-11.531
們	-11.5313
2515	-11.5313
pé	-11.5313
▁decora	-11.5314
▁3329	-11.5315
▁7970	-11.5316
▁cae	-11.5319
▁tomando	-11.5321
▁march	-11.5322
year	-11.5322
▁tarda	-11.5324
▁americans	-11.5327
▁melt	-11.5328
salí	-11.5331
limit	-11.5335
10256	-11.5337
支	-11.5346
18982	-11.5348
aprend	-11.5353
▁airplane	-11.5355
很快	-11.5359
▁cul	-11.536
▁15088	-11.5362
7941	-11.5364
7734	-11.5365
7405	-11.5367
哥哥	-11.5374
istas	-11.5374
年轻	-11.5375
cientos	-11.5375
▁depend	-11.5378
11675	-11.538
▁spends	-11.538
dudo	-11.538
▁desert	-11.5381
望	-11.5382
prime	-11.5382
電話	-11.5382
滿	-11.5382
師	-11.5382
非	-11.5382
越	-11.5382
兰	-11.5382
▁inútil	-11.5382
▁internacional	-11.5382
▁vergüenza	-11.5382
区	-11.5382
▁ausencia	-11.5382
▁débil	-11.5382
▁fresco	-11.5382
▁tourist	-11.5383
▁bottom	-11.5383
▁mental	-11.5383
动物	-11.5383
encontramos	-11.5383
▁salido	-11.5383
▁polvo	-11.5383
▁araña	-11.5384
國家	-11.5384
▁computers	-11.5386
▁mayores	-11.5386
jones	-11.5386
basta	-11.5389
10940	-11.5392
了我的	-11.5393
ow	-11.5395
▁attacked	-11.5396
▁crossed	-11.5397
4300	-11.5399
22357	-11.5403
2564	-11.5404
▁escaped	-11.5405
▁supone	-11.5408
aprendí	-11.5408
步	-11.5412
▁traveling	-11.5412
2937	-11.5413
2563	-11.5413
perdona	-11.5418
20331	-11.5423
放在	-11.5425
▁cometer	-11.5426
4908	-11.5426
11401	-11.5426
6708	-11.5428
vosotros	-11.543
▁indica	-11.5431
7194	-11.5432
remember	-11.5434
cooked	-11.545
zu	-11.5457
fla	-11.5466
rón	-11.5467
▁appear	-11.5473
▁quitar	-11.5474
因	-11.5476
累	-11.548
pregunté	-11.5481
房	-11.549
變	-11.549
shoot	-11.549
電	-11.5491
首	-11.5491
裝	-11.5491
速	-11.5491
▁comienzo	-11.5491
▁economic	-11.5491
▁sabio	-11.5491
▁remedio	-11.5491
▁heaven	-11.5491
▁absolutamente	-11.5491
▁june	-11.5491
▁subway	-11.5491
▁dispuesto	-11.5492
tendremos	-11.5492
▁decidir	-11.5495
▁venta	-11.5496
4835	-11.5497
18551	-11.5498
ee	-11.5499
▁woods	-11.5507
▁flute	-11.5507
▁pistola	-11.5508
▁expecting	-11.5511
▁places	-11.5514
▁57994	-11.5514
▁accustom	-11.5516
18980	-11.552
▁gasta	-11.5521
metió	-11.5521
22036	-11.5522
▁quedado	-11.5523
wo	-11.5524
▁calma	-11.5526
▁traveled	-11.5527
汤姆不	-11.5527
大的	-11.5529
urante	-11.5531
▁snowing	-11.5532
的書	-11.5534
不用	-11.5534
▁shit	-11.5535
见过	-11.5535
4302	-11.5535
pasamos	-11.5539
10293	-11.554
adores	-11.5545
▁escapar	-11.5558
▁banda	-11.5559
suddenly	-11.5559
escucha	-11.5559
nin	-11.5564
feliz	-11.5564
現	-11.5565
住了	-11.5567
二十	-11.5568
10277	-11.5568
5753	-11.5571
▁cure	-11.5574
杯	-11.5577
10291	-11.5581
106961	-11.5583
得了	-11.5583
2875	-11.5584
有点	-11.5585
gor	-11.5588
har	-11.5589
▁drugs	-11.5589
osos	-11.5594
人的	-11.5595
3003	-11.5596
6207	-11.5598
两个	-11.56
▁major	-11.56
認	-11.5601
▁poeta	-11.5601
应	-11.5601
强	-11.5601
nonsense	-11.5601
▁british	-11.5601
▁excited	-11.5601
▁fiebre	-11.5601
▁profundo	-11.5601
▁simply	-11.5601
▁suicide	-11.5601
▁amazing	-11.5601
▁hombro	-11.5601
寄	-11.5601
背	-11.5601
音乐	-11.5601
▁further	-11.5601
▁source	-11.5601
▁ratón	-11.5602
▁denied	-11.5602
▁compare	-11.5602
▁jail	-11.5602
▁6602	-11.5602
▁robaron	-11.5603
▁argue	-11.5603
▁soft	-11.5603
▁musician	-11.5603
▁ciudadano	-11.5604
▁nearest	-11.5605
▁3441	-11.5605
▁3367	-11.5606
▁impact	-11.5608
▁consiguió	-11.5609
fish	-11.5613
▁17267	-11.5613
弟弟	-11.5618
▁poema	-11.5619
他是个	-11.5619
▁pedirle	-11.5621
▁offered	-11.5622
10957	-11.5622
10283	-11.5627
totally	-11.5635
▁mandar	-11.5636
riendo	-11.5636
▁verdadera	-11.5639
llega	-11.5639
ara	-11.5649
我對	-11.5655
22685	-11.5655
2973	-11.5655
«	-11.5656
是在	-11.566
celebra	-11.5668
▁mata	-11.5669
4535	-11.5671
▁canciones	-11.5674
puso	-11.5676
9393	-11.5678
▁sentar	-11.5679
▁civil	-11.5681
sir	-11.5682
8407	-11.5684
buy	-11.5685
▁18319	-11.5685
▁defend	-11.5687
▁emb	-11.5688
▁vain	-11.569
salva	-11.5691
▁caballos	-11.5691
生命	-11.5693
▁owner	-11.5694
3236	-11.5697
tiró	-11.5699
6292	-11.57
15533	-11.57
cro	-11.5702
电视	-11.5706
collect	-11.571
洲	-11.5712
選	-11.5712
容	-11.5712
治	-11.5712
计划	-11.5712
▁flauta	-11.5712
▁octubre	-11.5712
▁cubierta	-11.5712
▁economy	-11.5712
▁refrigerator	-11.5712
▁software	-11.5712
跳	-11.5712
respeto	-11.5712
▁valiente	-11.5712
▁keyboard	-11.5712
▁detener	-11.5712
▁echó	-11.5713
▁apareció	-11.5715
12100	-11.5722
▁pulled	-11.5722
▁imagen	-11.5723
▁12584	-11.5723
▁sonó	-11.5725
在一起	-11.5725
▁deaf	-11.5726
vivió	-11.5728
▁turno	-11.5729
▁leader	-11.573
nice	-11.5731
13700	-11.5733
▁domina	-11.5737
9541	-11.5738
第一	-11.5738
esperamos	-11.574
兩個	-11.5745
▁102332	-11.5745
把它	-11.5748
有多	-11.5749
crist	-11.5753
▁conocen	-11.5753
我认为	-11.5756
2477	-11.5757
▁pop	-11.5759
床	-11.5759
▁efforts	-11.5759
▁14064	-11.5759
▁creen	-11.5765
下了	-11.5765
22037	-11.5765
▁últimos	-11.5766
▁13061	-11.5768
▁product	-11.5774
5379	-11.5785
聽到	-11.5792
1465	-11.5797
很难	-11.5807
▁correos	-11.5808
2608	-11.5809
▁search	-11.581
▁describe	-11.5814
▁relaja	-11.5816
suppose	-11.5822
伤	-11.5824
亲	-11.5824
瓶	-11.5824
遠	-11.5824
木	-11.5824
饿	-11.5824
▁stairs	-11.5824
筆	-11.5824
糖	-11.5824
autumn	-11.5824
▁móvil	-11.5824
▁classmates	-11.5824
▁velocidad	-11.5824
▁ancient	-11.5824
▁style	-11.5825
becoming	-11.5825
年輕	-11.5825
幫助	-11.5825
夏天	-11.5825
▁gentleman	-11.5825
▁changing	-11.5825
▁irte	-11.5825
▁caminando	-11.5825
▁mentiroso	-11.5826
21117	-11.5826
▁rarely	-11.5827
convenient	-11.5829
pass	-11.5829
quis	-11.5832
10237	-11.5832
▁perfectly	-11.5835
▁appears	-11.5835
confía	-11.5838
▁talent	-11.5841
▁succeeded	-11.5842
ology	-11.5843
人生	-11.5844
▁daré	-11.5845
▁climate	-11.5848
21114	-11.585
▁toki	-11.5852
10270	-11.5855
▁norma	-11.5858
▁bald	-11.5858
任何人	-11.5858
corn	-11.5859
▁falling	-11.5862
▁characters	-11.5863
▁disfruta	-11.5863
▁bomba	-11.5863
▁14397	-11.5866
▁79181	-11.5869
来的	-11.5869
10239	-11.5875
▁robot	-11.5878
recibi	-11.588
breathe	-11.588
▁16863	-11.5883
父親	-11.5884
7512	-11.5885
10294	-11.5885
▁14111	-11.5888
▁8562	-11.589
下來	-11.5892
bió	-11.5895
15827	-11.5898
覺得	-11.59
22705	-11.5902
10946	-11.5909
▁8194	-11.5911
bow	-11.5913
7337	-11.5913
▁24124	-11.5915
ril	-11.5917
▁content	-11.592
▁enemigos	-11.5922
▁jump	-11.5923
▁querías	-11.5924
▁darte	-11.5927
▁comprender	-11.5928
organiz	-11.5931
▁viejos	-11.5931
happy	-11.5932
5807	-11.5933
▁8500	-11.5934
reza	-11.5936
數	-11.5938
电话	-11.5938
畫	-11.5938
按	-11.5938
▁mantequilla	-11.5938
▁religión	-11.5938
eventually	-11.5938
hokkaido	-11.5938
méxico	-11.5938
▁acceso	-11.5938
▁cheek	-11.5938
▁objeto	-11.5938
▁muestra	-11.5938
▁reply	-11.5938
▁violencia	-11.5938
▁medianoche	-11.5938
▁nuclear	-11.5938
帽子	-11.5938
▁provoca	-11.5938
▁thick	-11.5938
▁fracaso	-11.5939
▁zona	-11.5939
decidí	-11.594
▁recoger	-11.594
justice	-11.594
事故	-11.5941
▁upset	-11.5941
▁attract	-11.5941
6008	-11.5943
▁disappeared	-11.5943
▁puesta	-11.5945
▁jugo	-11.5945
▁golpeó	-11.5947
▁besó	-11.5949
▁debt	-11.595
▁3481	-11.5952
▁perdonar	-11.5952
▁dama	-11.5954
▁cabra	-11.5954
▁12055	-11.5954
16248	-11.5957
▁frame	-11.5957
▁continued	-11.5958
puls	-11.5963
parecía	-11.5966
▁100652	-11.5968
2796	-11.5968
▁mac	-11.5971
stand	-11.5971
▁fri	-11.5972
帮	-11.5974
她不	-11.5975
▁subir	-11.5978
每天都	-11.5979
9202	-11.5979
▁juegos	-11.598
▁3337	-11.598
23876	-11.5985
▁7933	-11.5986
bless	-11.5986
▁3339	-11.5988
▁señora	-11.5989
▁vea	-11.599
▁28577	-11.6002
izar	-11.601
听到	-11.6016
▁luces	-11.6016
▁spell	-11.6017
▁cumplir	-11.6017
▁confund	-11.6019
▁lion	-11.6019
▁loca	-11.603
▁expert	-11.603
▁7585	-11.6032
prefiere	-11.6034
2683	-11.6035
了一个	-11.6036
22449	-11.6038
▁3364	-11.604
▁provide	-11.604
▁survive	-11.6041
▁contract	-11.6043
是你的	-11.6045
6908	-11.6046
▁contain	-11.6046
deje	-11.6052
媽媽	-11.6053
▁convirtió	-11.6053
▁empezado	-11.6053
▁sabido	-11.6053
▁notebook	-11.6053
▁querido	-11.6053
▁genial	-11.6053
▁invitation	-11.6053
▁cartera	-11.6053
▁conversación	-11.6053
▁flow	-11.6053
打電話	-11.6054
▁latín	-11.6054
▁amarilla	-11.6055
▁contrario	-11.6055
▁agreement	-11.6056
▁explicó	-11.6057
jesus	-11.6057
▁planea	-11.6057
▁efecto	-11.6057
▁57558	-11.6057
▁8940	-11.6059
guard	-11.6063
▁querer	-11.6065
▁marcha	-11.6068
12565	-11.6074
22677	-11.608
▁1190	-11.6081
3501	-11.6089
▁99698	-11.609
7303	-11.6091
choose	-11.6097
▁suya	-11.6099
7172	-11.6099
▁17158	-11.61
christmas	-11.61
▁coma	-11.61
▁8744	-11.6101
▁fra	-11.6103
ahí	-11.6104
haré	-11.6105
cciones	-11.6106
▁moral	-11.6106
▁visa	-11.6109
▁3365	-11.6109
▁28576	-11.6111
▁acabado	-11.6114
15794	-11.6118
ants	-11.612
▁3301	-11.6127
我不喜欢	-11.6128
▁pale	-11.613
py	-11.6136
下午	-11.6144
▁8563	-11.6145
▁stands	-11.6152
▁llevas	-11.6155
lección	-11.6155
diver	-11.6155
房间	-11.6155
▁obvious	-11.6157
打算	-11.616
15657	-11.6162
▁contestar	-11.6163
飞机	-11.6164
itch	-11.6166
▁estadounidense	-11.6166
网	-11.6169
週	-11.6169
抓	-11.6169
观	-11.6169
▁medicamento	-11.6169
▁teclado	-11.6169
▁chaqueta	-11.6169
▁influence	-11.6169
llámame	-11.6169
turkey	-11.6169
▁curious	-11.6169
▁literature	-11.6169
▁cuello	-11.6169
▁importancia	-11.6169
▁virus	-11.6169
醫生	-11.6169
担心	-11.6169
法国	-11.617
bilidad	-11.6171
▁esconder	-11.6171
6605	-11.6172
▁import	-11.6173
▁francesa	-11.6173
▁corea	-11.6173
22594	-11.6173
▁saludable	-11.6175
▁candle	-11.6175
故事	-11.6177
▁understanding	-11.6179
▁sucedió	-11.6181
▁precios	-11.6181
▁brazos	-11.6182
▁trap	-11.6186
▁12038	-11.619
▁candy	-11.6193
▁smaller	-11.6194
viste	-11.6194
2913	-11.6197
▁35626	-11.6202
▁adentro	-11.6205
prepara	-11.6205
看見	-11.6205
她把	-11.6205
▁vemos	-11.6211
▁photos	-11.6215
▁7942	-11.6215
▁larger	-11.6215
▁16197	-11.6216
▁badly	-11.6217
▁13060	-11.6218
hizo	-11.6219
79323	-11.622
22545	-11.6224
最好的	-11.6226
▁3393	-11.6228
10300	-11.6234
▁fox	-11.6234
echo	-11.6234
1503	-11.6235
▁malas	-11.6235
▁action	-11.6236
tric	-11.6236
spring	-11.6237
mag	-11.6237
她很	-11.6239
很忙	-11.6239
plane	-11.6243
▁shape	-11.6244
▁8118	-11.6247
voted	-11.625
并	-11.6257
check	-11.6257
four	-11.6264
▁turns	-11.6266
是不是	-11.6276
suspend	-11.6277
10942	-11.6279
▁prevent	-11.6279
下来	-11.628
▁ghosts	-11.628
manda	-11.6285
运	-11.6287
低	-11.6287
▁colores	-11.6287
殺	-11.6287
鬼	-11.6287
▁escuchó	-11.6287
california	-11.6287
escuché	-11.6287
▁amenaza	-11.6287
▁ejército	-11.6287
▁enfermera	-11.6287
▁flew	-11.6287
▁práctica	-11.6287
▁bajó	-11.6287
▁esquina	-11.6287
▁sombra	-11.6287
▁pedido	-11.6287
▁podido	-11.6287
▁committed	-11.6288
▁bolso	-11.6288
▁falda	-11.6288
▁irrita	-11.6289
gh	-11.629
10371	-11.6291
▁brillante	-11.6291
▁mirada	-11.6293
▁abandonado	-11.6296
▁humanidad	-11.6297
▁useless	-11.6298
▁rush	-11.6299
來了	-11.6302
boy	-11.6306
▁3351	-11.6307
▁chill	-11.6308
20152	-11.6309
湯姆在	-11.631
▁handle	-11.6319
▁veré	-11.6321
幫我	-11.6322
25497	-11.6322
3908	-11.6323
▁deliver	-11.6325
2475	-11.6327
▁acabar	-11.6328
的房子	-11.6329
▁11980	-11.633
了我	-11.633
象	-11.6333
▁iguales	-11.6337
▁drogas	-11.6341
▁3458	-11.6342
compro	-11.6343
▁ladra	-11.6343
6348	-11.6348
▁pasará	-11.6352
7506	-11.6355
shall	-11.6355
3208	-11.6357
▁roses	-11.6359
▁niñas	-11.6363
▁answers	-11.6363
20151	-11.6369
▁detuvo	-11.6369
10943	-11.6378
11411	-11.6382
一年	-11.6383
管	-11.6384
8000	-11.6384
男	-11.6388
做什麼	-11.639
▁custom	-11.6404
认	-11.6405
石	-11.6406
電影	-11.6406
视	-11.6406
选	-11.6406
▁discusión	-11.6406
救	-11.6406
nowadays	-11.6406
▁complex	-11.6406
▁portugués	-11.6406
▁relative	-11.6406
▁strike	-11.6406
▁televisor	-11.6406
shakespeare	-11.6406
▁vacío	-11.6406
▁voluntad	-11.6406
▁mediodía	-11.6406
▁process	-11.6406
▁maestra	-11.6406
牛奶	-11.6406
香	-11.6406
保持	-11.6406
▁guapo	-11.6406
honey	-11.6407
▁bench	-11.6407
▁detail	-11.6407
▁court	-11.6407
▁elected	-11.6407
robert	-11.6407
▁skiing	-11.6412
▁drawing	-11.6418
▁3366	-11.642
▁9687	-11.6421
▁descubrir	-11.6421
▁tower	-11.6421
ése	-11.6422
▁8251	-11.6423
▁7278	-11.6425
▁mencion	-11.6429
▁toalla	-11.6431
無法	-11.6434
▁cuidadoso	-11.6436
有些	-11.6436
我已经	-11.644
▁3439	-11.644
▁12799	-11.6443
rou	-11.6443
▁94321	-11.6443
▁solved	-11.6444
wash	-11.6447
▁8345	-11.6449
▁importar	-11.6449
18416	-11.6453
7573	-11.6454
10244	-11.6455
hum	-11.6457
5307	-11.6462
shake	-11.6462
▁17055	-11.6464
▁demanda	-11.6465
▁mejorar	-11.647
了解	-11.6471
▁acostar	-11.6473
都在	-11.6475
掉了	-11.6476
quit	-11.648
▁pesa	-11.649
13349	-11.6492
▁51245	-11.6494
▁shave	-11.6498
dina	-11.6501
▁east	-11.6508
▁app	-11.6508
最近	-11.6511
cedió	-11.6515
▁votar	-11.652
podríamos	-11.6522
▁fuente	-11.6524
餐	-11.6526
准	-11.6526
号	-11.6526
卖	-11.6526
technology	-11.6526
▁challenge	-11.6526
▁cuarenta	-11.6526
▁empezando	-11.6526
▁kilometers	-11.6526
▁pleasant	-11.6526
▁condiciones	-11.6526
▁inevitable	-11.6526
▁disponible	-11.6526
▁shelf	-11.6526
▁tuesday	-11.6526
▁average	-11.6527
▁detective	-11.6527
善	-11.6527
▁audience	-11.6527
▁oyó	-11.6527
▁violin	-11.6527
▁área	-11.6527
▁colour	-11.6527
▁warned	-11.6528
▁nail	-11.6528
汤姆是	-11.6528
▁billetera	-11.6529
更多	-11.653
cked	-11.653
▁nap	-11.653
10296	-11.6531
8809	-11.6531
▁sheep	-11.6532
7909	-11.6534
25467	-11.6535
print	-11.6536
▁cow	-11.6536
▁trabajadores	-11.6537
▁66820	-11.6538
version	-11.6542
▁7779	-11.6543
27374	-11.6546
22679	-11.6548
▁border	-11.6551
▁actuar	-11.6555
▁facts	-11.6555
hagamos	-11.6561
▁8297	-11.6565
▁masa	-11.6565
▁3389	-11.6577
ojo	-11.6583
10932	-11.6584
▁hated	-11.6584
place	-11.6584
▁gate	-11.6586
▁8534	-11.6587
llamaré	-11.6589
burn	-11.6589
▁8893	-11.6591
marco	-11.6593
▁ciudades	-11.6594
中的	-11.6595
dale	-11.6599
▁sells	-11.6602
ished	-11.6608
有个	-11.6608
▁dentista	-11.6612
reció	-11.6613
21235	-11.6615
真相	-11.6618
今	-11.6624
▁bud	-11.6625
2714	-11.6627
22663	-11.663
未	-11.6633
▁miembros	-11.6635
不可能	-11.6641
▁walks	-11.6645
▁greet	-11.6648
具	-11.6648
查	-11.6648
清楚	-11.6648
▁captain	-11.6648
▁opposite	-11.6648
▁conclusion	-11.6648
电脑	-11.6649
▁sabor	-11.6649
▁devil	-11.6649
▁método	-11.6649
▁exhausted	-11.6649
▁sienta	-11.6649
▁festival	-11.6649
▁dislike	-11.6649
▁spot	-11.6649
81609	-11.6649
这条	-11.665
▁plata	-11.6651
▁menu	-11.6653
▁requiere	-11.6654
▁recibido	-11.6654
10246	-11.6655
start	-11.6656
33309	-11.6656
estaban	-11.6657
▁serve	-11.6664
▁create	-11.6669
next	-11.6669
食物	-11.6672
hook	-11.6674
cional	-11.6675
2593	-11.6675
▁dust	-11.6675
▁abus	-11.6676
他会	-11.6677
tory	-11.6679
ep	-11.6679
10286	-11.6691
▁quedan	-11.6695
22035	-11.6695
▁8684	-11.6698
我家	-11.6709
▁13684	-11.6709
looking	-11.6711
night	-11.6715
▁8259	-11.6716
mal	-11.6717
▁montañas	-11.6719
▁6105	-11.6719
cú	-11.6723
上學	-11.6723
大家都	-11.6725
▁mistaken	-11.6726
▁bello	-11.6731
▁dulces	-11.6732
▁5033	-11.6733
给他	-11.6734
11641	-11.6738
要是	-11.674
▁chat	-11.6743
putting	-11.6745
▁tip	-11.6756
11635	-11.6756
13548	-11.6757
▁formas	-11.6757
▁knowing	-11.676
算	-11.676
cing	-11.6761
▁hug	-11.6763
有一個	-11.6766
entendí	-11.6766
▁tool	-11.6767
▁nacional	-11.677
我爱	-11.677
街	-11.6772
投	-11.6772
▁alegría	-11.6772
▁basketball	-11.6772
▁celular	-11.6772
▁grateful	-11.6772
▁héroe	-11.6772
▁océano	-11.6772
▁female	-11.6772
▁drove	-11.6772
电影	-11.6772
▁screen	-11.6772
盡	-11.6772
▁construir	-11.6772
▁piense	-11.6772
además	-11.6772
quédate	-11.6772
▁época	-11.6772
接受	-11.6772
▁rechaza	-11.6772
▁victoria	-11.6773
rusia	-11.6773
22459	-11.6774
地球	-11.6775
马上	-11.6776
▁settle	-11.6776
justo	-11.6777
▁concerned	-11.6779
很少	-11.678
lucy	-11.6781
看了	-11.6781
▁cuyo	-11.6781
22598	-11.6792
▁12798	-11.6793
12056	-11.68
▁10699	-11.6801
▁unhappy	-11.6801
過了	-11.6803
▁admire	-11.6803
rb	-11.6803
我正在	-11.6809
▁mosquito	-11.6815
12664	-11.6816
venga	-11.6817
是否	-11.6818
▁101246	-11.682
tero	-11.6823
pido	-11.6824
▁llaman	-11.6827
▁17483	-11.6829
12636	-11.6839
附近	-11.684
▁17017	-11.6841
ties	-11.6841
20147	-11.6845
▁saberlo	-11.6846
chó	-11.6851
一定	-11.6851
▁noble	-11.6851
ésa	-11.6852
請你	-11.6852
quieren	-11.6854
要求	-11.6858
▁disco	-11.6866
▁novels	-11.6868
記	-11.6876
▁regla	-11.6878
haga	-11.688
20135	-11.6886
▁profesores	-11.6894
梦	-11.6896
巴	-11.6896
确	-11.6897
随	-11.6897
威	-11.6897
古	-11.6897
缺	-11.6897
血	-11.6897
角	-11.6897
mayuko	-11.6897
▁dirigi	-11.6897
▁responsibility	-11.6897
▁llueva	-11.6897
▁maravilloso	-11.6897
▁yourselves	-11.6897
▁economía	-11.6897
▁pupil	-11.6897
▁motorcycle	-11.6897
▁command	-11.6897
美元	-11.6897
派對	-11.6897
▁berber	-11.6897
▁pierde	-11.6897
▁joking	-11.6897
▁interés	-11.6898
▁salario	-11.6899
acordar	-11.6899
escriba	-11.6901
corrí	-11.6901
▁kindness	-11.6902
之一	-11.6902
ified	-11.6903
▁político	-11.6903
▁skill	-11.6905
▁cinema	-11.6905
▁avanz	-11.6905
monos	-11.6906
▁meters	-11.6906
genera	-11.6907
▁sword	-11.6909
10958	-11.6911
10245	-11.6916
▁7982	-11.6918
▁saltó	-11.692
▁sobra	-11.6925
▁esfuerzos	-11.6926
▁elección	-11.6928
▁3347	-11.6933
的東西	-11.6935
cker	-11.694
▁bote	-11.6943
▁detalles	-11.6947
▁17482	-11.6949
22589	-11.6952
▁3567	-11.6954
▁deportes	-11.6955
simplemente	-11.6959
▁tratado	-11.6959
▁llevan	-11.6965
house	-11.6967
▁fur	-11.6969
▁7906	-11.697
红	-11.6973
一位	-11.6974
▁opening	-11.6974
▁3468	-11.6974
▁3326	-11.6977
不起	-11.6983
rub	-11.6986
18861	-11.6986
▁equivoca	-11.6988
mari	-11.699
了很多	-11.6993
20945	-11.6994
▁3325	-11.6994
一只	-11.6996
▁8550	-11.6997
▁8722	-11.6997
mark	-11.6999
97704	-11.7002
▁wealth	-11.702
▁steal	-11.7023
▁expresar	-11.7023
辆	-11.7023
精	-11.7023
阿	-11.7023
幾乎	-11.7023
搭	-11.7023
▁bucket	-11.7023
亞	-11.7023
▁extremadamente	-11.7023
▁genius	-11.7023
▁músico	-11.7023
▁phrase	-11.7023
▁rostro	-11.7023
▁resemble	-11.7023
▁buried	-11.7024
▁password	-11.7024
▁brand	-11.7024
▁fought	-11.7024
▁ataque	-11.7025
生气	-11.7025
active	-11.7025
▁regalos	-11.7025
pusieron	-11.7025
▁suave	-11.7026
▁despise	-11.7029
▁option	-11.7029
▁ghost	-11.7031
▁pluma	-11.7032
想吃	-11.7032
▁suggested	-11.7033
▁granja	-11.7034
▁22283	-11.7035
▁repaired	-11.7035
▁organ	-11.7039
kar	-11.7039
▁3306	-11.704
让我们	-11.704
94009	-11.7042
▁debate	-11.7047
▁pesado	-11.7047
和他	-11.7049
九	-11.7051
10272	-11.7057
▁14395	-11.706
22599	-11.7063
▁10201	-11.7066
▁cleaned	-11.7067
15208	-11.707
▁ski	-11.7071
dormí	-11.7075
▁8742	-11.7075
meg	-11.7076
q	-11.708
5542	-11.708
人都	-11.7083
▁doy	-11.7083
▁recuper	-11.7084
▁3401	-11.7086
tica	-11.7086
▁17136	-11.7088
discut	-11.7089
▁8703	-11.7089
▁apur	-11.709
▁appearance	-11.7091
▁parecer	-11.7092
▁18320	-11.7094
▁tough	-11.7096
22543	-11.7104
hin	-11.7105
▁3456	-11.7106
cualquier	-11.7108
▁reasons	-11.7109
▁model	-11.7114
我沒	-11.7114
▁6057	-11.7116
37633	-11.7117
好了	-11.7118
sobre	-11.7121
▁compañeros	-11.7123
总	-11.7126
12654	-11.7128
bebe	-11.713
成为	-11.713
10947	-11.7131
claim	-11.7132
cookie	-11.7134
▁burl	-11.7134
22687	-11.7135
▁pintar	-11.714
15803	-11.7141
graph	-11.7143
7508	-11.7144
多久	-11.7144
22670	-11.7144
▁dish	-11.7147
direct	-11.7148
節	-11.7152
各	-11.7152
▁neighbour	-11.7152
▁responsabilidad	-11.7152
▁tamaño	-11.7152
google	-11.7152
harvard	-11.7152
▁agujero	-11.7152
▁arguing	-11.7152
▁emergency	-11.7152
▁paquete	-11.7152
vigila	-11.7152
波士頓	-11.7152
皮	-11.7152
飛機	-11.7152
▁bebiendo	-11.7152
▁verduras	-11.7152
▁balance	-11.7152
▁flies	-11.7152
▁stress	-11.7152
▁colina	-11.7152
▁exception	-11.7154
▁atrapado	-11.7154
▁armario	-11.7154
那儿	-11.7154
emily	-11.7155
▁cloud	-11.7158
▁graduated	-11.7158
long	-11.7158
小时	-11.7163
▁equivocada	-11.7165
▁excusa	-11.7165
▁119677	-11.7166
漂亮	-11.7167
▁14262	-11.7169
nal	-11.717
▁5020	-11.7174
▁8558	-11.7174
▁growing	-11.7174
▁base	-11.7175
帮我	-11.7181
▁adapt	-11.7181
wing	-11.7185
opher	-11.7187
▁ocultar	-11.7189
lig	-11.7191
▁vegetarian	-11.7193
20647	-11.7195
▁beard	-11.7195
10285	-11.7198
▁euros	-11.7201
▁urgent	-11.7201
divide	-11.7202
10243	-11.7203
ábamos	-11.7205
santa	-11.7209
▁exact	-11.7209
particip	-11.7209
▁cura	-11.7209
▁limita	-11.7211
tiendo	-11.7211
▁score	-11.7212
6349	-11.7214
solamente	-11.7214
▁16720	-11.7217
▁pure	-11.7221
lie	-11.7222
▁lamp	-11.7229
bebo	-11.7238
alcanza	-11.7238
▁pobres	-11.7238
pensaba	-11.7242
个月	-11.7246
▁15227	-11.725
的东西	-11.7251
存	-11.7256
成了	-11.7268
▁apunt	-11.7269
▁separate	-11.727
▁image	-11.727
▁accomplish	-11.7273
▁disappoint	-11.7273
speaking	-11.728
助	-11.7281
論	-11.7281
洋	-11.7282
季	-11.7282
▁universal	-11.7282
惊	-11.7282
▁evidence	-11.7282
▁illegal	-11.7282
▁victim	-11.7282
▁descubrió	-11.7282
áfrica	-11.7282
守	-11.7282
▁aceite	-11.7282
▁amarillo	-11.7282
▁batalla	-11.7282
▁cometido	-11.7282
▁patio	-11.7282
建议	-11.7282
▁distinguish	-11.7282
字典	-11.7282
▁hubiese	-11.7282
▁mention	-11.7282
▁blew	-11.7282
▁imagination	-11.7282
▁ventaja	-11.7282
▁swear	-11.7283
▁permission	-11.7283
▁electricity	-11.7283
▁calidad	-11.7283
▁nuts	-11.7283
▁annoying	-11.7284
damn	-11.7285
▁captura	-11.7286
ambas	-11.7287
▁66836	-11.7287
erra	-11.729
10254	-11.729
照片	-11.7292
▁abandonó	-11.7293
presión	-11.7294
▁recognized	-11.7297
5341	-11.7298
dick	-11.7299
tanto	-11.7299
▁politician	-11.7306
▁10555	-11.7308
run	-11.7309
不喜歡	-11.7309
▁determin	-11.7314
tió	-11.7314
18305	-11.7317
hang	-11.7319
▁equi	-11.7326
▁3399	-11.7327
rain	-11.7328
9203	-11.733
你喜歡	-11.7331
especially	-11.7332
等了	-11.7334
一家	-11.7339
▁celebrate	-11.7339
▁rota	-11.7339
▁sings	-11.734
买了	-11.7342
▁armas	-11.7343
▁elephant	-11.7345
11423	-11.7345
▁20815	-11.7347
▁15355	-11.7351
▁3467	-11.7353
18867	-11.7353
26482	-11.7353
▁14584	-11.7361
▁pila	-11.7362
▁13660	-11.7378
18417	-11.7382
10278	-11.7382
18295	-11.7388
add	-11.7392
66837	-11.7393
▁6098	-11.7393
我现在	-11.7394
12950	-11.7395
▁current	-11.7395
▁8048	-11.7396
nec	-11.7402
junta	-11.7402
?”	-11.7403
▁1208	-11.7405
ably	-11.7406
▁registr	-11.7409
试	-11.7412
师	-11.7413
▁faith	-11.7413
止	-11.7413
排	-11.7413
密	-11.7413
逃	-11.7413
承	-11.7413
▁flood	-11.7413
▁suspicious	-11.7413
▁departamento	-11.7413
▁fridge	-11.7413
▁fundamental	-11.7413
▁lecture	-11.7413
错误	-11.7413
▁sospechoso	-11.7413
▁dueño	-11.7413
▁minister	-11.7413
▁espada	-11.7414
▁asesinato	-11.7414
▁winning	-11.7414
▁salida	-11.7415
▁raw	-11.7416
▁modest	-11.7416
給他	-11.7417
我一	-11.7418
▁peligrosa	-11.7421
▁seca	-11.7423
▁tocando	-11.7423
▁20026	-11.7424
sabemos	-11.7427
▁altura	-11.7429
▁cave	-11.7431
lies	-11.7431
ub	-11.7431
15561	-11.7433
很容易	-11.7436
▁tantas	-11.7436
▁56407	-11.7437
就像	-11.744
我不喜歡	-11.7443
▁pata	-11.7445
▁97069	-11.7451
▁14359	-11.7457
19388	-11.7457
▁12967	-11.7459
▁compre	-11.7464
▁rat	-11.7464
19615	-11.7467
▁visiting	-11.747
22657	-11.7471
bone	-11.7472
▁ayudara	-11.7479
一本	-11.7479
▁77682	-11.7479
mostra	-11.7488
cular	-11.749
十二	-11.749
grand	-11.749
大学	-11.7491
▁3457	-11.7494
很高兴	-11.7495
必須	-11.7495
entiendes	-11.7501
▁15089	-11.7504
91767	-11.7507
▁humans	-11.751
▁ends	-11.7512
vé	-11.7513
33780	-11.7516
▁8723	-11.7516
▁12951	-11.7517
老人	-11.7518
mueve	-11.752
▁3438	-11.7521
▁100929	-11.7523
ual	-11.7523
▁calcula	-11.7526
audi	-11.7526
▁5645	-11.7531
的生活	-11.7532
▁presentar	-11.7538
超	-11.7539
▁lasted	-11.7539
▁environment	-11.7545
我爸爸	-11.7545
達	-11.7545
鞋	-11.7545
科	-11.7546
▁3497	-11.7546
虽然	-11.7546
露	-11.7546
▁basket	-11.7546
despierta	-11.7546
▁attitude	-11.7546
▁conferencia	-11.7546
▁department	-11.7546
▁obtener	-11.7546
基	-11.7546
focus	-11.7546
▁drew	-11.7546
参加	-11.7546
脸	-11.7547
▁double	-11.7547
睡覺	-11.7547
bienvenida	-11.7547
▁favourite	-11.7547
▁bereber	-11.7547
▁rueda	-11.7547
▁lentamente	-11.7547
encontraste	-11.7547
理解	-11.7547
方法	-11.7547
▁importance	-11.7549
开心	-11.7549
▁pond	-11.7549
derram	-11.7549
▁8555	-11.755
taste	-11.7551
rían	-11.7553
你為什麼	-11.7555
▁korean	-11.7556
一起去	-11.7558
12115	-11.7558
18863	-11.7559
▁miembro	-11.7561
▁crossing	-11.7562
▁drug	-11.7562
▁44839	-11.7562
▁details	-11.7563
我父親	-11.7565
▁peel	-11.7566
▁holding	-11.7572
▁hacerse	-11.7574
14957	-11.7575
去看	-11.7579
23874	-11.7579
▁43179	-11.7584
一個人	-11.7589
7500	-11.7591
▁sofa	-11.7596
▁ausente	-11.7598
你怎么	-11.7601
vio	-11.7602
你喜欢	-11.7602
14421	-11.7604
▁15262	-11.7608
18415	-11.7609
▁8019	-11.761
busca	-11.7611
▁4620	-11.7613
▁3983	-11.7613
我不是	-11.7617
▁8943	-11.7618
▁rosas	-11.7621
sens	-11.7624
▁101845	-11.7628
▁14969	-11.763
有一个	-11.7635
baila	-11.764
▁cómodo	-11.7643
▁rind	-11.7646
22495	-11.766
▁rabbit	-11.7663
▁culpar	-11.7664
20694	-11.7669
▁maravillosa	-11.767
别人	-11.7672
▁políticos	-11.7675
▁completa	-11.7677
出來	-11.7678
▁comfort	-11.7681
满	-11.7681
▁pepper	-11.7681
困	-11.7681
談	-11.7681
與	-11.7681
南	-11.7681
▁embarrassed	-11.7682
argentina	-11.7682
▁curtain	-11.7682
physical	-11.7682
▁crédito	-11.7682
▁various	-11.7682
隊	-11.7682
sabés	-11.7682
▁acuerda	-11.7682
药	-11.7682
型	-11.7682
▁alegre	-11.7682
confío	-11.7682
珍	-11.7682
enseguida	-11.7682
▁gallina	-11.7682
▁justicia	-11.7682
足球	-11.7682
動物	-11.7682
▁10010	-11.7682
主意	-11.7682
的书	-11.7682
▁located	-11.7683
▁castiga	-11.7683
▁olor	-11.7683
▁secretary	-11.7683
▁vendría	-11.7684
才能	-11.7685
▁breve	-11.7685
▁fluently	-11.7685
的想法	-11.7686
▁finding	-11.7686
▁13494	-11.7686
▁minor	-11.7688
cows	-11.7689
▁gained	-11.769
參加	-11.7691
▁cierta	-11.7692
11410	-11.7693
18866	-11.7693
22546	-11.7693
▁consigo	-11.7694
▁host	-11.7695
▁survived	-11.7696
▁apoya	-11.7699
▁invitado	-11.7701
最后	-11.7702
▁3460	-11.7705
身上	-11.7707
哪里	-11.7708
net	-11.7708
▁lugares	-11.7712
▁admitir	-11.7717
▁ponerse	-11.772
logical	-11.7723
▁holidays	-11.7724
wn	-11.7725
▁nación	-11.7733
▁8812	-11.7737
▁degrees	-11.7739
consider	-11.7744
幫	-11.7746
10961	-11.7747
volvió	-11.7748
things	-11.7748
traté	-11.775
consum	-11.7751
世界上	-11.7755
mov	-11.7758
並	-11.7763
under	-11.7763
▁urgente	-11.7766
cultural	-11.777
nico	-11.777
33779	-11.7773
▁yell	-11.7774
allow	-11.7777
fine	-11.7779
是你	-11.7791
hong	-11.7799
▁sandwich	-11.7804
19617	-11.7804
▁12842	-11.7804
▁12788	-11.7804
▁14085	-11.7808
lisa	-11.7813
▁chose	-11.7813
22591	-11.7814
妻子	-11.7817
经	-11.7818
价	-11.7818
藏	-11.7818
樹	-11.7819
▁bilingual	-11.7819
▁invitó	-11.7819
▁kilómetros	-11.7819
▁switch	-11.7819
▁throat	-11.7819
疼	-11.7819
▁horror	-11.7819
▁symbol	-11.7819
▁unlikely	-11.7819
英國	-11.7819
austria	-11.7819
考试	-11.7819
▁patatas	-11.7819
▁begun	-11.7819
▁daily	-11.7819
▁trabajó	-11.7819
llamé	-11.7819
值得	-11.7819
▁tumba	-11.7821
10301	-11.7821
aki	-11.7821
▁bible	-11.7821
飞	-11.7824
▁bitter	-11.7825
我明天	-11.7826
▁independent	-11.7831
▁subió	-11.7833
▁lento	-11.7834
11234	-11.7834
10931	-11.7835
11674	-11.7836
▁5365	-11.7837
▁borrowed	-11.7837
▁added	-11.784
▁llegaron	-11.7841
▁45573	-11.7841
出来	-11.7845
▁novelas	-11.7847
▁quedaré	-11.7847
▁descansar	-11.7848
▁consola	-11.7849
▁cleaning	-11.7858
grade	-11.7858
20116	-11.7861
▁gain	-11.7865
▁fila	-11.7866
▁grown	-11.7866
是不	-11.7867
▁remains	-11.7867
20777	-11.7868
▁identific	-11.7874
▁contribu	-11.7874
▁feo	-11.7876
brace	-11.7879
▁producto	-11.7883
▁schedule	-11.7888
▁ayudarle	-11.7894
camin	-11.7897
23675	-11.7897
▁invitar	-11.7898
14600	-11.79
▁laid	-11.7901
坏	-11.7904
▁16126	-11.7907
tenga	-11.7911
▁consume	-11.7912
▁sucia	-11.7913
22452	-11.7914
▁rely	-11.7915
▁13970	-11.7915
▁terrorist	-11.7916
的事情	-11.7921
▁uniform	-11.7923
▁imita	-11.7927
91891	-11.7928
三十	-11.7932
american	-11.7932
corre	-11.7934
▁7757	-11.7934
漂亮的	-11.7938
eran	-11.7943
壞	-11.7947
▁ocurrir	-11.7948
16838	-11.7949
我沒有	-11.7949
47576	-11.7949
dije	-11.795
▁anterior	-11.795
▁disgust	-11.7951
▁ocupa	-11.7955
词	-11.7957
飛	-11.7957
▁7960	-11.7957
疑	-11.7957
零	-11.7957
蛋	-11.7957
東京	-11.7957
▁sándwich	-11.7957
▁cigarrillo	-11.7957
lincoln	-11.7957
▁affair	-11.7957
▁hierba	-11.7957
习惯	-11.7957
极	-11.7957
▁pride	-11.7958
▁bromeando	-11.7958
▁investigación	-11.7958
冬天	-11.7958
▁dozen	-11.7958
▁datos	-11.7958
▁orgullosa	-11.7958
▁adorable	-11.7958
▁noisy	-11.7958
▁razones	-11.7958
ísimo	-11.7959
▁discussion	-11.7959
▁pesca	-11.796
victory	-11.7962
▁94094	-11.7962
▁mover	-11.7963
proof	-11.797
obviously	-11.7973
interpret	-11.7973
记得	-11.7978
▁leyó	-11.7979
such	-11.7981
▁8533	-11.7983
▁escena	-11.7985
▁6097	-11.7986
▁conocerte	-11.7988
ección	-11.7994
▁odian	-11.7996
▁8343	-11.7996
16904	-11.7997
20600	-11.8
▁16247	-11.8003
就要	-11.8005
▁trusted	-11.8007
▁role	-11.801
due	-11.8011
▁sangra	-11.8012
emi	-11.8013
▁aboli	-11.8015
▁montar	-11.8017
10087	-11.8024
▁4545	-11.8025
▁3345	-11.8027
我看	-11.8028
▁dim	-11.8029
▁13556	-11.803
▁3335	-11.8031
▁3331	-11.8032
▁8767	-11.8033
18304	-11.8033
▁imagin	-11.8034
▁respuestas	-11.8034
▁cercano	-11.8035
10288	-11.8036
rico	-11.8038
▁15354	-11.8039
桌子	-11.8044
entré	-11.8046
否	-11.8046
不需要	-11.8048
▁51246	-11.8053
遇到	-11.8054
cade	-11.8055
47646	-11.8055
tendió	-11.8056
11790	-11.8056
▁humo	-11.8062
▁fij	-11.8064
infla	-11.8064
amiento	-11.8067
tie	-11.8068
18957	-11.807
別人	-11.8075
▁lanza	-11.8076
▁fingi	-11.8077
doctor	-11.8078
▁7802	-11.8083
▁dejara	-11.8084
注意	-11.8084
我不会	-11.8087
▁deny	-11.8088
▁9764	-11.8089
vaya	-11.8095
▁fluent	-11.8096
姐姐	-11.8098
升	-11.8098
switzerland	-11.8098
▁communicate	-11.8098
▁delicioso	-11.8098
▁gloves	-11.8098
▁derrota	-11.8098
▁escondiendo	-11.8098
▁attractive	-11.8098
▁literatura	-11.8098
▁naive	-11.8099
▁falsa	-11.8099
▁poniendo	-11.8099
conscious	-11.8099
▁prohibited	-11.8099
▁pegó	-11.8099
▁kidding	-11.8099
94008	-11.8099
effective	-11.8099
▁estilo	-11.8099
▁otherwise	-11.8099
▁burst	-11.81
開車	-11.81
▁enfadar	-11.8101
▁8537	-11.8103
▁cheaper	-11.8104
▁bordo	-11.8106
▁15479	-11.8107
▁talented	-11.8108
acted	-11.811
不是嗎	-11.8113
▁ayudarnos	-11.8117
▁height	-11.8118
torio	-11.8118
▁higher	-11.8122
marc	-11.8125
▁leyes	-11.8126
存在	-11.8126
是真的	-11.8129
▁limpio	-11.813
車站	-11.813
▁5036	-11.8131
路上	-11.8132
▁sink	-11.8136
▁5808	-11.8137
uz	-11.8138
桌上	-11.8138
▁wishes	-11.814
上班	-11.8144
111015	-11.8146
我從	-11.8148
22416	-11.8148
▁copa	-11.8149
▁poems	-11.8149
▁difíciles	-11.8152
22034	-11.8154
▁sucio	-11.8154
▁rama	-11.8159
▁19932	-11.8161
10962	-11.8166
pho	-11.8169
17176	-11.8174
▁acusado	-11.8175
▁8331	-11.818
zan	-11.8183
10941	-11.8184
sigo	-11.8185
10938	-11.8187
都不	-11.8198
要做	-11.8199
▁fantasmas	-11.8199
91889	-11.82
▁rare	-11.8206
vin	-11.8206
eh	-11.8207
▁concern	-11.8207
的意思	-11.8209
▁pol	-11.8212
▁vela	-11.8213
样	-11.8219
▁engineer	-11.8223
▁male	-11.8227
▁attempt	-11.8233
还没	-11.8234
飯	-11.824
10935	-11.824
cate	-11.824
消	-11.8241
准备	-11.8241
翻译	-11.8241
▁calcetines	-11.8241
▁plastic	-11.8241
▁register	-11.8241
袋	-11.8241
▁branch	-11.8241
▁worn	-11.8241
挺	-11.8241
▁committee	-11.8241
▁viniera	-11.8241
▁truly	-11.8241
举	-11.8241
刀	-11.8241
▁especie	-11.8241
▁medical	-11.8241
judy	-11.8242
▁cheque	-11.8242
▁carpet	-11.8244
兒子	-11.8244
follow	-11.8245
▁apply	-11.8245
吃饭	-11.8245
▁contains	-11.8246
▁sueldo	-11.8246
▁acompañar	-11.8247
conf	-11.8249
japanese	-11.825
▁enamorada	-11.825
▁3402	-11.8251
▁yard	-11.8251
dogs	-11.8252
▁50585	-11.8252
safety	-11.8253
为了	-11.8255
▁based	-11.8256
▁quedaron	-11.8257
完了	-11.8259
salga	-11.8261
▁16386	-11.8261
▁attended	-11.8264
versión	-11.8268
91946	-11.8268
101409	-11.8275
做完	-11.8278
▁laws	-11.8279
想到	-11.8284
很久	-11.8284
▁youth	-11.8287
▁naranjas	-11.8292
这儿	-11.8296
▁8445	-11.8297
▁26672	-11.8298
▁cent	-11.8299
我们在	-11.8302
13347	-11.8304
▁3349	-11.8304
▁closer	-11.8304
ound	-11.8306
▁contiene	-11.8309
15436	-11.831
年前	-11.8311
说什么	-11.8322
容易	-11.8324
把我的	-11.8327
estuviste	-11.8337
▁verla	-11.8337
teníamos	-11.8342
ude	-11.8344
▁entregar	-11.8349
那里	-11.8353
15535	-11.8357
invita	-11.8359
▁8262	-11.836
▁deuda	-11.8361
▁villa	-11.8367
91797	-11.8375
10948	-11.8377
▁aves	-11.8379
97414	-11.838
57481	-11.8383
么	-11.8384
证	-11.8386
抱歉	-11.8386
哈	-11.8386
奇	-11.8386
聊	-11.8386
連	-11.8386
究	-11.8386
confidence	-11.8386
▁anxious	-11.8386
▁conference	-11.8386
▁juventud	-11.8386
▁laptop	-11.8386
▁pasatiempo	-11.8386
▁treasure	-11.8386
desperté	-11.8386
▁ilegal	-11.8386
▁cobarde	-11.8386
银行	-11.8386
▁april	-11.8386
公园	-11.8386
▁apresur	-11.8386
abstract	-11.8386
确定	-11.8386
cuente	-11.8386
▁genio	-11.8386
▁link	-11.8386
椅子	-11.8386
▁regresó	-11.8387
▁pound	-11.8387
关于	-11.8387
▁knocked	-11.8387
▁kobe	-11.8387
18864	-11.8388
▁preparando	-11.8388
▁replace	-11.8389
▁muere	-11.8389
▁insectos	-11.839
▁8678	-11.8392
▁stealing	-11.8394
樂	-11.8395
▁prevented	-11.8396
▁suffering	-11.8396
▁granted	-11.8399
334529	-11.8403
▁8549	-11.8405
▁dri	-11.8406
▁13467	-11.8406
gy	-11.8406
▁preguntarle	-11.8406
▁millas	-11.8407
▁shorter	-11.8408
▁kilo	-11.8412
▁educa	-11.8412
colon	-11.8413
▁9316	-11.8413
很快就	-11.8414
alguno	-11.8414
94007	-11.8417
about	-11.8421
▁55667	-11.8421
十年	-11.8422
▁pagan	-11.8426
▁escuchado	-11.8427
▁100789	-11.8433
▁vase	-11.8436
我父亲	-11.8439
22673	-11.8448
你不能	-11.8453
▁16872	-11.8453
會來	-11.8454
10297	-11.8456
▁reduce	-11.8457
▁3478	-11.8461
▁9180	-11.8461
compet	-11.8464
▁vuelvas	-11.8464
收到	-11.8465
▁admiti	-11.8467
起了	-11.8468
▁20635	-11.847
▁hacemos	-11.8473
10936	-11.8475
▁lograr	-11.8475
llegaste	-11.8476
▁100974	-11.8476
日本人	-11.8477
▁experto	-11.848
22544	-11.8481
won	-11.8484
▁7758	-11.8486
▁8329	-11.8494
很難	-11.85
vienes	-11.85
▁21174	-11.8502
▁coins	-11.8505
fred	-11.8507
recuerdas	-11.8509
會說	-11.8511
dict	-11.8512
whe	-11.8513
▁7957	-11.8521
▁mezcla	-11.8523
91945	-11.8524
我現在	-11.8524
10289	-11.8532
共	-11.8533
prince	-11.8533
怪	-11.8533
池	-11.8533
續	-11.8533
赶	-11.8533
调	-11.8533
cristiano	-11.8533
▁riqueza	-11.8533
灯	-11.8533
▁apariencia	-11.8533
▁límite	-11.8533
▁ridiculous	-11.8533
▁thursday	-11.8533
democracy	-11.8533
▁aceptó	-11.8533
▁competition	-11.8533
▁robbed	-11.8533
▁zorro	-11.8533
鸟	-11.8533
▁bilingüe	-11.8533
几乎	-11.8533
grammar	-11.8533
▁milagro	-11.8533
▁mystery	-11.8533
▁rodilla	-11.8533
感冒	-11.8533
▁lloró	-11.8533
▁sake	-11.8533
▁princess	-11.8533
79501	-11.8533
▁occurred	-11.8533
▁sauce	-11.8534
vinieron	-11.8534
▁brazilian	-11.8534
▁falso	-11.8534
▁polaco	-11.8534
▁suggestion	-11.8534
▁sail	-11.8534
▁pink	-11.8534
▁couch	-11.8534
▁wheel	-11.8536
▁surrounded	-11.8537
▁estadounidenses	-11.8537
▁punished	-11.8537
104614	-11.8539
▁reservation	-11.8539
▁muro	-11.8539
ugh	-11.8545
gué	-11.8546
我認為	-11.8548
▁magic	-11.8549
▁14257	-11.8549
▁topic	-11.8557
hunger	-11.856
intente	-11.856
不可	-11.8563
▁66888	-11.8564
▁terms	-11.8565
▁57805	-11.8567
ético	-11.8568
▁disculpar	-11.8573
▁100653	-11.8575
24513	-11.8577
▁58540	-11.8579
vida	-11.858
▁sha	-11.858
gol	-11.8581
mario	-11.8581
comb	-11.8582
▁cau	-11.8584
seek	-11.8586
▁51320	-11.8588
learn	-11.8588
▁19014	-11.8589
▁sushi	-11.859
今天早上	-11.8592
friend	-11.8592
▁51476	-11.8593
▁seres	-11.8593
▁nace	-11.8593
▁8539	-11.8594
buenas	-11.8594
▁ref	-11.8599
entiendo	-11.8599
▁alarma	-11.8602
▁coin	-11.8602
13466	-11.8605
39627	-11.8605
▁león	-11.8606
▁tooth	-11.8607
buenos	-11.8609
很有	-11.8611
nara	-11.8619
▁decepcion	-11.8621
▁stamps	-11.8622
▁metros	-11.8623
▁3473	-11.8624
20336	-11.8625
▁17484	-11.8627
▁11922	-11.8628
22432	-11.8629
▁8503	-11.8629
sabías	-11.8632
▁mentiras	-11.8633
▁newspapers	-11.8635
▁3340	-11.8635
97955	-11.864
96683	-11.8643
cena	-11.8648
▁research	-11.8651
dero	-11.8655
▁listos	-11.8655
▁molestar	-11.8658
说的	-11.866
14044	-11.8662
▁1990	-11.867
14771	-11.8673
▁shock	-11.8674
maneja	-11.8678
電視	-11.8679
▁8559	-11.868
元	-11.8682
隨	-11.8682
示	-11.8682
贏	-11.8682
答案	-11.8682
引	-11.8682
電腦	-11.8682
aproximadamente	-11.8682
hungarian	-11.8682
▁actitud	-11.8682
▁afecta	-11.8682
▁berlin	-11.8682
▁bleeding	-11.8682
▁diamond	-11.8682
▁espíritu	-11.8682
▁journey	-11.8682
▁sencillo	-11.8682
▁tecnología	-11.8682
▁translator	-11.8682
▁anciana	-11.8682
感兴趣	-11.8682
translating	-11.8682
破	-11.8682
▁oveja	-11.8682
picasso	-11.8682
▁below	-11.8683
escucho	-11.8683
▁habido	-11.8683
▁ardilla	-11.8683
▁temple	-11.8683
▁package	-11.8683
▁6685	-11.8683
▁stage	-11.8683
会议	-11.8683
▁republic	-11.8683
▁8815	-11.8683
▁classical	-11.8684
▁vistazo	-11.8684
▁preferido	-11.8684
▁chest	-11.8684
▁sheet	-11.8685
▁moleste	-11.8685
▁trago	-11.8685
▁transmit	-11.8686
anna	-11.8686
▁betrayed	-11.8687
来自	-11.8687
感觉	-11.8688
llego	-11.869
▁harías	-11.8692
▁8753	-11.8692
▁shine	-11.8693
▁hired	-11.8693
▁cercana	-11.8694
▁ciento	-11.8696
▁14065	-11.8698
▁discussed	-11.8698
porque	-11.8703
▁improved	-11.8705
▁quedamos	-11.8706
▁3474	-11.8706
12931	-11.8708
不管	-11.871
91893	-11.8718
▁logro	-11.8718
▁fea	-11.872
▁79320	-11.873
是什麼	-11.8731
▁azules	-11.8731
▁slight	-11.8732
22456	-11.8734
▁data	-11.8736
▁propios	-11.8736
▁abundan	-11.8737
▁97068	-11.874
▁chew	-11.8741
▁element	-11.8741
▁gritar	-11.8746
▁5143	-11.8749
除	-11.8751
hablar	-11.8756
▁usan	-11.8757
▁pequeñas	-11.8758
abra	-11.8767
▁guardia	-11.8772
▁tap	-11.8773
98555	-11.8774
▁101128	-11.8774
▁45057	-11.8775
anyone	-11.8775
95249	-11.8777
ular	-11.8777
▁experimento	-11.8777
21076	-11.8785
10952	-11.8786
prote	-11.8787
▁perfecta	-11.8793
▁sean	-11.8793
湯姆是	-11.8794
▁preguntaba	-11.8797
20113	-11.8805
夢	-11.8806
眼睛	-11.8806
▁8363	-11.8809
▁100630	-11.8809
encontraron	-11.8809
proba	-11.8812
▁94191	-11.8814
▁tales	-11.8819
▁promises	-11.882
explica	-11.8822
11263	-11.8823
escond	-11.8825
▁deber	-11.8826
▁3297	-11.8833
▁revolution	-11.8833
▁acompaña	-11.8834
▁cav	-11.8834
抽	-11.8834
图书馆	-11.8834
▁tímido	-11.8834
incluye	-11.8834
nemesio	-11.8834
poverty	-11.8834
▁boleto	-11.8834
▁despertó	-11.8834
▁desprecia	-11.8834
▁víctima	-11.8834
號	-11.8834
fadil	-11.8834
▁gracioso	-11.8834
▁shadow	-11.8834
▁gatito	-11.8834
▁elecciones	-11.8834
▁impuestos	-11.8834
mantén	-11.8834
▁entrance	-11.8834
▁abeja	-11.8834
▁pasajeros	-11.8834
證	-11.8834
方式	-11.8834
▁combina	-11.8834
▁hidden	-11.8835
▁powerful	-11.8835
▁alphabet	-11.8836
▁belt	-11.8836
走路	-11.8836
▁ditch	-11.8837
▁fecha	-11.8837
▁impressed	-11.8837
▁boo	-11.8837
▁labor	-11.8838
ayúdame	-11.8839
▁robar	-11.884
ándome	-11.8841
▁56707	-11.8842
▁notas	-11.8845
▁achieved	-11.8845
▁causes	-11.8848
▁ruined	-11.885
▁entendido	-11.885
▁16346	-11.8851
▁aprobar	-11.8851
▁100404	-11.8853
▁bowl	-11.8855
▁moderno	-11.8857
他被	-11.886
19944	-11.8864
▁tocó	-11.8864
▁incident	-11.8865
▁67607	-11.8866
▁compañero	-11.8867
▁45576	-11.8868
13549	-11.887
时候	-11.8872
▁7981	-11.8877
19364	-11.8877
▁8346	-11.8878
▁asustado	-11.8879
▁contrato	-11.8882
▁rainy	-11.8882
▁touched	-11.8882
▁11658	-11.8883
thousands	-11.8883
▁orejas	-11.8885
▁bark	-11.8885
▁muertos	-11.8886
跑得	-11.8886
去做	-11.8887
▁11364	-11.8889
▁duró	-11.8889
émonos	-11.8891
▁cabe	-11.8892
▁9179	-11.8892
很大	-11.8894
uch	-11.8894
▁reparar	-11.8897
104654	-11.8897
viene	-11.89
▁pod	-11.8902
pida	-11.8904
22706	-11.8906
▁68110	-11.8907
▁continuar	-11.8908
也沒有	-11.8909
21629	-11.8911
▁promet	-11.8911
成為	-11.8914
▁7851	-11.8915
disculpa	-11.8916
100980	-11.8916
mic	-11.8917
13963	-11.8919
▁cable	-11.8927
張	-11.8929
▁anima	-11.8929
dimos	-11.893
▁suma	-11.893
生日	-11.893
▁blancas	-11.8931
。」	-11.8932
▁79180	-11.8932
pay	-11.8933
22476	-11.8939
▁papas	-11.8939
▁fines	-11.8941
20112	-11.8945
▁11310	-11.8946
▁amigas	-11.8947
▁pose	-11.8947
▁mosca	-11.8948
▁union	-11.8949
suelo	-11.8953
food	-11.8953
▁sano	-11.8955
▁disfrutar	-11.8956
politicians	-11.8959
learning	-11.8961
出生	-11.8966
▁medal	-11.8967
▁5028	-11.8971
▁12897	-11.8975
regresa	-11.8976
baja	-11.8976
estuvo	-11.8977
我的朋友	-11.898
▁desarroll	-11.8981
▁fascina	-11.8981
▁recover	-11.8982
▁agradecer	-11.8986
▁23146	-11.8986
底	-11.8986
價	-11.8988
戒	-11.8988
▁ridículo	-11.8988
曲	-11.8988
▁threat	-11.8988
▁capitán	-11.8988
▁equipaje	-11.8988
意大利	-11.8988
apparently	-11.8988
▁abilities	-11.8988
▁accompanied	-11.8988
▁cinturón	-11.8988
▁cortina	-11.8988
▁desierto	-11.8988
▁uncomfortable	-11.8988
喜	-11.8988
胖	-11.8988
screw	-11.8988
▁envelope	-11.8988
东京	-11.8988
▁necesite	-11.8988
▁pedazo	-11.8988
▁presence	-11.8988
情况	-11.8988
考試	-11.8988
▁consciousness	-11.8988
經	-11.8988
▁cosecha	-11.8988
▁miracle	-11.8988
▁aliens	-11.8988
▁invitación	-11.8988
▁impression	-11.8988
▁journalist	-11.8988
18875	-11.8988
▁temptation	-11.8988
▁imaginación	-11.8989
▁volando	-11.8989
一般	-11.8989
星期天	-11.8989
他们的	-11.8989
▁diary	-11.899
▁vaca	-11.899
▁perfectamente	-11.8991
▁aspirin	-11.8992
22535	-11.8992
poetry	-11.8992
▁louder	-11.8993
▁divided	-11.8994
▁servir	-11.8996
86887	-11.8996
▁59836	-11.8996
家庭	-11.8997
而是	-11.8998
▁bull	-11.8999
▁levantarse	-11.9
▁agotado	-11.9001
▁66942	-11.9001
▁duck	-11.9003
▁divorced	-11.9004
去过	-11.9004
▁11604	-11.9004
owed	-11.9004
rian	-11.9005
19119	-11.9006
没人	-11.9006
▁andando	-11.9006
▁66246	-11.9007
▁ignored	-11.9007
▁20816	-11.9008
▁miente	-11.9009
▁hip	-11.9011
▁17514	-11.9012
10059	-11.9012
▁100465	-11.9013
sleep	-11.9014
▁10684	-11.9017
▁christian	-11.9018
▁3462	-11.9018
seré	-11.9019
11235	-11.9022
yoko	-11.9022
▁77718	-11.9022
presta	-11.9024
▁11737	-11.9027
▁considerado	-11.9031
▁21021	-11.9037
13586	-11.9042
▁57509	-11.9043
20115	-11.9046
▁28287	-11.9051
只要	-11.9054
resulta	-11.9055
fall	-11.9057
▁kn	-11.9057
▁11421	-11.9059
▁43293	-11.9059
teniendo	-11.9061
湯姆的	-11.9062
bin	-11.9063
▁instrument	-11.9064
▁28565	-11.9066
12075	-11.9068
▁extend	-11.9069
里有	-11.907
▁scare	-11.9071
10963	-11.9077
▁novelist	-11.9078
▁vengas	-11.9079
20114	-11.9086
在这儿	-11.9088
▁comentarios	-11.9089
▁insist	-11.9089
ching	-11.9091
▁foreigners	-11.9092
▁17157	-11.9095
▁6147	-11.9097
这不是	-11.9097
haría	-11.9103
▁ignorant	-11.9104
22358	-11.9104
▁pack	-11.9105
偷	-11.9105
13887	-11.9106
20383	-11.9106
给了	-11.9107
11482	-11.9107
▁struggle	-11.9108
68776	-11.9108
37529	-11.9113
▁lines	-11.9113
phil	-11.9116
想去	-11.9117
▁pelear	-11.9118
16178	-11.912
▁20156	-11.9122
traduci	-11.9125
▁productos	-11.9125
條	-11.9126
▁manage	-11.9133
▁defini	-11.9135
▁prima	-11.9136
100981	-11.9138
shirt	-11.9138
▁101110	-11.9142
▁aumenta	-11.9142
爾	-11.9143
刚	-11.9144
▁occur	-11.9144
战	-11.9144
报	-11.9144
雖然	-11.9144
登	-11.9144
課	-11.9144
结束	-11.9144
爬	-11.9144
▁muebles	-11.9144
吵	-11.9144
▁community	-11.9144
▁mobile	-11.9144
▁plátano	-11.9144
▁possibility	-11.9144
▁volunteer	-11.9144
转	-11.9144
毒	-11.9144
私	-11.9144
▁apagó	-11.9144
▁mínimo	-11.9144
▁ensalada	-11.9144
▁oscura	-11.9144
習慣	-11.9144
每个人都	-11.9144
▁agradecido	-11.9144
每天早上	-11.9144
empecé	-11.9144
▁cepilla	-11.9144
裙子	-11.9144
▁mortal	-11.9145
pidieron	-11.9145
▁burning	-11.9145
▁veneno	-11.9146
▁guide	-11.9147
▁muchísimo	-11.9148
▁clothing	-11.9149
▁cometió	-11.915
▁slave	-11.9151
▁severe	-11.9153
▁inventó	-11.9153
▁barrio	-11.9155
▁fake	-11.9157
▁gray	-11.9157
▁conocemos	-11.9158
▁16372	-11.916
▁complained	-11.9161
18844	-11.9165
currently	-11.9165
▁introduced	-11.9166
▁repetir	-11.9172
22411	-11.9173
▁12789	-11.9175
▁prob	-11.9177
▁16907	-11.9179
20578	-11.918
▁escalera	-11.9183
▁vend	-11.9183
10945	-11.9184
▁sales	-11.919
3500	-11.9191
▁usado	-11.9194
18411	-11.9194
▁stones	-11.9196
▁lemon	-11.9197
說英語	-11.9199
cking	-11.9201
▁scientist	-11.9201
22457	-11.9204
▁atrev	-11.9204
25474	-11.9205
▁16844	-11.9205
▁aquello	-11.9207
22033	-11.9209
遲到	-11.9209
▁3394	-11.921
▁3390	-11.9211
jan	-11.9214
18677	-11.9219
▁20555	-11.9222
更好	-11.9224
▁locos	-11.9224
▁dará	-11.9225
▁6373	-11.923
24514	-11.9232
66819	-11.9237
▁suceder	-11.9238
任	-11.9238
▁aboard	-11.9239
▁ofrece	-11.9241
carlos	-11.9241
沒有人	-11.9243
總	-11.9244
▁fork	-11.9251
▁vienen	-11.9253
▁ayudará	-11.9256
debí	-11.9256
gging	-11.9258
had	-11.9258
結婚	-11.9264
16362	-11.9267
quita	-11.9267
▁remembered	-11.9272
▁charla	-11.9274
▁3464	-11.9277
22528	-11.9277
▁kilos	-11.9278
▁12800	-11.9284
▁diste	-11.9289
bon	-11.9293
▁guardar	-11.9293
zada	-11.9293
100760	-11.9298
▁interrump	-11.9299
america	-11.9301
▁commit	-11.9302
▁36029	-11.9302
套	-11.9302
司	-11.9303
紅	-11.9303
圣	-11.9303
源	-11.9303
局	-11.9303
计	-11.9303
双	-11.9303
段	-11.9303
危險	-11.9303
強	-11.9303
托	-11.9303
beethoven	-11.9303
philosophy	-11.9303
▁accompany	-11.9303
▁dialect	-11.9303
▁scratch	-11.9303
赢	-11.9303
/	-11.9303
barcelona	-11.9303
global	-11.9303
▁actress	-11.9303
▁biblia	-11.9303
▁disfraz	-11.9303
▁gerente	-11.9303
▁infancia	-11.9303
▁insane	-11.9303
▁jeans	-11.9303
▁related	-11.9303
伦敦	-11.9303
雙	-11.9303
比賽	-11.9303
英国	-11.9303
▁asistir	-11.9303
▁collar	-11.9303
會議	-11.9303
自然	-11.9303
晚饭	-11.9303
▁reform	-11.9304
19122	-11.9304
▁generation	-11.9304
女朋友	-11.9304
▁function	-11.9304
请问	-11.9305
下雪	-11.9305
pregúntale	-11.9305
▁applie	-11.9305
22500	-11.9306
这个问题	-11.9306
▁periodista	-11.9307
▁bug	-11.9308
▁convencido	-11.9309
▁gris	-11.9309
▁invest	-11.9309
▁17784	-11.9312
▁smarter	-11.9314
▁14084	-11.9315
▁8348	-11.9316
▁drawer	-11.9319
▁served	-11.932
▁5766	-11.932
▁martes	-11.9323
真的很	-11.9324
▁3451	-11.9325
▁wings	-11.9327
language	-11.9329
observa	-11.933
11265	-11.9332
▁punta	-11.9332
spain	-11.9332
▁mona	-11.9336
今天是	-11.9336
mrs	-11.9337
▁55666	-11.9337
waiter	-11.9339
12144	-11.9342
▁79231	-11.9343
并不	-11.9344
但我	-11.9345
▁43294	-11.9347
看起来	-11.935
dispara	-11.935
▁terror	-11.9351
23759	-11.9353
▁pasta	-11.9355
▁3437	-11.9355
▁disculpas	-11.9355
▁79179	-11.9356
78227	-11.9358
sign	-11.9359
▁97039	-11.9361
▁56635	-11.9362
▁9167	-11.9365
並不	-11.9368
▁sucede	-11.9369
▁8020	-11.9373
▁102745	-11.9374
▁largas	-11.9384
▁deserves	-11.9387
64520	-11.9388
agra	-11.9388
▁12970	-11.9393
貓	-11.9394
▁pee	-11.9396
▁nadando	-11.9396
▁6374	-11.9396
sentimiento	-11.9401
▁baña	-11.9405
▁científico	-11.9406
scientists	-11.9406
▁100443	-11.9409
▁8385	-11.9411
▁clientes	-11.9412
他说	-11.9414
▁bala	-11.9417
病了	-11.9419
12412	-11.9421
我知道你	-11.9424
66269	-11.9424
▁pilot	-11.9425
▁mare	-11.943
▁16689	-11.943
▁rojas	-11.9432
▁consiste	-11.9434
▁8424	-11.9439
▁94232	-11.944
piensas	-11.9442
▁official	-11.9443
一隻	-11.9444
▁interpreta	-11.9445
uk	-11.9448
▁damage	-11.9452
▁acusa	-11.9453
▁desayuna	-11.9455
▁10650	-11.9456
▁3332	-11.9458
▁12812	-11.9461
▁rápida	-11.9462
▁perform	-11.9464
吸	-11.9464
易	-11.9464
领	-11.9464
加拿大	-11.9464
致	-11.9464
置	-11.9464
▁emergencia	-11.9464
預	-11.9464
▁alternativa	-11.9464
▁fluidez	-11.9464
▁interview	-11.9464
▁muerta	-11.9464
▁puppy	-11.9464
▁regaló	-11.9464
▁shanghai	-11.9464
▁thirteen	-11.9464
▁wolf	-11.9464
▁acercó	-11.9464
▁alcalde	-11.9464
▁desnudo	-11.9464
介	-11.9464
而且	-11.9464
▁dessert	-11.9464
▁silver	-11.9464
ayudé	-11.9464
encuentre	-11.9464
提供	-11.9464
巧克力	-11.9464
▁capaces	-11.9464
cariño	-11.9465
今年	-11.9465
▁comporta	-11.9465
意外	-11.9465
▁baile	-11.9465
▁103020	-11.9466
▁negar	-11.9466
▁saliendo	-11.9466
▁carrots	-11.9466
中國	-11.9467
▁menú	-11.9468
prueba	-11.9468
就會	-11.9469
▁importaría	-11.9471
▁13863	-11.9472
11736	-11.9472
boil	-11.9474
▁asesinado	-11.9475
encantado	-11.9475
▁chile	-11.9476
上学	-11.9477
▁dificultades	-11.9477
!»	-11.9479
▁latest	-11.9479
▁transform	-11.9482
▁crowded	-11.9482
▁bebió	-11.9483
▁toques	-11.9483
11748	-11.9485
有多少	-11.9489
generalmente	-11.9491
10924	-11.9496
▁selling	-11.9497
15772	-11.9498
conecta	-11.9498
▁97067	-11.95
22484	-11.95
▁100608	-11.9501
▁15305	-11.9505
我叫	-11.9505
anne	-11.9507
too	-11.9507
▁8546	-11.9508
▁acostumbra	-11.9508
▁depressed	-11.9509
cuánta	-11.9511
estudio	-11.9516
▁vegan	-11.9516
▁toys	-11.9516
▁4264	-11.9517
▁56136	-11.9517
claro	-11.9518
thirty	-11.9519
llegó	-11.952
▁11299	-11.952
哪裡	-11.952
▁14772	-11.9521
cies	-11.9522
▁hagan	-11.9529
▁8536	-11.9534
▁103632	-11.9534
▁21144	-11.9537
▁3388	-11.9538
▁miraba	-11.9539
必	-11.9539
▁oficial	-11.9543
够	-11.9545
idades	-11.9546
夠	-11.9548
把你的	-11.9548
▁llamarme	-11.9551
▁12485	-11.9557
唯一	-11.9558
rice	-11.9559
▁16835	-11.9563
ignore	-11.9563
12307	-11.9567
51309	-11.9574
48446	-11.9576
abrí	-11.9576
太多	-11.9576
▁7932	-11.958
的父母	-11.9584
▁3452	-11.9584
98495	-11.9585
▁4628	-11.9587
▁conditions	-11.9589
▁24092	-11.9592
piensa	-11.9594
▁reserve	-11.9595
▁8356	-11.9595
▁asegurar	-11.9599
跟他	-11.9608
花了	-11.9613
▁3465	-11.9615
▁6161	-11.9615
ónica	-11.9617
▁clara	-11.9618
幸	-11.962
▁destroy	-11.962
11836	-11.9621
▁8541	-11.9622
16546	-11.9622
人們	-11.9623
18983	-11.9627
▁basic	-11.9627
例	-11.9628
居	-11.9628
脚	-11.9628
傻	-11.9628
列	-11.9628
我昨晚	-11.9628
某	-11.9628
连	-11.9628
溫	-11.9628
甜	-11.9628
january	-11.9628
▁cubierto	-11.9628
▁essential	-11.9628
▁instituto	-11.9628
▁poesía	-11.9628
▁turkish	-11.9628
醉	-11.9628
▁automóvil	-11.9628
▁contraseña	-11.9628
▁dibujo	-11.9628
▁hambriento	-11.9628
▁traductor	-11.9628
简单	-11.9628
▁berlín	-11.9628
▁conoció	-11.9628
▁instrucciones	-11.9628
▁uñas	-11.9628
巴黎	-11.9628
sayib	-11.9628
cierre	-11.9628
▁sensible	-11.9628
▁yield	-11.9628
▁testigo	-11.9628
▁tesoro	-11.9628
忘记	-11.9628
▁pierda	-11.9628
▁boast	-11.9628
▁envió	-11.9628
▁turista	-11.9628
▁float	-11.9628
▁podamos	-11.9629
▁pecado	-11.9629
▁gemelo	-11.9629
▁congela	-11.9629
▁odd	-11.9629
▁complicado	-11.963
▁pecho	-11.963
京都	-11.9631
汤姆说他	-11.9631
這裏	-11.9631
▁pillow	-11.9631
▁seguida	-11.9632
recientemente	-11.9632
▁sixty	-11.9633
▁enfadada	-11.9633
▁3334	-11.9634
▁traditional	-11.9635
16906	-11.9636
68259	-11.9639
▁retired	-11.9639
israel	-11.964
▁removed	-11.964
94534	-11.964
▁15464	-11.9643
11838	-11.9643
fold	-11.9644
▁mask	-11.9646
▁compartir	-11.9647
12070	-11.9647
能力	-11.9648
▁13862	-11.9649
什么都	-11.9649
uela	-11.9653
▁acting	-11.9653
▁14340	-11.9654
10937	-11.9657
▁staring	-11.9658
ólogo	-11.966
16111	-11.966
21111	-11.966
▁lips	-11.9661
▁jugadores	-11.9662
18664	-11.9663
▁olvide	-11.9663
▁pig	-11.9664
▁24692	-11.9664
▁serán	-11.9667
▁ríe	-11.9671
▁dudas	-11.9672
▁12477	-11.9673
▁14080	-11.9673
21827	-11.9674
▁european	-11.9674
▁hoja	-11.9676
親	-11.9676
▁12054	-11.9677
▁ancho	-11.9681
list	-11.9683
vuel	-11.9686
一張	-11.969
多了	-11.969
母	-11.9693
manten	-11.9695
15247	-11.9696
explor	-11.9698
▁estén	-11.9702
20315	-11.9705
▁casados	-11.9715
▁recuperar	-11.9715
break	-11.9716
▁8504	-11.9717
black	-11.9718
primero	-11.9718
17374	-11.9722
▁21020	-11.9725
10238	-11.9726
compren	-11.9727
▁haberle	-11.9728
«¡	-11.9733
81608	-11.9733
elige	-11.9738
10372	-11.9739
▁10030	-11.9745
saben	-11.9746
▁representa	-11.975
▁querían	-11.9759
▁ocupar	-11.9759
▁speakers	-11.9762
▁17135	-11.9767
urge	-11.977
▁callado	-11.9771
过去	-11.9779
讀書	-11.9786
许	-11.9787
▁litera	-11.979
▁lovely	-11.979
16251	-11.979
▁8661	-11.9791
carbon	-11.9794
▁siesta	-11.9794
告	-11.9794
結	-11.9794
胜	-11.9795
左	-11.9795
罪	-11.9795
显	-11.9795
草	-11.9795
▁vehículo	-11.9795
遊	-11.9795
▁herramienta	-11.9795
▁mariposa	-11.9795
▁mascota	-11.9795
打網球	-11.9795
lástima	-11.9795
virtue	-11.9795
▁agarró	-11.9795
▁ceiling	-11.9795
▁creature	-11.9795
▁curiosidad	-11.9795
▁gritó	-11.9795
▁hawaii	-11.9795
▁instructions	-11.9795
▁quarrel	-11.9795
觀	-11.9795
▁lectura	-11.9795
▁mexican	-11.9795
▁pantalla	-11.9795
empuj	-11.9795
▁princesa	-11.9795
解释	-11.9795
解决	-11.9795
▁pudimos	-11.9795
▁líder	-11.9795
不好意思	-11.9795
景	-11.9795
▁asesino	-11.9795
春天	-11.9795
▁trece	-11.9795
▁reconocer	-11.9795
▁temper	-11.9795
▁hesitate	-11.9795
▁claus	-11.9795
viniste	-11.9795
▁govern	-11.9795
▁risa	-11.9795
▁deshacer	-11.9795
10960	-11.9796
日语	-11.9796
22371	-11.9797
▁avergonzado	-11.9797
corté	-11.9797
▁difficulties	-11.9797
▁administra	-11.9797
▁pushed	-11.9797
déje	-11.9798
▁charming	-11.9798
▁partida	-11.98
留下	-11.98
▁10685	-11.98
▁8100	-11.9802
▁intentado	-11.9803
claramente	-11.9804
▁77719	-11.9805
打了	-11.9805
上有	-11.9807
▁79368	-11.9808
孩子们	-11.9808
▁51477	-11.9808
▁worker	-11.981
acid	-11.9811
▁4625	-11.9814
▁coloc	-11.9814
▁controlar	-11.9819
▁44633	-11.9819
▁94624	-11.982
▁monkey	-11.9823
▁9748	-11.9825
第二	-11.9827
▁sepas	-11.9828
▁digan	-11.983
ética	-11.9831
▁tablero	-11.9832
▁utilizar	-11.9834
▁8865	-11.9842
▁fantasma	-11.9844
▁banana	-11.9844
▁3535	-11.9849
52289	-11.9851
▁12537	-11.9854
▁modelo	-11.9854
wan	-11.9854
19348	-11.9856
55733	-11.9859
高兴	-11.9859
born	-11.986
▁esperado	-11.9862
▁13557	-11.9863
▁35627	-11.9864
▁18987	-11.9866
▁102814	-11.9867
用的	-11.9868
▁horn	-11.9869
▁23515	-11.9869
▁posee	-11.9869
ática	-11.9872
▁35628	-11.9872
散步	-11.9873
12085	-11.9879
13867	-11.9879
91892	-11.9879
bé	-11.9881
▁12310	-11.9881
▁aprendió	-11.9884
safortunadamente	-11.9888
22474	-11.9891
11726	-11.9893
看见	-11.9893
▁8013	-11.9896
我們在	-11.9899
▁buses	-11.9901
必要	-11.9904
就会	-11.9906
来说	-11.991
13722	-11.991
habrá	-11.9911
▁engañar	-11.9912
18552	-11.9912
ización	-11.9912
103672	-11.9916
book	-11.9919
▁16690	-11.9921
nzó	-11.9921
這種	-11.9922
20118	-11.9923
11965	-11.9924
▁3333	-11.9925
▁12484	-11.993
▁escala	-11.9938
的時間	-11.9938
不必	-11.9946
18956	-11.9947
▁piezas	-11.9947
marte	-11.9949
▁ángel	-11.9949
▁bola	-11.9953
▁whi	-11.9953
快樂	-11.9954
▁decirlo	-11.9955
▁block	-11.9958
▁20154	-11.996
你想要	-11.9962
biste	-11.9962
▁profunda	-11.9962
独	-11.9964
至	-11.9964
奶	-11.9964
詞	-11.9964
降	-11.9964
据	-11.9964
楼	-11.9964
爲	-11.9964
暖	-11.9964
樓	-11.9964
湖	-11.9964
scientific	-11.9964
▁blanket	-11.9964
▁families	-11.9964
▁helicopter	-11.9964
▁scolded	-11.9964
▁stubborn	-11.9964
▁valuable	-11.9964
▁disparó	-11.9964
▁efectivo	-11.9964
▁explosion	-11.9964
▁sensitive	-11.9964
倫敦	-11.9964
▁aumento	-11.9964
▁mintió	-11.9964
抱怨	-11.9964
预	-11.9964
激	-11.9964
▁policy	-11.9964
▁licencia	-11.9964
愿意	-11.9964
▁inglesa	-11.9964
▁salvaje	-11.9964
▁parecido	-11.9964
萬	-11.9964
▁garage	-11.9964
▁desapareció	-11.9964
▁escenario	-11.9965
▁ballena	-11.9965
▁selfish	-11.9965
vuelvo	-11.9965
▁boots	-11.9965
▁nightmare	-11.9965
多少錢	-11.9965
▁romantic	-11.9965
▁sunny	-11.9966
recién	-11.9966
▁ease	-11.9966
▁tigre	-11.9966
▁nerve	-11.9967
看電視	-11.9968
▁3386	-11.9968
▁11676	-11.9973
▁preparing	-11.9976
由于	-11.9976
▁17715	-11.9977
什麼時候	-11.9978
13658	-11.9979
▁llevará	-11.9981
▁alike	-11.9983
▁concentrate	-11.9983
一把	-11.9989
79322	-11.999
記得	-11.9992
▁100314	-11.9993
encontrarás	-11.9993
▁renunciar	-11.9998
想知道	-11.9998
▁comas	-12
▁estable	-12.0001
給了	-12.0006
17416	-12.0008
▁101247	-12.0008
候	-12.0016
103671	-12.0021
27136	-12.0021
68774	-12.0022
101215	-12.0024
▁lleve	-12.0025
miré	-12.0026
▁8261	-12.0031
▁12142	-12.0032
14792	-12.0032
▁acto	-12.0033
來的	-12.0033
▁manga	-12.0035
如果我	-12.0036
19918	-12.0039
▁3484	-12.004
▁dreaming	-12.0043
▁8554	-12.0046
▁dragon	-12.0047
▁cuid	-12.0047
▁11108	-12.0049
▁turning	-12.005
15175	-12.0051
11296	-12.0051
都会	-12.0053
17457	-12.0053
▁necesitar	-12.0055
professional	-12.0056
▁103523	-12.0057
▁4997	-12.0058
estuvieron	-12.0058
▁8587	-12.0058
分钟	-12.0061
高興	-12.0064
不再	-12.0067
ío	-12.007
▁cumpli	-12.007
▁17949	-12.0072
21872	-12.0072
▁16955	-12.0074
▁3352	-12.0074
▁45130	-12.0074
▁serpientes	-12.0076
在哪儿	-12.0078
發現	-12.0079
20334	-12.0081
一条	-12.0084
elect	-12.0086
▁5908	-12.0087
13889	-12.009
estaremos	-12.009
cumpl	-12.0092
urban	-12.0093
▁vuela	-12.0094
▁basa	-12.0094
13274	-12.0097
siguió	-12.0098
22026	-12.0099
為了	-12.01
15801	-12.01
fir	-12.0103
13495	-12.0103
和她	-12.0107
82719	-12.0107
39564	-12.0108
▁3324	-12.0112
做的事	-12.0114
aprovech	-12.0118
study	-12.0121
murió	-12.0122
▁achieve	-12.0123
▁korea	-12.0124
奇怪	-12.0127
plat	-12.0129
▁piedras	-12.0132
19614	-12.0133
箱	-12.0135
图	-12.0135
何	-12.0136
棒球	-12.0136
舞	-12.0136
洞	-12.0136
倍	-12.0136
线	-12.0136
烧	-12.0136
費	-12.0136
北京	-12.0137
抱	-12.0137
▁apellido	-12.0137
嘴	-12.0137
oxygen	-12.0137
▁afortunado	-12.0137
▁consequence	-12.0137
▁reputation	-12.0137
estudió	-12.0137
▁communication	-12.0137
▁elegido	-12.0137
▁levanté	-12.0137
▁narrow	-12.0137
▁principle	-12.0137
▁species	-12.0137
野	-12.0137
fifth	-12.0137
▁alfombra	-12.0137
▁consecuencia	-12.0137
▁hierro	-12.0137
▁pesadilla	-12.0137
duermo	-12.0137
▁bullet	-12.0137
▁cuadra	-12.0137
▁despedido	-12.0137
▁ingredient	-12.0137
▁priest	-12.0137
汉语	-12.0137
▁demonio	-12.0137
▁interior	-12.0137
握	-12.0137
看上去	-12.0137
▁millón	-12.0137
秘密	-12.0137
escuche	-12.0137
▁textbook	-12.0137
contamina	-12.0137
▁silly	-12.0137
éstos	-12.0137
的首都	-12.0137
▁cellphone	-12.0137
▁opina	-12.0137
交通	-12.0137
▁mejilla	-12.0137
sabéis	-12.0137
对不起	-12.0137
這條	-12.0137
▁100278	-12.0138
▁electricidad	-12.0138
▁mineral	-12.0138
▁properly	-12.0139
打開	-12.0139
直到	-12.0139
108317	-12.0139
▁divorce	-12.014
▁surface	-12.014
▁sordo	-12.014
▁astronaut	-12.014
washington	-12.0141
▁humanity	-12.0141
▁quarter	-12.0142
▁mantuvo	-12.0142
fire	-12.0142
cerra	-12.0144
汽车	-12.0145
▁independiente	-12.0146
▁45539	-12.0148
▁3433	-12.0149
▁fanta	-12.015
ssed	-12.0151
是用	-12.0151
▁15463	-12.0152
discover	-12.0153
adonde	-12.0153
▁3471	-12.0154
有空	-12.0155
vengo	-12.0157
▁pesada	-12.0157
▁estima	-12.0158
座	-12.0159
▁convenció	-12.0159
▁carrying	-12.016
cuesta	-12.0161
33274	-12.0162
▁97698	-12.0162
bebí	-12.0163
▁pasear	-12.0163
dera	-12.0167
dul	-12.0177
▁checked	-12.0177
35609	-12.0178
▁100248	-12.0178
20503	-12.0179
▁39661	-12.0181
▁fatal	-12.0184
soon	-12.0185
▁8643	-12.0186
▁amante	-12.0186
▁97066	-12.0187
▁8561	-12.0187
▁7601	-12.0194
23007	-12.0194
▁11187	-12.0195
▁trabajan	-12.0197
▁saltar	-12.0197
計劃	-12.0205
▁8464	-12.0206
find	-12.0211
▁crear	-12.0211
▁officer	-12.0214
公車	-12.0214
▁59675	-12.0215
▁100513	-12.0218
22540	-12.0219
▁páginas	-12.0219
▁8709	-12.0222
▁iría	-12.0225
▁15176	-12.0227
▁3463	-12.0227
我该	-12.0238
▁20670	-12.0241
25468	-12.0243
111809	-12.0245
▁7558	-12.0246
▁16864	-12.0247
▁quedara	-12.0256
是一	-12.0256
▁continent	-12.0256
▁5032	-12.0262
33300	-12.0265
▁7546	-12.0265
▁aparte	-12.0268
也是	-12.0268
以为	-12.0272
▁100930	-12.0276
▁abrie	-12.0277
ists	-12.0279
▁papa	-12.028
10982	-12.0285
▁vacas	-12.0285
22615	-12.0291
▁sonar	-12.0293
▁9983	-12.0298
▁13619	-12.0303
▁remove	-12.0304
mada	-12.0305
▁4694	-12.031
rito	-12.0311
試	-12.0311
獨	-12.0312
永远	-12.0312
办	-12.0312
群	-12.0312
费	-12.0312
區	-12.0312
刻	-12.0312
危险	-12.0312
换	-12.0312
賣	-12.0312
▁drowned	-12.0312
▁sunglasses	-12.0312
▁upstairs	-12.0312
麻煩	-12.0312
▁battery	-12.0312
▁circle	-12.0312
▁forecast	-12.0312
▁infierno	-12.0312
▁opponent	-12.0312
▁puzzle	-12.0312
▁traído	-12.0312
▁vídeo	-12.0312
感覺	-12.0312
搞	-12.0312
▁región	-12.0312
▁whistle	-12.0312
hebrew	-12.0312
▁stink	-12.0312
▁divertir	-12.0312
▁recurso	-12.0312
▁tanaka	-12.0312
david	-12.0312
▁tentación	-12.0312
商店	-12.0312
▁taninna	-12.0312
即使	-12.0312
seando	-12.0312
▁cima	-12.0312
▁root	-12.0313
▁podré	-12.0313
▁abril	-12.0313
▁5895	-12.0313
▁majority	-12.0313
▁apoyo	-12.0313
▁soap	-12.0313
喝酒	-12.0314
24585	-12.0314
▁published	-12.0314
▁demanded	-12.0314
▁acción	-12.0315
▁july	-12.0315
▁existence	-12.0316
birds	-12.0316
去過	-12.0317
22359	-12.0318
▁confessed	-12.0318
▁operation	-12.0319
▁unique	-12.0319
79176	-12.032
▁45538	-12.032
sonríe	-12.0321
grabb	-12.0322
llovió	-12.0323
detesto	-12.0323
▁8557	-12.0323
hatred	-12.0323
▁accomplished	-12.0323
你必须	-12.0323
cious	-12.0324
grace	-12.0327
empezó	-12.0327
▁pipe	-12.0328
▁participate	-12.033
linda	-12.033
axi	-12.0332
不是吗	-12.0333
▁100769	-12.0334
▁sentada	-12.0334
▁haremos	-12.0336
▁oldest	-12.0339
56512	-12.0339
18394	-12.034
▁85912	-12.034
98193	-12.0344
▁tranquila	-12.0347
▁13703	-12.0348
▁mancha	-12.0349
▁frontera	-12.0351
▁101062	-12.0352
▁58033	-12.0352
22483	-12.0354
的問題	-12.0357
▁101061	-12.0361
viví	-12.0361
22455	-12.0362
room	-12.0367
我只	-12.0367
17129	-12.0368
12761	-12.0371
pasó	-12.0372
hol	-12.0374
▁100512	-12.0375
12095	-12.0375
▁100213	-12.0376
▁desgracia	-12.0377
我一直	-12.0377
10282	-12.038
▁16836	-12.0384
▁79175	-12.0386
好吗	-12.0388
▁23145	-12.0388
▁16880	-12.039
▁pensamientos	-12.0391
▁17159	-12.0391
uck	-12.0393
▁10615	-12.0396
14157	-12.0397
▁include	-12.0398
▁33899	-12.0398
▁viola	-12.0398
▁3586	-12.0401
▁24669	-12.0403
▁13283	-12.0403
▁aside	-12.0404
igi	-12.0405
▁12368	-12.0406
board	-12.0406
cript	-12.0411
lapped	-12.0411
的孩子	-12.0412
▁11277	-12.0413
▁tirar	-12.0415
67313	-12.0415
22554	-12.0416
▁27114	-12.0419
▁12404	-12.0421
free	-12.0421
▁18275	-12.0423
▁8245	-12.0428
▁99629	-12.0429
▁79647	-12.043
17501	-12.0431
▁3400	-12.0431
隻	-12.0434
▁verb	-12.0435
dición	-12.0437
30604	-12.0444
68730	-12.0445
22903	-12.0447
▁trabajaba	-12.0448
▁distri	-12.0456
cocin	-12.0458
▁borde	-12.0459
▁61194	-12.0459
▁mudar	-12.0462
▁8593	-12.0462
16479	-12.0464
▁3603	-12.0466
累了	-12.047
decí	-12.0471
10939	-12.0474
句	-12.0475
▁8312	-12.0475
bye	-12.0475
▁dificultad	-12.0476
你需要	-12.0477
berg	-12.0478
▁volume	-12.0478
▁acciones	-12.0479
▁clic	-12.0479
▁habilidad	-12.0482
▁3336	-12.0483
功	-12.049
展	-12.049
堂	-12.049
影	-12.049
業	-12.049
充	-12.049
北	-12.049
松	-12.049
志	-12.049
▁ingenuo	-12.0491
羅	-12.0491
舉	-12.0491
初	-12.0491
养	-12.0491
▁almohada	-12.0491
jesús	-12.0491
▁adecuado	-12.0491
▁disagree	-12.0491
▁financial	-12.0491
▁influencia	-12.0491
▁scissors	-12.0491
▁statue	-12.0491
▁typical	-12.0491
▁aburrida	-12.0491
▁archivo	-12.0491
▁camiseta	-12.0491
▁engaged	-12.0491
▁prisionero	-12.0491
▁distinto	-12.0491
▁entienda	-12.0491
▁volviendo	-12.0491
失败	-12.0491
族	-12.0491
worm	-12.0491
差不多	-12.0491
仍然	-12.0491
便宜	-12.0491
huyó	-12.0491
▁logró	-12.0491
▁crema	-12.0491
▁esperó	-12.0491
▁rendir	-12.0491
▁empeora	-12.0491
▁monster	-12.0491
礼物	-12.0491
▁visible	-12.0491
▁development	-12.0491
科学	-12.0491
▁ingreso	-12.0492
数学	-12.0492
▁pagó	-12.0492
▁expression	-12.0492
見過	-12.0493
▁16869	-12.0493
▁7217	-12.0495
82797	-12.0495
▁cheated	-12.0496
有點	-12.0497
production	-12.0497
▁decepcionado	-12.0497
▁title	-12.0497
▁beans	-12.0497
▁loudly	-12.0498
▁actions	-12.0498
▁eleva	-12.0498
apuesto	-12.0499
actualmente	-12.05
▁entirely	-12.0501
▁taxes	-12.0503
lick	-12.0503
▁condición	-12.0504
说了	-12.0505
11540	-12.0506
▁4658	-12.0507
▁56249	-12.0507
rita	-12.0508
▁98589	-12.0508
▁realizar	-12.0508
都會	-12.0509
▁intentarlo	-12.051
51475	-12.0511
▁patin	-12.0513
talk	-12.0513
sistió	-12.0516
念	-12.0517
▁earns	-12.0517
industrial	-12.0521
18977	-12.0522
▁dejaré	-12.0522
▁caza	-12.0526
▁3982	-12.0527
▁apologized	-12.0528
▁9762	-12.0528
▁79741	-12.0528
lógico	-12.053
11103	-12.0536
▁mantiene	-12.0538
我住在	-12.0538
▁enfermedades	-12.0539
españa	-12.0539
winter	-12.054
ayuda	-12.0542
▁17268	-12.0542
▁66824	-12.0543
27119	-12.0547
遇	-12.0548
快乐	-12.0548
▁former	-12.0548
▁alert	-12.055
▁arc	-12.0551
94085	-12.0552
▁soldier	-12.0553
científicos	-12.0556
一百	-12.0558
ery	-12.0558
▁70152	-12.0559
▁28952	-12.056
▁superar	-12.056
▁45060	-12.0567
▁participar	-12.0573
helen	-12.0573
我完全	-12.0578
11605	-12.0581
▁100910	-12.0582
20648	-12.0583
▁77817	-12.0585
▁16063	-12.0587
▁essay	-12.0587
▁15514	-12.0587
▁8515	-12.0591
▁directo	-12.0592
▁17459	-12.0592
▁twins	-12.0593
▁8547	-12.0599
alex	-12.0601
visité	-12.0601
第	-12.0609
22530	-12.061
▁16956	-12.0611
98556	-12.0611
最好	-12.0612
▁15351	-12.0614
22404	-12.0617
22028	-12.0618
哭了	-12.0619
round	-12.0621
一步	-12.0622
traiga	-12.0632
save	-12.0635
妹妹	-12.0635
我被	-12.0639
97257	-12.0639
▁12583	-12.0649
68269	-12.065
▁pianist	-12.065
能够	-12.0651
▁devolver	-12.0651
22029	-12.0653
▁15629	-12.0658
▁dijera	-12.0659
▁crash	-12.0664
cito	-12.0665
▁reconoci	-12.0666
▁cómoda	-12.0666
让你	-12.067
▁43510	-12.067
▁3436	-12.0671
18909	-12.0672
根	-12.0672
恐	-12.0672
政治	-12.0672
右	-12.0672
吹	-12.0672
罗	-12.0672
cállate	-12.0672
黄	-12.0672
▁benefit	-12.0672
▁espacial	-12.0672
▁gigante	-12.0672
▁guarantee	-12.0672
▁perfume	-12.0672
▁resources	-12.0672
▁término	-12.0672
▁confident	-12.0672
▁pañuelo	-12.0672
▁plástico	-12.0672
继续	-12.0672
贵	-12.0672
關係	-12.0672
▁petróleo	-12.0672
▁hammer	-12.0672
▁profesional	-12.0672
▁therefore	-12.0672
▁zoológico	-12.0673
▁giant	-12.0673
▁causó	-12.0673
地址	-12.0673
▁guantes	-12.0673
日元	-12.0673
▁flota	-12.0673
▁crack	-12.0673
cycle	-12.0673
怎麼樣	-12.0673
▁molesto	-12.0673
箱子	-12.0674
▁remark	-12.0674
▁zumo	-12.0675
pása	-12.0675
▁orbit	-12.0676
▁passion	-12.0676
flour	-12.0678
不太	-12.068
▁3348	-12.0682
▁hire	-12.0684
▁21774	-12.0684
▁products	-12.0685
家人	-12.0685
▁alimentos	-12.0686
10925	-12.0689
错了	-12.069
▁intended	-12.0691
▁57694	-12.0692
有钱	-12.0692
她們	-12.0692
▁94438	-12.0695
▁poemas	-12.0696
22493	-12.0697
▁ringing	-12.0698
18978	-12.0698
▁practical	-12.0698
的问题	-12.0699
▁5142	-12.07
▁12779	-12.0702
gana	-12.0702
▁65698	-12.0703
uu	-12.0705
▁hueso	-12.0706
▁66864	-12.071
▁juegan	-12.0711
▁arregl	-12.0712
▁102116	-12.0712
▁pagado	-12.0714
11412	-12.0716
▁100247	-12.0716
bit	-12.0723
toria	-12.0726
▁lastimar	-12.0733
▁serpiente	-12.0737
▁comentario	-12.0737
▁43180	-12.0739
22549	-12.075
20025	-12.075
▁customers	-12.075
modern	-12.0753
▁foreigner	-12.0753
wood	-12.0754
▁tied	-12.0754
得多	-12.0754
juega	-12.0755
admit	-12.0758
australia	-12.076
可是	-12.0762
▁100825	-12.0764
102784	-12.0766
▁20452	-12.0769
▁16491	-12.0774
15865	-12.0776
▁witness	-12.0777
▁100931	-12.0788
16557	-12.079
gin	-12.0792
36361	-12.0792
▁3602	-12.0795
19616	-12.0797
在日本	-12.08
lina	-12.0801
▁err	-12.0805
▁14063	-12.0806
▁13219	-12.0807
12655	-12.0808
18604	-12.081
▁11373	-12.0813
我真的	-12.0814
▁101112	-12.0816
11483	-12.0816
▁12034	-12.082
11408	-12.0827
▁luce	-12.0833
▁100932	-12.0834
▁24693	-12.0834
▁8652	-12.0835
你今天	-12.0836
21828	-12.0839
▁20845	-12.0841
▁engaña	-12.0841
14175	-12.0843
10387	-12.0844
▁retire	-12.0845
▁disappear	-12.0845
▁28951	-12.085
25496	-12.085
16992	-12.0852
▁multipl	-12.0853
80055	-12.0855
knock	-12.0855
pase	-12.0856
▁obvio	-12.0857
礼	-12.0857
注	-12.0857
希	-12.0857
传	-12.0857
infect	-12.0857
牌	-12.0857
啦	-12.0857
却	-12.0857
恶	-12.0858
童	-12.0858
▁adolescente	-12.0858
判	-12.0858
▁embassy	-12.0858
▁luggage	-12.0858
▁positive	-12.0858
obviamente	-12.0858
▁baloncesto	-12.0858
▁cottage	-12.0858
▁infantil	-12.0858
▁lámpara	-12.0858
▁símbolo	-12.0858
▁ocurrido	-12.0858
100312	-12.0858
▁comunidad	-12.0858
▁disaster	-12.0858
▁gasolina	-12.0858
▁suéter	-12.0858
▁crush	-12.0858
▁presencia	-12.0858
丈夫	-12.0858
▁escondido	-12.0858
▁lottery	-12.0858
▁spoil	-12.0858
忍受	-12.0858
▁envy	-12.0858
▁bloque	-12.0858
▁collection	-12.0858
▁locura	-12.0858
▁batería	-12.0858
▁witch	-12.0858
無論	-12.0858
▁expense	-12.0858
esperé	-12.0858
▁arriving	-12.0858
▁constantly	-12.0858
18862	-12.0858
作业	-12.0858
▁beginner	-12.0858
dicó	-12.0859
▁nations	-12.0859
▁warning	-12.086
▁pobreza	-12.086
▁gorda	-12.0861
▁incómodo	-12.0861
几点	-12.0861
▁45540	-12.0862
这是我的	-12.0863
▁criticize	-12.0866
▁14083	-12.0866
lightning	-12.0869
▁trabajador	-12.0869
laughter	-12.087
▁vivi	-12.0871
我不太	-12.0872
▁43923	-12.0873
zero	-12.0873
▁riding	-12.0873
101361	-12.0874
▁13883	-12.0875
▁load	-12.0875
一條	-12.0877
▁obligado	-12.0879
comprendo	-12.0885
hunting	-12.0887
▁instant	-12.0889
▁track	-12.089
▁aguantar	-12.0891
▁dejaron	-12.0892
▁rayo	-12.0893
▁trade	-12.0895
▁llamando	-12.0896
▁102333	-12.0898
▁65493	-12.0899
▁15096	-12.0905
marie	-12.0907
toca	-12.0909
▁estudiado	-12.0911
▁decent	-12.0914
▁cord	-12.0915
▁45572	-12.0916
▁14194	-12.0918
▁12520	-12.0919
12099	-12.0922
10295	-12.0925
一份	-12.0928
11708	-12.0929
▁ahorrar	-12.0931
18396	-12.0931
25470	-12.0934
post	-12.0938
▁estacion	-12.0939
我都	-12.0942
▁hoped	-12.0947
▁eva	-12.0947
▁vernos	-12.0948
▁8454	-12.0948
▁44826	-12.0949
▁12863	-12.0952
ologist	-12.0954
20130	-12.0955
▁13877	-12.0958
29155	-12.096
draw	-12.0961
所以我	-12.0965
10959	-12.0968
22529	-12.0972
aprender	-12.0972
25484	-12.0974
nature	-12.0977
说英语	-12.0977
bajo	-12.0978
sigues	-12.0979
founded	-12.0979
half	-12.0981
esperanto	-12.0981
answer	-12.0982
believe	-12.0982
▁105186	-12.0983
fumar	-12.0985
你什么时候	-12.0986
碰	-12.0991
dito	-12.0991
97062	-12.0992
11864	-12.0996
took	-12.1003
我無法	-12.1003
▁10669	-12.1006
▁prop	-12.1011
move	-12.1012
忘	-12.1018
錯了	-12.102
25490	-12.1032
19438	-12.1034
▁persuade	-12.1034
51474	-12.1035
22836	-12.1037
65691	-12.1038
▁scream	-12.1039
▁capa	-12.1041
他們的	-12.1041
成的	-12.1042
▁11791	-12.1043
▁12143	-12.1045
35796	-12.1045
▁differ	-12.1046
▁egypt	-12.1046
▁conclu	-12.1046
漫	-12.1046
烟	-12.1046
战争	-12.1046
塔	-12.1046
腿	-12.1046
考虑	-12.1046
▁adventure	-12.1046
▁extraordinari	-12.1046
▁principiante	-12.1046
啥	-12.1046
笔	-12.1046
蘭	-12.1046
▁aliento	-12.1046
▁británico	-12.1046
▁corriente	-12.1046
▁divertida	-12.1046
▁filosofía	-12.1046
▁temporada	-12.1046
聞	-12.1046
february	-12.1046
▁deliciosa	-12.1046
▁glance	-12.1046
▁impaciente	-12.1046
▁insurance	-12.1046
頂	-12.1046
▁dutch	-12.1046
▁invisible	-12.1046
▁security	-12.1046
▁unfair	-12.1046
terminé	-12.1046
▁privado	-12.1046
每個人都	-12.1046
▁impresión	-12.1046
▁esquiar	-12.1046
▁spoon	-12.1046
▁contener	-12.1046
建議	-12.1046
公園	-12.1046
▁origen	-12.1046
julia	-12.1047
身体	-12.1047
▁grandma	-12.1047
女兒	-12.1047
▁purse	-12.1047
?”“	-12.1047
多少钱	-12.1047
▁expresión	-12.1047
▁daba	-12.1048
▁invention	-12.1048
▁scale	-12.1048
pablo	-12.1048
以為	-12.1049
▁painful	-12.1049
▁nearby	-12.1049
▁retrasa	-12.105
▁quedará	-12.1051
來自	-12.1051
▁frozen	-12.1051
▁65590	-12.1052
▁cloudy	-12.1052
▁5030	-12.1052
saque	-12.1053
上海	-12.1054
30244	-12.1054
▁56683	-12.1055
pate	-12.1056
pedro	-12.1056
大學	-12.1057
ability	-12.1057
▁dating	-12.1058
▁13865	-12.1059
▁tonta	-12.1059
▁19399	-12.1059
▁caído	-12.1059
▁109113	-12.1063
▁chosen	-12.1064
这家	-12.1064
wang	-12.1065
我无法	-12.1065
錯誤	-12.1069
▁7433	-12.107
▁16868	-12.1073
▁cero	-12.1074
▁cantó	-12.1075
▁20155	-12.1075
▁cage	-12.1078
prometo	-12.1078
▁micro	-12.108
▁clav	-12.1085
▁leak	-12.1087
105403	-12.1089
▁7984	-12.1089
▁pongas	-12.109
▁94230	-12.1091
▁uniforme	-12.1093
今天下午	-12.1093
▁3398	-12.1095
aquella	-12.1096
aleja	-12.1099
conseguí	-12.1101
▁5364	-12.1102
▁greater	-12.1102
▁panda	-12.1104
▁5941	-12.1109
的男人	-12.1109
▁13076	-12.1111
▁79178	-12.1116
▁33900	-12.1117
▁17078	-12.1122
▁limpi	-12.1123
▁9709	-12.1124
▁ram	-12.1127
100400	-12.1127
▁45578	-12.113
▁3391	-12.1131
▁mango	-12.1132
22932	-12.1134
▁16665	-12.1135
說得	-12.1137
▁13973	-12.1137
23774	-12.1138
▁100249	-12.1138
▁constitu	-12.1142
▁14341	-12.1142
18684	-12.1143
veamos	-12.1144
▁pasan	-12.1145
91890	-12.1148
的狗	-12.115
▁13948	-12.1158
▁13659	-12.1162
98145	-12.1163
18775	-12.1164
▁24544	-12.1165
城	-12.1165
▁19011	-12.1166
steis	-12.1168
21075	-12.117
▁marchar	-12.1171
cheer	-12.1174
23728	-12.1179
▁bananas	-12.1183
▁16841	-12.1183
97412	-12.1185
darse	-12.1191
viv	-12.1202
第一次	-12.1205
dijeron	-12.1206
(	-12.1207
▁unusual	-12.121
great	-12.1211
91766	-12.1214
▁3562	-12.1223
▁strict	-12.1225
▁verle	-12.1226
14767	-12.1232
down	-12.1233
那裡	-12.1235
▁recent	-12.1235
▁11787	-12.1235
18395	-12.1237
▁declara	-12.1238
结	-12.1238
封	-12.1238
系	-12.1238
集	-12.1238
運	-12.1238
纸	-12.1238
換	-12.1238
熟	-12.1238
紧	-12.1238
呆	-12.1238
搬	-12.1239
轉	-12.1239
燒	-12.1239
+	-12.1239
▁espectáculo	-12.1239
asegúrate	-12.1239
cuéntame	-12.1239
▁abducted	-12.1239
▁brief	-12.1239
▁chemical	-12.1239
▁circumstances	-12.1239
▁eléctrica	-12.1239
▁enamoró	-12.1239
▁frightened	-12.1239
▁garbage	-12.1239
▁handwriting	-12.1239
▁harvest	-12.1239
▁judío	-12.1239
▁struck	-12.1239
模	-12.1239
澳大利亚	-12.1239
agradezco	-12.1239
▁carácter	-12.1239
▁fruto	-12.1239
▁furious	-12.1239
▁junk	-12.1239
▁príncipe	-12.1239
▁retraso	-12.1239
▁twist	-12.1239
恨	-12.1239
鳥	-12.1239
▁diamante	-12.1239
▁envidia	-12.1239
▁ignorancia	-12.1239
款	-12.1239
▁digital	-12.1239
▁puntual	-12.1239
▁razonable	-12.1239
醫院	-12.1239
傳	-12.1239
▁shining	-12.1239
▁creó	-12.1239
▁magnet	-12.1239
▁album	-12.1239
结果	-12.1239
▁organization	-12.1239
▁trapped	-12.1239
▁dawn	-12.1239
是一名	-12.1239
▁calenta	-12.1239
evit	-12.1239
▁soltero	-12.124
▁bombero	-12.124
生氣	-12.124
手机	-12.124
▁collecting	-12.124
▁scary	-12.1241
▁existencia	-12.1241
水果	-12.1241
▁personality	-12.1241
這兒	-12.1242
▁respirar	-12.1242
▁pura	-12.1243
▁billion	-12.1243
▁grados	-12.1243
▁disparar	-12.1243
estará	-12.1244
请你	-12.1244
▁flame	-12.1245
▁regularly	-12.1246
aza	-12.1246
hablemos	-12.1247
▁21548	-12.1247
▁librería	-12.1248
▁guía	-12.1248
▁reasonable	-12.1249
employed	-12.125
▁12966	-12.1251
▁venden	-12.1252
▁reino	-12.1256
▁condenado	-12.1256
▁wounded	-12.1258
six	-12.1259
ker	-12.1259
celebr	-12.126
改变	-12.1262
▁37912	-12.1262
▁21306	-12.1263
▁119358	-12.1265
21631	-12.1265
▁66825	-12.1266
▁claims	-12.1267
clear	-12.1268
▁absurdo	-12.1268
easter	-12.127
他喜歡	-12.1273
▁sacrifice	-12.1273
37861	-12.1274
▁82157	-12.1277
▁watches	-12.1278
間	-12.1281
besides	-12.1287
听说	-12.129
▁spider	-12.129
ramos	-12.1291
▁spare	-12.1291
63931	-12.1295
22664	-12.1298
23006	-12.1299
chin	-12.1301
▁45577	-12.1303
▁escapa	-12.1303
▁68749	-12.1303
我必须	-12.1303
20121	-12.1304
▁grano	-12.1304
▁killing	-12.1304
20320	-12.1306
15802	-12.1306
說的	-12.131
16492	-12.1313
24512	-12.1314
▁shoe	-12.1315
▁14968	-12.1315
▁manners	-12.1318
还有	-12.1318
▁cliente	-12.1319
seguí	-12.1321
68065	-12.1322
▁13295	-12.1323
▁firmar	-12.1328
▁postre	-12.1329
presum	-12.1331
▁19999	-12.1331
▁45056	-12.1333
10643	-12.1334
98494	-12.1335
好好	-12.1336
▁99631	-12.1336
▁12352	-12.1338
adoro	-12.134
15819	-12.1341
還沒	-12.1342
▁12331	-12.1344
▁budge	-12.1344
12304	-12.1344
▁venía	-12.135
很重要	-12.1352
critic	-12.1353
▁50037	-12.1354
▁14695	-12.1355
comparti	-12.1356
▁8627	-12.1363
25485	-12.1363
岁了	-12.1365
fraud	-12.1366
▁12140	-12.1367
▁salón	-12.137
»	-12.1372
▁reporte	-12.1373
102750	-12.1374
不去	-12.1375
▁solid	-12.1376
▁boxes	-12.1379
grita	-12.138
▁12350	-12.1389
▁13056	-12.1389
magn	-12.1391
constant	-12.1392
101138	-12.1392
23896	-12.1397
▁13661	-12.1399
在那裡	-12.14
▁instante	-12.1401
▁moderna	-12.1402
10951	-12.1403
▁viera	-12.1404
pasaron	-12.1408
有三	-12.1411
matemática	-12.1416
word	-12.1419
12479	-12.1423
cierto	-12.1425
56791	-12.1432
值	-12.1433
社	-12.1434
hood	-12.1434
早餐	-12.1434
典	-12.1434
思	-12.1434
考	-12.1434
▁champion	-12.1434
馆	-12.1435
暴	-12.1435
历史	-12.1435
播	-12.1435
青	-12.1435
减	-12.1435
欢迎	-12.1435
毫	-12.1435
温	-12.1435
簡單	-12.1435
halloween	-12.1435
▁semejante	-12.1435
伯	-12.1435
圖	-12.1435
感谢	-12.1435
julio	-12.1435
vietnam	-12.1435
▁inferior	-12.1435
▁peanut	-12.1435
▁química	-12.1435
专	-12.1435
▁creyó	-12.1435
▁memories	-12.1435
▁nevando	-12.1435
刷	-12.1435
▁aventura	-12.1435
▁impidió	-12.1435
防	-12.1435
網	-12.1435
舒服	-12.1435
左右	-12.1435
疯	-12.1435
▁silk	-12.1435
▁celoso	-12.1435
忘記	-12.1435
既	-12.1435
医院	-12.1435
停止	-12.1435
▁ladder	-12.1435
运动	-12.1435
德国	-12.1435
▁brake	-12.1435
女儿	-12.1435
晚飯	-12.1435
▁construction	-12.1435
文化	-12.1435
自由	-12.1435
▁nieto	-12.1436
▁dial	-12.1437
armenia	-12.1437
▁ministro	-12.1437
外面	-12.1437
哪个	-12.1437
▁vieron	-12.1438
▁gym	-12.1438
wind	-12.144
point	-12.1441
dream	-12.1441
37017	-12.1442
suiza	-12.1442
▁gathered	-12.1442
▁fairly	-12.1443
▁12965	-12.1445
▁55664	-12.1445
▁barking	-12.1445
▁ocurra	-12.1446
▁56488	-12.1446
19692	-12.1447
▁18553	-12.1453
▁45545	-12.1454
▁separated	-12.1454
▁57485	-12.1458
20338	-12.1461
comúnmente	-12.1461
▁regañ	-12.1462
complet	-12.147
▁llamaba	-12.1471
range	-12.1472
▁creado	-12.1473
▁levantado	-12.1475
▁11384	-12.1477
sistencia	-12.1478
101343	-12.1479
▁8324	-12.1482
▁piloto	-12.1484
odia	-12.1486
año	-12.1486
▁thanked	-12.1487
有趣的	-12.1488
▁98169	-12.1493
▁13699	-12.1496
marina	-12.1499
68742	-12.15
15161	-12.1504
▁experienced	-12.1504
▁13306	-12.1505
▁42673	-12.1506
▁11029	-12.1507
▁series	-12.1509
▁21701	-12.151
▁12394	-12.1512
▁stamp	-12.1514
▁27898	-12.1515
▁alumno	-12.1515
▁visitado	-12.1515
▁11788	-12.1516
25435	-12.1517
▁electro	-12.1518
见到	-12.152
mount	-12.1529
▁formal	-12.1529
▁bore	-12.153
▁adultos	-12.1532
▁13878	-12.1533
▁15022	-12.1535
▁17174	-12.1538
▁12519	-12.1542
整天	-12.1543
hanging	-12.1543
▁20153	-12.1549
55767	-12.1551
很喜歡	-12.1551
▁13130	-12.1556
回到	-12.1559
▁8603	-12.1564
65838	-12.1567
▁14668	-12.157
▁asegur	-12.1571
说得	-12.1572
迟到	-12.1573
stir	-12.1574
spiders	-12.1581
57053	-12.1583
▁aliment	-12.1587
▁defeat	-12.1587
86686	-12.1588
▁11359	-12.1589
▁28578	-12.1589
▁11727	-12.1591
viven	-12.1594
16335	-12.1596
azo	-12.1597
小時	-12.1599
▁quedaba	-12.1601
▁probado	-12.1604
▁12564	-12.1608
剛	-12.161
▁cloth	-12.1613
employee	-12.1616
▁oeste	-12.1616
輛	-12.1616
▁beside	-12.162
17137	-12.1621
▁approve	-12.1622
▁arriesga	-12.1629
读书	-12.1632
▁juzg	-12.1634
frank	-12.1634
▁14101	-12.1634
商	-12.1634
移	-12.1635
甚至	-12.1635
塞	-12.1635
素	-12.1635
酸	-12.1635
▁sabiduría	-12.1635
猜	-12.1635
▁actriz	-12.1635
▁conocida	-12.1635
▁distinta	-12.1635
▁húngaro	-12.1635
▁apetece	-12.1635
▁britain	-12.1635
▁ceremony	-12.1635
▁juegue	-12.1635
▁possess	-12.1635
▁rechazó	-12.1635
▁violín	-12.1635
似	-12.1635
▁orphan	-12.1635
▁sesenta	-12.1635
belief	-12.1635
良	-12.1635
seguimos	-12.1635
遗	-12.1635
perdieron	-12.1635
报纸	-12.1635
▁aprendiste	-12.1635
承认	-12.1635
▁barata	-12.1635
▁bookstore	-12.1635
巴士	-12.1635
▁tejado	-12.1635
▁campana	-12.1635
▁ocasion	-12.1635
▁composition	-12.1635
▁coach	-12.1635
▁tontería	-12.1635
相機	-12.1635
pidiendo	-12.1635
代表	-12.1635
visitors	-12.1635
install	-12.1635
▁17026	-12.1636
▁reunir	-12.1636
上帝	-12.1636
鞋子	-12.1637
▁claimed	-12.1637
▁pongo	-12.1637
▁manifest	-12.1637
這個問題	-12.1637
ministr	-12.1637
▁fucking	-12.1638
▁swam	-12.1638
fal	-12.1638
▁comiste	-12.1638
agarra	-12.1641
▁67604	-12.1642
esperemos	-12.1642
▁mojado	-12.1643
▁funcionar	-12.1644
▁10616	-12.1648
▁jugaba	-12.1648
▁mice	-12.1649
joe	-12.1649
0.000	-12.1649
45566	-12.165
22668	-12.1651
tile	-12.1651
▁refugi	-12.1651
你觉得	-12.1651
▁suffered	-12.1651
▁44265	-12.1652
▁quietly	-12.1653
▁43887	-12.1653
▁canceled	-12.1654
▁101408	-12.1654
▁abuse	-12.1656
▁revela	-12.1656
97413	-12.1656
▁planted	-12.1661
▁14932	-12.1661
94322	-12.1663
▁levantarme	-12.1664
▁rented	-12.1665
个小时	-12.1668
他會	-12.1669
▁pasaba	-12.167
oj	-12.1671
▁96900	-12.1672
22526	-12.1673
▁sexo	-12.1673
stó	-12.1673
limpia	-12.1674
▁103633	-12.1675
américa	-12.1675
▁misión	-12.1677
▁45544	-12.1677
wage	-12.1678
▁97042	-12.168
chinese	-12.1681
它的	-12.1682
82718	-12.1682
ninguna	-12.1683
▁shared	-12.1683
ahoga	-12.1683
paper	-12.1683
▁seco	-12.1683
▁breaking	-12.1685
▁100442	-12.1688
▁100950	-12.1689
点儿	-12.1689
82493	-12.1695
▁51299	-12.1695
10927	-12.1697
▁12393	-12.1697
▁101289	-12.1697
94959	-12.1699
我必須	-12.17
▁5403	-12.1706
cog	-12.1707
几个	-12.1714
▁50485	-12.1718
主要	-12.1723
▁code	-12.1723
22027	-12.1724
我以前	-12.1725
esperaba	-12.1726
▁16106	-12.173
▁20998	-12.1731
rezco	-12.1732
一切都	-12.1733
▁jew	-12.1733
prendió	-12.1736
▁frog	-12.1737
▁dirá	-12.1741
▁3395	-12.1744
▁weapons	-12.1752
trust	-12.1761
▁mix	-12.1761
pelled	-12.1765
▁consigue	-12.1771
▁4592	-12.1778
▁roca	-12.178
ativa	-12.1781
20427	-12.1782
94087	-12.1782
▁17211	-12.1782
▁emotion	-12.1785
lock	-12.1791
▁20421	-12.1798
▁fl	-12.1801
concentra	-12.1803
22430	-12.1805
20258	-12.1808
▁13322	-12.1808
18605	-12.1809
imagina	-12.1812
hablá	-12.1822
我要去	-12.1823
年了	-12.1825
▁13313	-12.1825
hacer	-12.1827
▁affect	-12.183
微	-12.183
▁combat	-12.1831
▁10361	-12.1831
▁abundant	-12.1831
▁gather	-12.1833
▁pusi	-12.1834
依	-12.1839
碎	-12.1839
煙	-12.1839
薩	-12.1839
計	-12.1839
含	-12.1839
▁monstruo	-12.1839
▁pública	-12.1839
craft	-12.1839
dígame	-12.1839
muéstrame	-12.1839
▁arrival	-12.1839
▁conozca	-12.1839
▁cuchara	-12.1839
▁descubierto	-12.1839
▁exterior	-12.1839
▁indispensable	-12.1839
▁solicitud	-12.1839
▁traducciones	-12.1839
▁título	-12.1839
護	-12.1839
遵守	-12.1839
▁ocasión	-12.1839
falleció	-12.1839
▁bribe	-12.1839
敏	-12.1839
版	-12.1839
比較	-12.1839
▁deposit	-12.1839
▁haircut	-12.1839
▁plain	-12.1839
跳舞	-12.1839
escribo	-12.1839
éndose	-12.1839
▁sensación	-12.1839
▁comercial	-12.1839
▁wheat	-12.1839
afterwards	-12.1839
▁turco	-12.1839
辆车	-12.1839
▁grapes	-12.1839
對不起	-12.1839
▁templo	-12.184
▁dump	-12.184
▁labios	-12.184
pagué	-12.1841
說的話	-12.1841
▁fama	-12.1843
▁slice	-12.1843
▁planned	-12.1843
oigo	-12.1844
▁55809	-12.1845
▁reward	-12.1845
偷了	-12.1845
▁construyó	-12.1845
▁developed	-12.1846
compramos	-12.1846
▁19774	-12.1846
▁delayed	-12.1846
微笑	-12.1847
stepped	-12.1847
▁echado	-12.1848
indeed	-12.1848
▁parties	-12.1849
过了	-12.1849
▁61093	-12.185
▁35649	-12.185
▁conserva	-12.1851
ania	-12.1852
▁obedecer	-12.1852
▁tomatoes	-12.1853
▁volumen	-12.1853
▁wooden	-12.1857
▁sujeto	-12.186
▁bend	-12.186
▁slu	-12.1861
▁epi	-12.1861
▁55662	-12.1861
一定要	-12.1862
其中	-12.1863
▁counter	-12.1864
▁autoridad	-12.1865
102521	-12.1865
▁48447	-12.1867
export	-12.1867
生病了	-12.1868
▁15864	-12.1868
吃完	-12.187
▁drag	-12.1871
eating	-12.1871
▁119488	-12.1871
▁toast	-12.1872
lamenta	-12.1872
▁entering	-12.1872
supe	-12.1875
你说	-12.1875
100949	-12.1876
▁17324	-12.188
我妹妹	-12.1881
17005	-12.1881
▁100315	-12.1881
▁15400	-12.1881
33302	-12.1885
不如	-12.1885
▁14100	-12.1892
▁23141	-12.1895
▁pace	-12.1896
surely	-12.1896
受到	-12.1896
▁evita	-12.1897
非常好	-12.1897
▁sociales	-12.1899
62765	-12.1899
72627	-12.1902
你真的	-12.1905
head	-12.1914
▁11985	-12.1915
▁100951	-12.1921
finally	-12.1921
acos	-12.1922
dejó	-12.1923
death	-12.1923
suena	-12.1924
boston	-12.1924
個小時	-12.1925
▁weapon	-12.1926
▁5687	-12.1927
▁añadir	-12.1927
▁pin	-12.1929
▁sorprende	-12.193
reading	-12.1931
▁considerar	-12.1931
tuviste	-12.1933
forget	-12.1934
▁sow	-12.1934
▁luchar	-12.1936
97303	-12.1936
▁yendo	-12.1941
▁botas	-12.1942
104653	-12.1943
30375	-12.1943
elephants	-12.1946
祝	-12.1947
13881	-12.1948
11782	-12.1953
17513	-12.1954
▁supo	-12.1956
desperta	-12.1959
▁opiniones	-12.1961
56365	-12.1962
看來	-12.1964
until	-12.1965
▁13054	-12.197
说的话	-12.197
▁irnos	-12.1971
cock	-12.1974
▁22485	-12.1977
▁8395	-12.1979
是由	-12.1981
james	-12.1985
最大的	-12.1987
▁quedando	-12.199
102091	-12.1991
▁practica	-12.1991
▁diera	-12.1991
▁loose	-12.1993
▁22563	-12.1996
86924	-12.2
22531	-12.2001
13158	-12.2004
20313	-12.2004
▁15981	-12.2009
▁squirrel	-12.2009
▁hab	-12.2009
▁elder	-12.2009
▁mini	-12.2013
是很	-12.2013
▁11360	-12.2013
▁11128	-12.2014
12561	-12.2023
是一种	-12.2024
ignora	-12.2024
37572	-12.2025
▁103274	-12.2025
▁pit	-12.2026
喝了	-12.2028
那样	-12.2029
step	-12.2033
天空	-12.2037
关系	-12.2042
22367	-12.2042
22030	-12.2043
clean	-12.2044
亮	-12.2047
持	-12.2047
拜	-12.2047
永遠	-12.2047
烦	-12.2047
姐妹	-12.2047
邮	-12.2047
▁garganta	-12.2047
tráeme	-12.2047
▁abrupt	-12.2047
▁aprendizaje	-12.2047
▁butterfly	-12.2047
▁channel	-12.2047
▁cuaderno	-12.2047
▁democracia	-12.2047
▁desconocido	-12.2047
▁exciting	-12.2047
▁francisco	-12.2047
▁hurried	-12.2047
▁impatient	-12.2047
▁increasing	-12.2047
▁november	-12.2047
▁surrender	-12.2047
線	-12.2047
▁helicóptero	-12.2047
▁jueves	-12.2047
▁poured	-12.2047
▁virtud	-12.2047
旧	-12.2047
crecí	-12.2047
traiciona	-12.2047
▁cuestion	-12.2047
权	-12.2047
▁circula	-12.2047
替	-12.2047
州	-12.2047
解決	-12.2047
掌	-12.2047
revenge	-12.2047
▁flashlight	-12.2047
▁poker	-12.2047
▁juez	-12.2047
standard	-12.2047
▁western	-12.2047
▁harsh	-12.2047
▁sabrá	-12.2047
比赛	-12.2047
▁fiction	-12.2047
▁ipad	-12.2047
幫忙	-12.2047
millie	-12.2047
▁sunset	-12.2048
profit	-12.2048
▁discount	-12.2048
晚餐	-12.2048
▁espina	-12.2048
▁device	-12.2048
jugamos	-12.2048
▁factor	-12.2048
▁gobern	-12.205
▁silba	-12.205
很漂亮	-12.2051
▁5107	-12.2051
▁trigo	-12.2051
但他	-12.2052
77725	-12.2052
▁coast	-12.2052
▁manual	-12.2052
sencillamente	-12.2052
▁gane	-12.2052
▁suitable	-12.2052
▁especialmente	-12.2054
他不是	-12.2054
完成了	-12.2056
▁118855	-12.2057
▁trash	-12.2057
▁rebel	-12.2057
我以为	-12.2059
▁19398	-12.2061
strictly	-12.2062
▁cubo	-12.2062
▁extraterrestres	-12.2064
▁13712	-12.2064
▁ángeles	-12.2065
▁adopted	-12.2067
▁106964	-12.2068
aquél	-12.2069
dejaste	-12.2069
▁ordenó	-12.2069
▁mandarin	-12.2071
▁59526	-12.2074
▁nest	-12.208
▁obtain	-12.2082
fuera	-12.2083
51052	-12.2085
幾個	-12.2086
▁absorb	-12.2088
在哪	-12.209
▁kitten	-12.209
▁blonde	-12.209
一杯	-12.2093
都很	-12.2094
开车	-12.2094
▁13514	-12.2094
lloverá	-12.2095
▁llamaste	-12.2096
defeated	-12.2097
▁compensa	-12.2098
▁abras	-12.2098
▁fate	-12.2099
▁materia	-12.21
不容易	-12.2101
13001	-12.2105
▁relie	-12.2106
▁spending	-12.2107
▁67033	-12.2107
zy	-12.2108
▁permanecer	-12.2114
▁13307	-12.2119
10763	-12.2121
▁entrena	-12.2121
▁vayan	-12.2124
▁sincero	-12.2126
▁tapa	-12.2127
22803	-12.2133
83003	-12.2134
11125	-12.2135
▁100788	-12.2136
94625	-12.2137
▁twin	-12.2139
10394	-12.2145
三个	-12.2147
▁soldado	-12.2149
▁parked	-12.2153
17212	-12.2155
▁12164	-12.2156
ciendo	-12.2156
▁59116	-12.2157
lend	-12.2157
小说	-12.2158
volvi	-12.2159
65348	-12.216
pardon	-12.2164
很美	-12.2166
instead	-12.2168
▁robo	-12.217
31797	-12.2171
actually	-12.2171
enjoy	-12.2172
tokyo	-12.2172
spanish	-12.2173
▁17133	-12.2173
señor	-12.2174
▁13021	-12.2177
▁99613	-12.2177
▁15162	-12.2178
▁8628	-12.2178
27653	-12.2179
agreg	-12.218
▁13915	-12.2183
▁pinch	-12.2184
▁empleado	-12.2184
italia	-12.2185
105017	-12.2187
▁bake	-12.2191
一座	-12.2191
fueron	-12.2192
100897	-12.2193
liver	-12.2196
50240	-12.2197
▁29245	-12.2198
很有趣	-12.2203
izing	-12.2203
▁12391	-12.2204
▁101111	-12.221
18082	-12.221
plica	-12.2215
honesty	-12.2215
apret	-12.2217
▁educado	-12.2219
18682	-12.2219
17191	-12.222
fica	-12.2221
▁enamora	-12.2222
102834	-12.2227
另一	-12.2228
不錯	-12.2233
diga	-12.2235
▁tercer	-12.2239
12545	-12.2239
▁16986	-12.2242
▁explic	-12.2244
▁argumento	-12.2244
▁dye	-12.2246
▁horizon	-12.2247
▁contenta	-12.225
讨厌	-12.225
▁trabajado	-12.225
gna	-12.2251
▁predict	-12.2252
▁orgullo	-12.2252
▁lógica	-12.2255
92029	-12.2256
▁12119	-12.2257
árselo	-12.2258
grafía	-12.2259
旁	-12.226
▁103039	-12.226
众	-12.226
應	-12.226
适	-12.226
静	-12.226
股	-12.226
伙	-12.226
细	-12.226
维	-12.226
▁frigorífico	-12.226
▁caluroso	-12.226
怎樣	-12.226
▁colleague	-12.226
▁evidencia	-12.226
▁ochenta	-12.226
enséñame	-12.226
▁bloom	-12.226
▁burglar	-12.226
▁entusiasm	-12.226
▁galaxia	-12.226
▁improbable	-12.226
▁indifferent	-12.226
▁infinite	-12.226
▁poquito	-12.226
▁salvó	-12.226
▁surgery	-12.226
▁sótano	-12.226
▁typhoon	-12.226
▁crítica	-12.226
▁grandparents	-12.226
▁homosexual	-12.226
▁incapaz	-12.226
▁oxígeno	-12.226
▁bebido	-12.226
▁entrevista	-12.226
哦	-12.226
▁esclavo	-12.226
▁parcial	-12.226
▁plaza	-12.226
诗	-12.226
▁comité	-12.226
洗澡	-12.226
普	-12.226
▁aguanto	-12.226
12135	-12.226
▁18686	-12.226
▁assistant	-12.226
▁habitual	-12.226
根本	-12.226
michael	-12.226
▁rough	-12.226
aplaud	-12.226
lléva	-12.226
traduce	-12.226
▁outfit	-12.2261
▁saliera	-12.2261
期待	-12.2261
流利	-12.2261
marika	-12.2261
actúa	-12.2261
為甚麼	-12.2262
▁preocuparse	-12.2262
機會	-12.2262
▁partner	-12.2262
100172	-12.2263
明年	-12.2264
出发	-12.2264
▁construcción	-12.2265
本书	-12.2267
▁affected	-12.2268
▁comic	-12.2268
▁pavo	-12.2271
▁distant	-12.2271
▁attempted	-12.2272
▁careless	-12.2272
▁11659	-12.2274
▁personalidad	-12.2275
▁cocinando	-12.2275
▁55676	-12.2277
我還	-12.2277
我打算	-12.2278
▁109136	-12.2279
youtube	-12.228
finland	-12.228
▁45549	-12.228
▁murderer	-12.2281
通过	-12.2281
▁everest	-12.2282
13882	-12.2283
▁sandwiches	-12.2283
▁provided	-12.2283
▁coca	-12.2284
▁nuevamente	-12.2284
下雨了	-12.2287
名字	-12.2288
可能会	-12.2289
déjalo	-12.229
▁102607	-12.229
▁sospecha	-12.2293
▁mires	-12.2294
dollar	-12.2295
▁longest	-12.2296
▁coser	-12.2298
▁painter	-12.2303
▁21738	-12.2306
▁overcome	-12.2308
▁101063	-12.2308
▁formed	-12.2309
▁encuentran	-12.231
23609	-12.2321
▁tax	-12.2322
告诉你	-12.2323
damas	-12.2328
25436	-12.2328
▁2:30	-12.2332
▁16908	-12.2332
失去了	-12.2333
▁tries	-12.2334
adivina	-12.234
33656	-12.2341
▁13160	-12.2351
▁11202	-12.2355
▁naturales	-12.2356
▁snowed	-12.2357
▁19907	-12.2358
▁88141	-12.2358
98194	-12.2359
▁50484	-12.2362
68238	-12.2362
能不能	-12.2364
51301	-12.2365
95648	-12.2366
看到了	-12.2366
一定是	-12.2366
▁instrumento	-12.237
77723	-12.2372
▁15352	-12.2373
▁31124	-12.2375
睡了	-12.2376
曾	-12.2379
变得	-12.2381
▁17458	-12.2384
▁16091	-12.2384
20319	-12.2385
50233	-12.2388
给我们	-12.239
▁14129	-12.239
28460	-12.2396
20426	-12.2397
▁13375	-12.2399
cambi	-12.2402
▁showing	-12.2404
▁16047	-12.2405
23893	-12.2405
14398	-12.2407
98538	-12.2413
either	-12.2413
▁diablo	-12.2416
observe	-12.2416
的女孩	-12.2417
▁agradec	-12.2419
54426	-12.242
▁100121	-12.2421
▁99585	-12.2423
22362	-12.2424
hacía	-12.2426
computer	-12.2429
67127	-12.243
15172	-12.2442
16171	-12.2444
▁pulse	-12.2444
▁herir	-12.2446
lus	-12.2449
person	-12.2449
lves	-12.2449
true	-12.245
13243	-12.2452
continua	-12.2454
▁seria	-12.2456
coleccion	-12.2458
的衣服	-12.2459
▁pregunt	-12.2461
自己做	-12.2462
的故事	-12.2464
▁confuse	-12.2465
留在	-12.2465
▁tomato	-12.2466
会来	-12.2469
negoci	-12.2476
▁reflect	-12.2477
西班牙	-12.2477
农	-12.2477
临	-12.2477
瓜	-12.2477
朵	-12.2477
失敗	-12.2477
追	-12.2477
緊	-12.2477
藥	-12.2477
顶	-12.2477
波	-12.2477
義	-12.2477
探	-12.2477
▁ilusión	-12.2477
▁progreso	-12.2477
chemistry	-12.2477
siéntate	-12.2477
▁alérgico	-12.2477
▁baggage	-12.2477
▁bunch	-12.2477
▁círculo	-12.2477
▁downtown	-12.2477
▁generous	-12.2477
▁grammatical	-12.2477
▁religious	-12.2477
▁secundaria	-12.2477
▁trunk	-12.2477
▁underestimate	-12.2477
▁worries	-12.2477
岛	-12.2477
彈	-12.2477
▁ambulance	-12.2477
▁clásica	-12.2477
▁compromiso	-12.2477
▁cultiva	-12.2477
▁drowning	-12.2477
▁egipto	-12.2477
▁egoísta	-12.2477
▁explosión	-12.2477
▁exámenes	-12.2477
▁gramática	-12.2477
▁usuario	-12.2477
▁vidrio	-12.2477
▁conjunto	-12.2477
▁eighteen	-12.2477
▁estupendo	-12.2477
趕	-12.2477
trump	-12.2477
▁candidate	-12.2477
断	-12.2477
謝謝	-12.2477
杂	-12.2477
选择	-12.2477
▁escapó	-12.2477
▁palace	-12.2477
wolves	-12.2477
▁directamente	-12.2477
mennad	-12.2477
▁fresca	-12.2477
soñé	-12.2477
老婆	-12.2477
改變	-12.2477
▁performance	-12.2478
▁bici	-12.2478
如此	-12.2478
▁promote	-12.2478
org	-12.2478
▁adicto	-12.2478
vendió	-12.2478
▁delay	-12.2478
▁amabilidad	-12.2478
德语	-12.2478
▁pintor	-12.2478
▁goose	-12.2478
面包	-12.2478
▁12101	-12.2478
這張	-12.2478
从来没	-12.2478
头发	-12.2479
▁madura	-12.248
definitivamente	-12.248
profe	-12.248
▁57060	-12.2481
▁spilled	-12.2481
我们必须	-12.2481
19613	-12.2481
▁darkness	-12.2482
perdimos	-12.2482
▁tiny	-12.2482
▁breed	-12.2483
▁connected	-12.2483
怎么做	-12.2484
▁demostrar	-12.2484
ladies	-12.2485
▁43984	-12.2485
不得不	-12.2486
▁fairy	-12.2488
▁pirate	-12.2489
▁13856	-12.249
▁determined	-12.2491
▁skip	-12.2493
▁personaje	-12.2494
我哥哥	-12.2495
▁juzgar	-12.2499
▁tercera	-12.25
▁77676	-12.25
▁murdered	-12.25
▁correctly	-12.2501
▁20314	-12.2502
▁dejan	-12.2502
跟她	-12.2507
▁conducta	-12.2508
▁sentarme	-12.2508
▁preocupada	-12.2509
sopla	-12.2511
gula	-12.2515
▁kissing	-12.2516
的眼睛	-12.2517
18911	-12.2521
keeping	-12.2521
找到了	-12.2523
15422	-12.2526
▁concentrar	-12.2526
▁51441	-12.2527
▁dancer	-12.2529
我是个	-12.2529
他喜欢	-12.2529
▁hind	-12.253
▁paredes	-12.253
▁prospe	-12.2532
16511	-12.2534
17239	-12.2534
89553	-12.2534
▁77747	-12.2534
▁matches	-12.2537
rated	-12.2538
进来	-12.2538
25495	-12.2539
看着	-12.254
▁11164	-12.2541
▁78726	-12.2541
▁21510	-12.2542
▁seguía	-12.2543
▁14683	-12.2543
▁50251	-12.2544
santo	-12.2547
時候	-12.2549
▁pun	-12.2553
11909	-12.2555
▁signo	-12.2555
在那里	-12.2556
▁20636	-12.2556
66850	-12.2557
▁danced	-12.2558
▁presentó	-12.2562
桌子上	-12.2563
23604	-12.2564
▁14815	-12.2564
wake	-12.2565
▁blog	-12.2565
机会	-12.2566
▁nave	-12.2566
venid	-12.2567
▁11872	-12.2569
chris	-12.257
这么做	-12.2572
發生了	-12.2574
23337	-12.2574
▁17160	-12.2578
▁16865	-12.2585
▁28575	-12.2586
50854	-12.2586
▁15100	-12.2589
▁11253	-12.2595
▁ponerme	-12.2595
▁13879	-12.2597
skirts	-12.2599
很多人	-12.2601
块	-12.2607
▁11672	-12.2609
▁51300	-12.261
dense	-12.2614
saldr	-12.2615
▁dresses	-12.2615
15132	-12.2616
[...]
